{
  "version": "1.0",
  "truncation": null,
  "padding": null,
  "added_tokens": [
    {
      "id": 0,
      "content": "[PAD]",
      "single_word": false,
      "lstrip": false,
      "rstrip": false,
      "normalized": false,
      "special": true
    },
    {
      "id": 1,
      "content": "[UNK]",
      "single_word": false,
      "lstrip": false,
      "rstrip": false,
      "normalized": false,
      "special": true
    }
  ],
  "normalizer": null,
  "pre_tokenizer": {
    "type": "Whitespace"
  },
  "post_processor": null,
  "decoder": null,
  "model": {
    "type": "BPE",
    "dropout": null,
    "unk_token": "[UNK]",
    "continuing_subword_prefix": "##",
    "end_of_word_suffix": null,
    "fuse_unk": false,
    "byte_fallback": false,
    "ignore_merges": false,
    "vocab": {
      "[PAD]": 0,
      "[UNK]": 1,
      "0": 2,
      "1": 3,
      "2": 4,
      "3": 5,
      "4": 6,
      "5": 7,
      "6": 8,
      "7": 9,
      "8": 10,
      "9": 11,
      "\\": 12,
      "a": 13,
      "b": 14,
      "c": 15,
      "d": 16,
      "e": 17,
      "f": 18,
      "g": 19,
      "h": 20,
      "i": 21,
      "j": 22,
      "k": 23,
      "l": 24,
      "m": 25,
      "n": 26,
      "o": 27,
      "p": 28,
      "q": 29,
      "r": 30,
      "s": 31,
      "t": 32,
      "u": 33,
      "v": 34,
      "w": 35,
      "x": 36,
      "y": 37,
      "z": 38,
      "¡": 39,
      "¤": 40,
      "§": 41,
      "¨": 42,
      "­": 43,
      "°": 44,
      "²": 45,
      "³": 46,
      "´": 47,
      "·": 48,
      "¿": 49,
      "×": 50,
      "÷": 51,
      "˚": 52,
      "π": 53,
      "ω": 54,
      "‘": 55,
      "’": 56,
      "“": 57,
      "”": 58,
      "‥": 59,
      "…": 60,
      "※": 61,
      "ⁿ": 62,
      "₂": 63,
      "ⅰ": 64,
      "ⅱ": 65,
      "ⅲ": 66,
      "←": 67,
      "↑": 68,
      "→": 69,
      "↓": 70,
      "↗": 71,
      "↘": 72,
      "∀": 73,
      "∇": 74,
      "∼": 75,
      "≤": 76,
      "≥": 77,
      "⊙": 78,
      "⌒": 79,
      "②": 80,
      "⑦": 81,
      "⑹": 82,
      "ⓒ": 83,
      "ⓛ": 84,
      "ⓞ": 85,
      "─": 86,
      "━": 87,
      "┏": 88,
      "■": 89,
      "□": 90,
      "△": 91,
      "▶": 92,
      "▷": 93,
      "▼": 94,
      "▽": 95,
      "◀": 96,
      "◁": 97,
      "◆": 98,
      "○": 99,
      "◎": 100,
      "●": 101,
      "◐": 102,
      "◑": 103,
      "★": 104,
      "☆": 105,
      "☜": 106,
      "☞": 107,
      "☻": 108,
      "♡": 109,
      "♤": 110,
      "♥": 111,
      "♧": 112,
      "♩": 113,
      "♪": 114,
      "♫": 115,
      "♬": 116,
      "、": 117,
      "。": 118,
      "《": 119,
      "》": 120,
      "「": 121,
      "」": 122,
      "『": 123,
      "』": 124,
      "【": 125,
      "】": 126,
      "い": 127,
      "う": 128,
      "え": 129,
      "お": 130,
      "か": 131,
      "が": 132,
      "き": 133,
      "け": 134,
      "こ": 135,
      "し": 136,
      "す": 137,
      "せ": 138,
      "そ": 139,
      "た": 140,
      "だ": 141,
      "っ": 142,
      "つ": 143,
      "づ": 144,
      "で": 145,
      "と": 146,
      "な": 147,
      "に": 148,
      "ね": 149,
      "の": 150,
      "は": 151,
      "ひ": 152,
      "ほ": 153,
      "ぽ": 154,
      "ま": 155,
      "む": 156,
      "も": 157,
      "ゃ": 158,
      "よ": 159,
      "ら": 160,
      "り": 161,
      "る": 162,
      "れ": 163,
      "ろ": 164,
      "わ": 165,
      "を": 166,
      "ん": 167,
      "イ": 168,
      "ウ": 169,
      "エ": 170,
      "カ": 171,
      "ガ": 172,
      "グ": 173,
      "コ": 174,
      "シ": 175,
      "ス": 176,
      "タ": 177,
      "ダ": 178,
      "チ": 179,
      "ッ": 180,
      "テ": 181,
      "デ": 182,
      "ト": 183,
      "ニ": 184,
      "バ": 185,
      "パ": 186,
      "ヒ": 187,
      "ピ": 188,
      "ベ": 189,
      "マ": 190,
      "ム": 191,
      "メ": 192,
      "ョ": 193,
      "ヨ": 194,
      "リ": 195,
      "ル": 196,
      "ロ": 197,
      "ワ": 198,
      "ン": 199,
      "ㄱ": 200,
      "ㄲ": 201,
      "ㄳ": 202,
      "ㄴ": 203,
      "ㄵ": 204,
      "ㄶ": 205,
      "ㄷ": 206,
      "ㄸ": 207,
      "ㄹ": 208,
      "ㄺ": 209,
      "ㄻ": 210,
      "ㅀ": 211,
      "ㅁ": 212,
      "ㅂ": 213,
      "ㅃ": 214,
      "ㅄ": 215,
      "ㅅ": 216,
      "ㅆ": 217,
      "ㅇ": 218,
      "ㅈ": 219,
      "ㅉ": 220,
      "ㅊ": 221,
      "ㅋ": 222,
      "ㅌ": 223,
      "ㅍ": 224,
      "ㅎ": 225,
      "ㅏ": 226,
      "ㅐ": 227,
      "ㅑ": 228,
      "ㅒ": 229,
      "ㅓ": 230,
      "ㅔ": 231,
      "ㅕ": 232,
      "ㅖ": 233,
      "ㅗ": 234,
      "ㅘ": 235,
      "ㅛ": 236,
      "ㅜ": 237,
      "ㅝ": 238,
      "ㅞ": 239,
      "ㅟ": 240,
      "ㅠ": 241,
      "ㅡ": 242,
      "ㅢ": 243,
      "ㅣ": 244,
      "ㅤ": 245,
      "ㆀ": 246,
      "ㆍ": 247,
      "一": 248,
      "三": 249,
      "上": 250,
      "下": 251,
      "中": 252,
      "乃": 253,
      "也": 254,
      "亞": 255,
      "亡": 256,
      "人": 257,
      "低": 258,
      "佑": 259,
      "作": 260,
      "侖": 261,
      "信": 262,
      "候": 263,
      "倭": 264,
      "傑": 265,
      "僞": 266,
      "先": 267,
      "典": 268,
      "凸": 269,
      "出": 270,
      "刻": 271,
      "前": 272,
      "力": 273,
      "助": 274,
      "北": 275,
      "友": 276,
      "反": 277,
      "古": 278,
      "史": 279,
      "名": 280,
      "吐": 281,
      "味": 282,
      "品": 283,
      "善": 284,
      "喜": 285,
      "型": 286,
      "塵": 287,
      "外": 288,
      "大": 289,
      "天": 290,
      "失": 291,
      "女": 292,
      "好": 293,
      "孝": 294,
      "完": 295,
      "定": 296,
      "害": 297,
      "家": 298,
      "小": 299,
      "山": 300,
      "岡": 301,
      "峰": 302,
      "峽": 303,
      "希": 304,
      "師": 305,
      "年": 306,
      "幸": 307,
      "式": 308,
      "張": 309,
      "彩": 310,
      "彼": 311,
      "待": 312,
      "後": 313,
      "復": 314,
      "必": 315,
      "忍": 316,
      "念": 317,
      "急": 318,
      "性": 319,
      "情": 320,
      "惡": 321,
      "愛": 322,
      "感": 323,
      "慶": 324,
      "憎": 325,
      "戰": 326,
      "手": 327,
      "故": 328,
      "敵": 329,
      "新": 330,
      "旋": 331,
      "日": 332,
      "映": 333,
      "曲": 334,
      "最": 335,
      "會": 336,
      "月": 337,
      "有": 338,
      "望": 339,
      "期": 340,
      "木": 341,
      "末": 342,
      "本": 343,
      "林": 344,
      "柱": 345,
      "様": 346,
      "檢": 347,
      "歌": 348,
      "死": 349,
      "氣": 350,
      "求": 351,
      "江": 352,
      "法": 353,
      "派": 354,
      "流": 355,
      "淇": 356,
      "湖": 357,
      "漁": 358,
      "演": 359,
      "濡": 360,
      "火": 361,
      "無": 362,
      "王": 363,
      "生": 364,
      "用": 365,
      "田": 366,
      "甲": 367,
      "申": 368,
      "男": 369,
      "画": 370,
      "異": 371,
      "白": 372,
      "的": 373,
      "皿": 374,
      "益": 375,
      "直": 376,
      "看": 377,
      "眞": 378,
      "眠": 379,
      "祖": 380,
      "神": 381,
      "禪": 382,
      "秀": 383,
      "立": 384,
      "笑": 385,
      "糞": 386,
      "紅": 387,
      "紙": 388,
      "終": 389,
      "結": 390,
      "緣": 391,
      "美": 392,
      "者": 393,
      "腸": 394,
      "自": 395,
      "臭": 396,
      "舒": 397,
      "色": 398,
      "苦": 399,
      "英": 400,
      "葉": 401,
      "蒼": 402,
      "藝": 403,
      "蜀": 404,
      "蟲": 405,
      "要": 406,
      "見": 407,
      "觸": 408,
      "言": 409,
      "記": 410,
      "論": 411,
      "謝": 412,
      "讐": 413,
      "車": 414,
      "道": 415,
      "部": 416,
      "都": 417,
      "里": 418,
      "野": 419,
      "鈴": 420,
      "鋒": 421,
      "錢": 422,
      "間": 423,
      "集": 424,
      "離": 425,
      "難": 426,
      "電": 427,
      "霆": 428,
      "非": 429,
      "面": 430,
      "韓": 431,
      "頑": 432,
      "香": 433,
      "驛": 434,
      "高": 435,
      "가": 436,
      "각": 437,
      "간": 438,
      "갅": 439,
      "갇": 440,
      "갈": 441,
      "갉": 442,
      "감": 443,
      "갑": 444,
      "값": 445,
      "갓": 446,
      "갔": 447,
      "강": 448,
      "갖": 449,
      "갗": 450,
      "갘": 451,
      "같": 452,
      "갚": 453,
      "갛": 454,
      "개": 455,
      "객": 456,
      "갠": 457,
      "갤": 458,
      "갬": 459,
      "갯": 460,
      "갰": 461,
      "갱": 462,
      "갵": 463,
      "갸": 464,
      "걀": 465,
      "걈": 466,
      "걍": 467,
      "걑": 468,
      "걔": 469,
      "걘": 470,
      "거": 471,
      "걱": 472,
      "건": 473,
      "걷": 474,
      "걸": 475,
      "검": 476,
      "겁": 477,
      "겂": 478,
      "것": 479,
      "겄": 480,
      "겅": 481,
      "겈": 482,
      "겉": 483,
      "겋": 484,
      "게": 485,
      "겐": 486,
      "겓": 487,
      "겔": 488,
      "겜": 489,
      "겝": 490,
      "겟": 491,
      "겠": 492,
      "겡": 493,
      "겤": 494,
      "겧": 495,
      "겨": 496,
      "격": 497,
      "겪": 498,
      "견": 499,
      "결": 500,
      "겸": 501,
      "겹": 502,
      "겻": 503,
      "겼": 504,
      "경": 505,
      "곀": 506,
      "곁": 507,
      "곃": 508,
      "계": 509,
      "곅": 510,
      "곗": 511,
      "곘": 512,
      "고": 513,
      "곡": 514,
      "곤": 515,
      "곧": 516,
      "골": 517,
      "곪": 518,
      "곰": 519,
      "곱": 520,
      "곳": 521,
      "공": 522,
      "곶": 523,
      "곷": 524,
      "곸": 525,
      "곻": 526,
      "과": 527,
      "곽": 528,
      "관": 529,
      "괄": 530,
      "광": 531,
      "괘": 532,
      "괜": 533,
      "괞": 534,
      "괭": 535,
      "괴": 536,
      "괸": 537,
      "굉": 538,
      "교": 539,
      "구": 540,
      "국": 541,
      "굯": 542,
      "군": 543,
      "굳": 544,
      "굴": 545,
      "굵": 546,
      "굶": 547,
      "굷": 548,
      "굼": 549,
      "굽": 550,
      "굿": 551,
      "궁": 552,
      "궂": 553,
      "궅": 554,
      "궈": 555,
      "권": 556,
      "궐": 557,
      "궛": 558,
      "궜": 559,
      "궤": 560,
      "귀": 561,
      "귄": 562,
      "귓": 563,
      "귘": 564,
      "규": 565,
      "귝": 566,
      "균": 567,
      "귤": 568,
      "귬": 569,
      "귯": 570,
      "귱": 571,
      "그": 572,
      "극": 573,
      "귻": 574,
      "근": 575,
      "귿": 576,
      "글": 577,
      "긁": 578,
      "금": 579,
      "급": 580,
      "긋": 581,
      "긍": 582,
      "긑": 583,
      "긔": 584,
      "긛": 585,
      "긬": 586,
      "기": 587,
      "긱": 588,
      "긴": 589,
      "길": 590,
      "김": 591,
      "깁": 592,
      "깃": 593,
      "깄": 594,
      "깅": 595,
      "깇": 596,
      "깈": 597,
      "깉": 598,
      "깊": 599,
      "까": 600,
      "깍": 601,
      "깎": 602,
      "깐": 603,
      "깔": 604,
      "깜": 605,
      "깝": 606,
      "깞": 607,
      "깟": 608,
      "깡": 609,
      "깤": 610,
      "깥": 611,
      "깨": 612,
      "깩": 613,
      "깻": 614,
      "깽": 615,
      "꺄": 616,
      "꺅": 617,
      "꺆": 618,
      "꺇": 619,
      "꺍": 620,
      "꺙": 621,
      "꺜": 622,
      "꺠": 623,
      "꺤": 624,
      "꺼": 625,
      "꺽": 626,
      "꺾": 627,
      "껀": 628,
      "껃": 629,
      "껄": 630,
      "껌": 631,
      "껍": 632,
      "껏": 633,
      "껐": 634,
      "껑": 635,
      "껒": 636,
      "께": 637,
      "껜": 638,
      "껬": 639,
      "껭": 640,
      "껰": 641,
      "껴": 642,
      "꼅": 643,
      "꼇": 644,
      "꼐": 645,
      "꼬": 646,
      "꼭": 647,
      "꼮": 648,
      "꼰": 649,
      "꼳": 650,
      "꼴": 651,
      "꼼": 652,
      "꼽": 653,
      "꼿": 654,
      "꽁": 655,
      "꽂": 656,
      "꽃": 657,
      "꽄": 658,
      "꽈": 659,
      "꽉": 660,
      "꽝": 661,
      "꽤": 662,
      "꽥": 663,
      "꽦": 664,
      "꽹": 665,
      "꾀": 666,
      "꾜": 667,
      "꾱": 668,
      "꾸": 669,
      "꾹": 670,
      "꾼": 671,
      "꾿": 672,
      "꿀": 673,
      "꿇": 674,
      "꿈": 675,
      "꿉": 676,
      "꿋": 677,
      "꿍": 678,
      "꿎": 679,
      "꿐": 680,
      "꿑": 681,
      "꿓": 682,
      "꿔": 683,
      "꿘": 684,
      "꿧": 685,
      "꿩": 686,
      "꿬": 687,
      "꿰": 688,
      "뀌": 689,
      "뀨": 690,
      "뀩": 691,
      "뀰": 692,
      "뀼": 693,
      "끄": 694,
      "끅": 695,
      "끆": 696,
      "끈": 697,
      "끊": 698,
      "끋": 699,
      "끌": 700,
      "끓": 701,
      "끔": 702,
      "끕": 703,
      "끗": 704,
      "끙": 705,
      "끚": 706,
      "끝": 707,
      "끠": 708,
      "끼": 709,
      "끽": 710,
      "끾": 711,
      "낀": 712,
      "낄": 713,
      "낌": 714,
      "낏": 715,
      "낑": 716,
      "낔": 717,
      "나": 718,
      "낙": 719,
      "낚": 720,
      "낛": 721,
      "난": 722,
      "낞": 723,
      "낟": 724,
      "날": 725,
      "낡": 726,
      "남": 727,
      "납": 728,
      "낫": 729,
      "났": 730,
      "낭": 731,
      "낮": 732,
      "낯": 733,
      "낰": 734,
      "낱": 735,
      "낲": 736,
      "낳": 737,
      "내": 738,
      "낸": 739,
      "낼": 740,
      "냄": 741,
      "냅": 742,
      "냇": 743,
      "냉": 744,
      "냊": 745,
      "냌": 746,
      "냐": 747,
      "냑": 748,
      "냔": 749,
      "냠": 750,
      "냣": 751,
      "냥": 752,
      "냨": 753,
      "냬": 754,
      "넀": 755,
      "너": 756,
      "넉": 757,
      "넋": 758,
      "넌": 759,
      "널": 760,
      "넒": 761,
      "넓": 762,
      "넖": 763,
      "넗": 764,
      "넘": 765,
      "넙": 766,
      "넛": 767,
      "넜": 768,
      "넝": 769,
      "넢": 770,
      "넣": 771,
      "네": 772,
      "넥": 773,
      "넨": 774,
      "넫": 775,
      "넬": 776,
      "넴": 777,
      "넵": 778,
      "넷": 779,
      "넸": 780,
      "넹": 781,
      "넼": 782,
      "넿": 783,
      "녀": 784,
      "녁": 785,
      "년": 786,
      "녈": 787,
      "념": 788,
      "녓": 789,
      "녔": 790,
      "녕": 791,
      "녘": 792,
      "녜": 793,
      "노": 794,
      "녹": 795,
      "논": 796,
      "녿": 797,
      "놀": 798,
      "놃": 799,
      "놈": 800,
      "놉": 801,
      "놋": 802,
      "농": 803,
      "놑": 804,
      "높": 805,
      "놓": 806,
      "놔": 807,
      "놕": 808,
      "놘": 809,
      "놜": 810,
      "놧": 811,
      "놨": 812,
      "놬": 813,
      "뇌": 814,
      "뇔": 815,
      "뇨": 816,
      "뇬": 817,
      "뇰": 818,
      "뇽": 819,
      "누": 820,
      "눅": 821,
      "눈": 822,
      "눊": 823,
      "눌": 824,
      "눔": 825,
      "눕": 826,
      "눙": 827,
      "눠": 828,
      "눼": 829,
      "뉘": 830,
      "뉨": 831,
      "뉴": 832,
      "늄": 833,
      "늉": 834,
      "느": 835,
      "늑": 836,
      "는": 837,
      "늘": 838,
      "늙": 839,
      "늠": 840,
      "늡": 841,
      "늣": 842,
      "능": 843,
      "늦": 844,
      "늨": 845,
      "늪": 846,
      "늬": 847,
      "늰": 848,
      "늴": 849,
      "닁": 850,
      "니": 851,
      "닉": 852,
      "닊": 853,
      "닌": 854,
      "닏": 855,
      "닐": 856,
      "님": 857,
      "닛": 858,
      "닝": 859,
      "닟": 860,
      "닠": 861,
      "다": 862,
      "닥": 863,
      "닦": 864,
      "단": 865,
      "닫": 866,
      "달": 867,
      "닭": 868,
      "닮": 869,
      "닯": 870,
      "닳": 871,
      "담": 872,
      "답": 873,
      "닶": 874,
      "닷": 875,
      "당": 876,
      "닺": 877,
      "닻": 878,
      "닼": 879,
      "닿": 880,
      "대": 881,
      "댁": 882,
      "댄": 883,
      "댇": 884,
      "댐": 885,
      "댓": 886,
      "댕": 887,
      "댖": 888,
      "댘": 889,
      "댜": 890,
      "댠": 891,
      "댣": 892,
      "댬": 893,
      "댰": 894,
      "댸": 895,
      "더": 896,
      "덕": 897,
      "던": 898,
      "덛": 899,
      "덜": 900,
      "덟": 901,
      "덤": 902,
      "덥": 903,
      "덧": 904,
      "덨": 905,
      "덩": 906,
      "덫": 907,
      "덮": 908,
      "덯": 909,
      "데": 910,
      "덱": 911,
      "덴": 912,
      "덷": 913,
      "델": 914,
      "뎀": 915,
      "뎁": 916,
      "뎃": 917,
      "뎄": 918,
      "뎅": 919,
      "뎈": 920,
      "뎋": 921,
      "뎌": 922,
      "뎍": 923,
      "뎐": 924,
      "뎜": 925,
      "뎟": 926,
      "뎠": 927,
      "뎡": 928,
      "도": 929,
      "독": 930,
      "돈": 931,
      "돋": 932,
      "돌": 933,
      "돔": 934,
      "돕": 935,
      "돗": 936,
      "동": 937,
      "돜": 938,
      "돟": 939,
      "돠": 940,
      "돤": 941,
      "돱": 942,
      "돼": 943,
      "됀": 944,
      "됄": 945,
      "됏": 946,
      "됐": 947,
      "됑": 948,
      "되": 949,
      "된": 950,
      "될": 951,
      "됨": 952,
      "됫": 953,
      "됬": 954,
      "됭": 955,
      "됴": 956,
      "됻": 957,
      "두": 958,
      "둑": 959,
      "둔": 960,
      "둘": 961,
      "둠": 962,
      "둡": 963,
      "둣": 964,
      "둥": 965,
      "둬": 966,
      "둿": 967,
      "뒈": 968,
      "뒌": 969,
      "뒤": 970,
      "뒷": 971,
      "뒹": 972,
      "듀": 973,
      "듁": 974,
      "듕": 975,
      "드": 976,
      "득": 977,
      "든": 978,
      "듣": 979,
      "들": 980,
      "듧": 981,
      "듨": 982,
      "듬": 983,
      "듭": 984,
      "듯": 985,
      "등": 986,
      "듴": 987,
      "듵": 988,
      "듷": 989,
      "듸": 990,
      "딍": 991,
      "디": 992,
      "딕": 993,
      "딘": 994,
      "딛": 995,
      "딜": 996,
      "딤": 997,
      "딥": 998,
      "딧": 999,
      "딨": 1000,
      "딩": 1001,
      "딪": 1002,
      "딫": 1003,
      "딬": 1004,
      "딮": 1005,
      "따": 1006,
      "딱": 1007,
      "딲": 1008,
      "딴": 1009,
      "딸": 1010,
      "땀": 1011,
      "땁": 1012,
      "땃": 1013,
      "땅": 1014,
      "땈": 1015,
      "땋": 1016,
      "때": 1017,
      "땍": 1018,
      "땐": 1019,
      "땓": 1020,
      "땔": 1021,
      "땜": 1022,
      "땝": 1023,
      "땟": 1024,
      "땡": 1025,
      "땨": 1026,
      "땸": 1027,
      "떄": 1028,
      "떈": 1029,
      "떌": 1030,
      "떔": 1031,
      "떘": 1032,
      "떙": 1033,
      "떠": 1034,
      "떡": 1035,
      "떤": 1036,
      "떨": 1037,
      "떫": 1038,
      "떱": 1039,
      "떳": 1040,
      "떵": 1041,
      "떻": 1042,
      "떼": 1043,
      "떽": 1044,
      "뗄": 1045,
      "뗬": 1046,
      "뗴": 1047,
      "뗼": 1048,
      "또": 1049,
      "똑": 1050,
      "똔": 1051,
      "똗": 1052,
      "똘": 1053,
      "똠": 1054,
      "똥": 1055,
      "똭": 1056,
      "똴": 1057,
      "뙀": 1058,
      "뙁": 1059,
      "뙇": 1060,
      "뚜": 1061,
      "뚝": 1062,
      "뚠": 1063,
      "뚤": 1064,
      "뚫": 1065,
      "뚬": 1066,
      "뚯": 1067,
      "뚱": 1068,
      "뛰": 1069,
      "뛴": 1070,
      "뜌": 1071,
      "뜨": 1072,
      "뜩": 1073,
      "뜬": 1074,
      "뜯": 1075,
      "뜰": 1076,
      "뜷": 1077,
      "뜸": 1078,
      "뜻": 1079,
      "뜽": 1080,
      "띀": 1081,
      "띁": 1082,
      "띄": 1083,
      "띠": 1084,
      "띡": 1085,
      "띤": 1086,
      "띨": 1087,
      "띰": 1088,
      "띱": 1089,
      "띵": 1090,
      "라": 1091,
      "락": 1092,
      "란": 1093,
      "랃": 1094,
      "랄": 1095,
      "람": 1096,
      "랍": 1097,
      "랏": 1098,
      "랐": 1099,
      "랑": 1100,
      "랒": 1101,
      "랔": 1102,
      "랖": 1103,
      "랗": 1104,
      "래": 1105,
      "랙": 1106,
      "랜": 1107,
      "랟": 1108,
      "랠": 1109,
      "램": 1110,
      "랩": 1111,
      "랫": 1112,
      "랬": 1113,
      "랭": 1114,
      "랰": 1115,
      "랴": 1116,
      "략": 1117,
      "랽": 1118,
      "럈": 1119,
      "량": 1120,
      "럔": 1121,
      "럤": 1122,
      "러": 1123,
      "럭": 1124,
      "런": 1125,
      "럴": 1126,
      "럼": 1127,
      "럽": 1128,
      "럾": 1129,
      "럿": 1130,
      "렀": 1131,
      "렁": 1132,
      "렇": 1133,
      "레": 1134,
      "렉": 1135,
      "렌": 1136,
      "렐": 1137,
      "렘": 1138,
      "렙": 1139,
      "렛": 1140,
      "렜": 1141,
      "렝": 1142,
      "렠": 1143,
      "려": 1144,
      "력": 1145,
      "련": 1146,
      "렬": 1147,
      "렴": 1148,
      "렵": 1149,
      "렷": 1150,
      "렸": 1151,
      "령": 1152,
      "렿": 1153,
      "례": 1154,
      "롁": 1155,
      "롄": 1156,
      "로": 1157,
      "록": 1158,
      "론": 1159,
      "롤": 1160,
      "롬": 1161,
      "롭": 1162,
      "롯": 1163,
      "롱": 1164,
      "롴": 1165,
      "롷": 1166,
      "롸": 1167,
      "롹": 1168,
      "뢀": 1169,
      "뢈": 1170,
      "뢉": 1171,
      "뢍": 1172,
      "뢔": 1173,
      "뢰": 1174,
      "료": 1175,
      "룔": 1176,
      "룕": 1177,
      "룡": 1178,
      "루": 1179,
      "룩": 1180,
      "룬": 1181,
      "룯": 1182,
      "룰": 1183,
      "룸": 1184,
      "룹": 1185,
      "룻": 1186,
      "룽": 1187,
      "뤄": 1188,
      "뤌": 1189,
      "뤠": 1190,
      "뤡": 1191,
      "뤰": 1192,
      "뤼": 1193,
      "뤽": 1194,
      "륄": 1195,
      "륒": 1196,
      "류": 1197,
      "륙": 1198,
      "륜": 1199,
      "률": 1200,
      "륨": 1201,
      "륭": 1202,
      "르": 1203,
      "륵": 1204,
      "른": 1205,
      "륺": 1206,
      "를": 1207,
      "름": 1208,
      "릅": 1209,
      "릇": 1210,
      "릉": 1211,
      "릋": 1212,
      "릌": 1213,
      "릎": 1214,
      "릏": 1215,
      "릐": 1216,
      "릣": 1217,
      "리": 1218,
      "릭": 1219,
      "린": 1220,
      "릳": 1221,
      "릴": 1222,
      "림": 1223,
      "립": 1224,
      "릿": 1225,
      "링": 1226,
      "맂": 1227,
      "맄": 1228,
      "마": 1229,
      "막": 1230,
      "만": 1231,
      "맍": 1232,
      "많": 1233,
      "맏": 1234,
      "말": 1235,
      "맑": 1236,
      "맗": 1237,
      "맘": 1238,
      "맙": 1239,
      "맛": 1240,
      "맜": 1241,
      "망": 1242,
      "맞": 1243,
      "맟": 1244,
      "맠": 1245,
      "맡": 1246,
      "맣": 1247,
      "매": 1248,
      "맥": 1249,
      "맨": 1250,
      "맬": 1251,
      "맴": 1252,
      "맵": 1253,
      "맷": 1254,
      "맹": 1255,
      "맺": 1256,
      "맻": 1257,
      "먀": 1258,
      "먄": 1259,
      "먠": 1260,
      "머": 1261,
      "먹": 1262,
      "먼": 1263,
      "먾": 1264,
      "멀": 1265,
      "멈": 1266,
      "멉": 1267,
      "멋": 1268,
      "멌": 1269,
      "멍": 1270,
      "멎": 1271,
      "멐": 1272,
      "멓": 1273,
      "메": 1274,
      "멕": 1275,
      "멘": 1276,
      "멜": 1277,
      "멤": 1278,
      "멧": 1279,
      "멩": 1280,
      "며": 1281,
      "멱": 1282,
      "면": 1283,
      "멸": 1284,
      "몀": 1285,
      "몃": 1286,
      "몄": 1287,
      "명": 1288,
      "몆": 1289,
      "몇": 1290,
      "모": 1291,
      "목": 1292,
      "몫": 1293,
      "몬": 1294,
      "몰": 1295,
      "몸": 1296,
      "몹": 1297,
      "못": 1298,
      "몽": 1299,
      "뫁": 1300,
      "뫄": 1301,
      "뫘": 1302,
      "뫼": 1303,
      "묘": 1304,
      "묠": 1305,
      "묨": 1306,
      "묭": 1307,
      "무": 1308,
      "묵": 1309,
      "묶": 1310,
      "문": 1311,
      "묻": 1312,
      "물": 1313,
      "묽": 1314,
      "뭄": 1315,
      "뭇": 1316,
      "뭉": 1317,
      "뭍": 1318,
      "뭐": 1319,
      "뭔": 1320,
      "뭘": 1321,
      "뭡": 1322,
      "뭣": 1323,
      "뭥": 1324,
      "뭨": 1325,
      "뭬": 1326,
      "뮁": 1327,
      "뮈": 1328,
      "뮌": 1329,
      "뮐": 1330,
      "뮝": 1331,
      "뮤": 1332,
      "뮨": 1333,
      "뮬": 1334,
      "므": 1335,
      "믄": 1336,
      "믈": 1337,
      "믐": 1338,
      "믓": 1339,
      "믕": 1340,
      "믜": 1341,
      "미": 1342,
      "믹": 1343,
      "믺": 1344,
      "민": 1345,
      "믿": 1346,
      "밀": 1347,
      "밈": 1348,
      "밉": 1349,
      "밋": 1350,
      "밌": 1351,
      "밍": 1352,
      "밎": 1353,
      "및": 1354,
      "밐": 1355,
      "밑": 1356,
      "밓": 1357,
      "바": 1358,
      "박": 1359,
      "밖": 1360,
      "반": 1361,
      "받": 1362,
      "발": 1363,
      "밝": 1364,
      "밟": 1365,
      "밣": 1366,
      "밤": 1367,
      "밥": 1368,
      "밧": 1369,
      "밨": 1370,
      "방": 1371,
      "밫": 1372,
      "밬": 1373,
      "밭": 1374,
      "배": 1375,
      "백": 1376,
      "밴": 1377,
      "밷": 1378,
      "밸": 1379,
      "뱀": 1380,
      "뱁": 1381,
      "뱃": 1382,
      "뱅": 1383,
      "뱆": 1384,
      "뱉": 1385,
      "뱌": 1386,
      "뱍": 1387,
      "뱎": 1388,
      "뱔": 1389,
      "버": 1390,
      "벅": 1391,
      "번": 1392,
      "벋": 1393,
      "벌": 1394,
      "범": 1395,
      "법": 1396,
      "벗": 1397,
      "벙": 1398,
      "벚": 1399,
      "베": 1400,
      "벡": 1401,
      "벤": 1402,
      "벨": 1403,
      "벳": 1404,
      "벵": 1405,
      "벸": 1406,
      "벼": 1407,
      "벽": 1408,
      "변": 1409,
      "별": 1410,
      "볌": 1411,
      "볍": 1412,
      "병": 1413,
      "볓": 1414,
      "볔": 1415,
      "볕": 1416,
      "볠": 1417,
      "보": 1418,
      "복": 1419,
      "볶": 1420,
      "본": 1421,
      "볹": 1422,
      "볻": 1423,
      "볼": 1424,
      "봄": 1425,
      "봅": 1426,
      "봇": 1427,
      "봈": 1428,
      "봉": 1429,
      "봊": 1430,
      "봐": 1431,
      "봑": 1432,
      "봘": 1433,
      "봙": 1434,
      "봣": 1435,
      "봤": 1436,
      "봨": 1437,
      "봫": 1438,
      "봬": 1439,
      "봭": 1440,
      "봴": 1441,
      "봵": 1442,
      "뵈": 1443,
      "뵙": 1444,
      "뵛": 1445,
      "뵤": 1446,
      "뵨": 1447,
      "뵹": 1448,
      "부": 1449,
      "북": 1450,
      "분": 1451,
      "붅": 1452,
      "붆": 1453,
      "붇": 1454,
      "불": 1455,
      "붉": 1456,
      "붐": 1457,
      "붓": 1458,
      "붕": 1459,
      "붙": 1460,
      "붤": 1461,
      "붸": 1462,
      "붹": 1463,
      "뷁": 1464,
      "뷃": 1465,
      "뷐": 1466,
      "뷔": 1467,
      "뷰": 1468,
      "뷴": 1469,
      "뷸": 1470,
      "븅": 1471,
      "브": 1472,
      "븍": 1473,
      "븐": 1474,
      "블": 1475,
      "븜": 1476,
      "븟": 1477,
      "븡": 1478,
      "븨": 1479,
      "븬": 1480,
      "빂": 1481,
      "비": 1482,
      "빅": 1483,
      "빈": 1484,
      "빋": 1485,
      "빌": 1486,
      "빔": 1487,
      "빗": 1488,
      "빙": 1489,
      "빚": 1490,
      "빛": 1491,
      "빝": 1492,
      "빠": 1493,
      "빡": 1494,
      "빢": 1495,
      "빤": 1496,
      "빨": 1497,
      "빰": 1498,
      "빳": 1499,
      "빵": 1500,
      "빼": 1501,
      "빽": 1502,
      "뺏": 1503,
      "뺑": 1504,
      "뺒": 1505,
      "뺘": 1506,
      "뺠": 1507,
      "뺨": 1508,
      "뺴": 1509,
      "뺵": 1510,
      "뻉": 1511,
      "뻐": 1512,
      "뻑": 1513,
      "뻔": 1514,
      "뻗": 1515,
      "뻘": 1516,
      "뻡": 1517,
      "뻣": 1518,
      "뻤": 1519,
      "뻥": 1520,
      "뻬": 1521,
      "뻭": 1522,
      "뻴": 1523,
      "뼈": 1524,
      "뼉": 1525,
      "뼘": 1526,
      "뼛": 1527,
      "뼜": 1528,
      "뽀": 1529,
      "뽁": 1530,
      "뽄": 1531,
      "뽈": 1532,
      "뽐": 1533,
      "뽑": 1534,
      "뽕": 1535,
      "뽜": 1536,
      "뽠": 1537,
      "뽯": 1538,
      "뽱": 1539,
      "뾰": 1540,
      "뿅": 1541,
      "뿌": 1542,
      "뿍": 1543,
      "뿐": 1544,
      "뿔": 1545,
      "뿜": 1546,
      "뿡": 1547,
      "뿩": 1548,
      "뿰": 1549,
      "쀍": 1550,
      "쀠": 1551,
      "쀨": 1552,
      "쀼": 1553,
      "쁘": 1554,
      "쁜": 1555,
      "쁠": 1556,
      "쁨": 1557,
      "쁩": 1558,
      "삐": 1559,
      "삑": 1560,
      "삔": 1561,
      "삘": 1562,
      "삤": 1563,
      "삥": 1564,
      "사": 1565,
      "삭": 1566,
      "산": 1567,
      "삳": 1568,
      "살": 1569,
      "삵": 1570,
      "삶": 1571,
      "삻": 1572,
      "삼": 1573,
      "삽": 1574,
      "삿": 1575,
      "샀": 1576,
      "상": 1577,
      "샅": 1578,
      "새": 1579,
      "색": 1580,
      "샊": 1581,
      "샌": 1582,
      "샐": 1583,
      "샘": 1584,
      "샛": 1585,
      "생": 1586,
      "샠": 1587,
      "샡": 1588,
      "샣": 1589,
      "샤": 1590,
      "샥": 1591,
      "샨": 1592,
      "샬": 1593,
      "샴": 1594,
      "샵": 1595,
      "샷": 1596,
      "샹": 1597,
      "섀": 1598,
      "서": 1599,
      "석": 1600,
      "섞": 1601,
      "선": 1602,
      "섣": 1603,
      "설": 1604,
      "섥": 1605,
      "섫": 1606,
      "섬": 1607,
      "섭": 1608,
      "섯": 1609,
      "섰": 1610,
      "성": 1611,
      "섲": 1612,
      "섳": 1613,
      "섴": 1614,
      "섵": 1615,
      "섶": 1616,
      "섷": 1617,
      "세": 1618,
      "섹": 1619,
      "섺": 1620,
      "섻": 1621,
      "센": 1622,
      "섿": 1623,
      "셀": 1624,
      "셈": 1625,
      "셉": 1626,
      "셋": 1627,
      "셍": 1628,
      "셐": 1629,
      "셑": 1630,
      "셔": 1631,
      "셕": 1632,
      "션": 1633,
      "셜": 1634,
      "셤": 1635,
      "셧": 1636,
      "셨": 1637,
      "셩": 1638,
      "셰": 1639,
      "셴": 1640,
      "셸": 1641,
      "솀": 1642,
      "소": 1643,
      "속": 1644,
      "솎": 1645,
      "손": 1646,
      "솓": 1647,
      "솔": 1648,
      "솜": 1649,
      "솝": 1650,
      "솟": 1651,
      "송": 1652,
      "솢": 1653,
      "솤": 1654,
      "솥": 1655,
      "솧": 1656,
      "솨": 1657,
      "솰": 1658,
      "쇄": 1659,
      "쇠": 1660,
      "쇳": 1661,
      "쇼": 1662,
      "숀": 1663,
      "숄": 1664,
      "숍": 1665,
      "숏": 1666,
      "숑": 1667,
      "수": 1668,
      "숙": 1669,
      "순": 1670,
      "숟": 1671,
      "술": 1672,
      "숨": 1673,
      "숩": 1674,
      "숫": 1675,
      "숭": 1676,
      "숯": 1677,
      "숰": 1678,
      "숱": 1679,
      "숲": 1680,
      "숴": 1681,
      "숼": 1682,
      "쉅": 1683,
      "쉈": 1684,
      "쉐": 1685,
      "쉑": 1686,
      "쉒": 1687,
      "쉔": 1688,
      "쉘": 1689,
      "쉡": 1690,
      "쉣": 1691,
      "쉥": 1692,
      "쉩": 1693,
      "쉬": 1694,
      "쉰": 1695,
      "쉴": 1696,
      "쉼": 1697,
      "쉽": 1698,
      "쉿": 1699,
      "슁": 1700,
      "슈": 1701,
      "슉": 1702,
      "슌": 1703,
      "슐": 1704,
      "슛": 1705,
      "슝": 1706,
      "슠": 1707,
      "스": 1708,
      "슥": 1709,
      "슨": 1710,
      "슬": 1711,
      "슭": 1712,
      "슲": 1713,
      "슴": 1714,
      "습": 1715,
      "슷": 1716,
      "승": 1717,
      "슺": 1718,
      "슼": 1719,
      "슽": 1720,
      "슾": 1721,
      "싀": 1722,
      "싄": 1723,
      "싐": 1724,
      "싑": 1725,
      "싖": 1726,
      "시": 1727,
      "식": 1728,
      "신": 1729,
      "싡": 1730,
      "싢": 1731,
      "싣": 1732,
      "실": 1733,
      "싫": 1734,
      "심": 1735,
      "십": 1736,
      "싯": 1737,
      "싰": 1738,
      "싱": 1739,
      "싴": 1740,
      "싶": 1741,
      "싷": 1742,
      "싸": 1743,
      "싹": 1744,
      "싼": 1745,
      "쌀": 1746,
      "쌈": 1747,
      "쌉": 1748,
      "쌍": 1749,
      "쌓": 1750,
      "쌔": 1751,
      "쌕": 1752,
      "쌘": 1753,
      "쌜": 1754,
      "쌤": 1755,
      "쌩": 1756,
      "쌰": 1757,
      "썁": 1758,
      "썅": 1759,
      "썌": 1760,
      "썜": 1761,
      "썡": 1762,
      "써": 1763,
      "썩": 1764,
      "썪": 1765,
      "썬": 1766,
      "썰": 1767,
      "썱": 1768,
      "썸": 1769,
      "썹": 1770,
      "썻": 1771,
      "썽": 1772,
      "쎀": 1773,
      "쎄": 1774,
      "쎅": 1775,
      "쎌": 1776,
      "쎗": 1777,
      "쎠": 1778,
      "쎤": 1779,
      "쎴": 1780,
      "쎼": 1781,
      "쎾": 1782,
      "쏔": 1783,
      "쏘": 1784,
      "쏙": 1785,
      "쏜": 1786,
      "쏟": 1787,
      "쏠": 1788,
      "쏫": 1789,
      "쏭": 1790,
      "쏱": 1791,
      "쏴": 1792,
      "쐌": 1793,
      "쐬": 1794,
      "쑈": 1795,
      "쑝": 1796,
      "쑤": 1797,
      "쑥": 1798,
      "쑨": 1799,
      "쑹": 1800,
      "쒕": 1801,
      "쒜": 1802,
      "쒯": 1803,
      "쒰": 1804,
      "쒸": 1805,
      "쓉": 1806,
      "쓔": 1807,
      "쓕": 1808,
      "쓰": 1809,
      "쓱": 1810,
      "쓴": 1811,
      "쓸": 1812,
      "씀": 1813,
      "씁": 1814,
      "씌": 1815,
      "씐": 1816,
      "씝": 1817,
      "씨": 1818,
      "씩": 1819,
      "씪": 1820,
      "씬": 1821,
      "씰": 1822,
      "씸": 1823,
      "씹": 1824,
      "씻": 1825,
      "씼": 1826,
      "씽": 1827,
      "앀": 1828,
      "아": 1829,
      "악": 1830,
      "안": 1831,
      "앉": 1832,
      "않": 1833,
      "앋": 1834,
      "알": 1835,
      "앍": 1836,
      "앓": 1837,
      "암": 1838,
      "압": 1839,
      "앖": 1840,
      "앗": 1841,
      "았": 1842,
      "앙": 1843,
      "앚": 1844,
      "앜": 1845,
      "앞": 1846,
      "앟": 1847,
      "애": 1848,
      "액": 1849,
      "앤": 1850,
      "앨": 1851,
      "앰": 1852,
      "앱": 1853,
      "앳": 1854,
      "앵": 1855,
      "앸": 1856,
      "야": 1857,
      "약": 1858,
      "얀": 1859,
      "얄": 1860,
      "얇": 1861,
      "얌": 1862,
      "얍": 1863,
      "얏": 1864,
      "양": 1865,
      "얔": 1866,
      "얕": 1867,
      "얗": 1868,
      "얘": 1869,
      "얙": 1870,
      "얜": 1871,
      "어": 1872,
      "억": 1873,
      "언": 1874,
      "얹": 1875,
      "얺": 1876,
      "얻": 1877,
      "얼": 1878,
      "얽": 1879,
      "엄": 1880,
      "업": 1881,
      "없": 1882,
      "엇": 1883,
      "었": 1884,
      "엉": 1885,
      "엊": 1886,
      "엌": 1887,
      "엎": 1888,
      "엏": 1889,
      "에": 1890,
      "엑": 1891,
      "엓": 1892,
      "엔": 1893,
      "엘": 1894,
      "엠": 1895,
      "엡": 1896,
      "엣": 1897,
      "엥": 1898,
      "엨": 1899,
      "엪": 1900,
      "여": 1901,
      "역": 1902,
      "엮": 1903,
      "연": 1904,
      "엲": 1905,
      "열": 1906,
      "엷": 1907,
      "염": 1908,
      "엽": 1909,
      "엾": 1910,
      "엿": 1911,
      "였": 1912,
      "영": 1913,
      "옂": 1914,
      "옄": 1915,
      "옅": 1916,
      "옆": 1917,
      "옇": 1918,
      "예": 1919,
      "옌": 1920,
      "옐": 1921,
      "옘": 1922,
      "옛": 1923,
      "옜": 1924,
      "오": 1925,
      "옥": 1926,
      "온": 1927,
      "올": 1928,
      "옭": 1929,
      "옮": 1930,
      "옯": 1931,
      "옰": 1932,
      "옳": 1933,
      "옴": 1934,
      "옵": 1935,
      "옶": 1936,
      "옷": 1937,
      "옹": 1938,
      "옼": 1939,
      "옾": 1940,
      "옿": 1941,
      "와": 1942,
      "왁": 1943,
      "왃": 1944,
      "완": 1945,
      "왅": 1946,
      "왈": 1947,
      "왑": 1948,
      "왓": 1949,
      "왔": 1950,
      "왕": 1951,
      "왘": 1952,
      "왜": 1953,
      "왝": 1954,
      "왠": 1955,
      "왤": 1956,
      "외": 1957,
      "왹": 1958,
      "왼": 1959,
      "욀": 1960,
      "요": 1961,
      "욕": 1962,
      "욘": 1963,
      "욜": 1964,
      "욤": 1965,
      "욥": 1966,
      "욧": 1967,
      "용": 1968,
      "욬": 1969,
      "욯": 1970,
      "우": 1971,
      "욱": 1972,
      "운": 1973,
      "욷": 1974,
      "울": 1975,
      "욹": 1976,
      "움": 1977,
      "웁": 1978,
      "웃": 1979,
      "웄": 1980,
      "웅": 1981,
      "워": 1982,
      "웍": 1983,
      "원": 1984,
      "월": 1985,
      "웜": 1986,
      "웟": 1987,
      "웠": 1988,
      "웡": 1989,
      "웤": 1990,
      "웨": 1991,
      "웩": 1992,
      "웬": 1993,
      "웰": 1994,
      "웹": 1995,
      "웽": 1996,
      "윀": 1997,
      "위": 1998,
      "윅": 1999,
      "윈": 2000,
      "윌": 2001,
      "윔": 2002,
      "윖": 2003,
      "윗": 2004,
      "윘": 2005,
      "윙": 2006,
      "유": 2007,
      "육": 2008,
      "윤": 2009,
      "율": 2010,
      "윰": 2011,
      "윱": 2012,
      "윳": 2013,
      "융": 2014,
      "으": 2015,
      "윽": 2016,
      "은": 2017,
      "읃": 2018,
      "을": 2019,
      "읅": 2020,
      "읆": 2021,
      "읊": 2022,
      "음": 2023,
      "읍": 2024,
      "읎": 2025,
      "읏": 2026,
      "응": 2027,
      "읔": 2028,
      "읖": 2029,
      "의": 2030,
      "읭": 2031,
      "읮": 2032,
      "이": 2033,
      "익": 2034,
      "인": 2035,
      "읹": 2036,
      "읺": 2037,
      "일": 2038,
      "읽": 2039,
      "읿": 2040,
      "잃": 2041,
      "임": 2042,
      "입": 2043,
      "잇": 2044,
      "있": 2045,
      "잉": 2046,
      "잊": 2047,
      "잌": 2048,
      "잎": 2049,
      "잏": 2050,
      "자": 2051,
      "작": 2052,
      "잔": 2053,
      "잖": 2054,
      "잗": 2055,
      "잘": 2056,
      "잛": 2057,
      "잠": 2058,
      "잡": 2059,
      "잣": 2060,
      "잤": 2061,
      "장": 2062,
      "잦": 2063,
      "잫": 2064,
      "재": 2065,
      "잭": 2066,
      "잰": 2067,
      "잼": 2068,
      "잽": 2069,
      "잿": 2070,
      "쟁": 2071,
      "쟄": 2072,
      "쟈": 2073,
      "쟉": 2074,
      "쟎": 2075,
      "쟘": 2076,
      "쟙": 2077,
      "쟝": 2078,
      "쟞": 2079,
      "쟤": 2080,
      "쟨": 2081,
      "쟾": 2082,
      "저": 2083,
      "적": 2084,
      "전": 2085,
      "젅": 2086,
      "젆": 2087,
      "젇": 2088,
      "절": 2089,
      "젊": 2090,
      "젋": 2091,
      "점": 2092,
      "접": 2093,
      "젓": 2094,
      "젔": 2095,
      "정": 2096,
      "젖": 2097,
      "젛": 2098,
      "제": 2099,
      "젝": 2100,
      "젠": 2101,
      "젤": 2102,
      "젬": 2103,
      "젭": 2104,
      "젯": 2105,
      "져": 2106,
      "젹": 2107,
      "젼": 2108,
      "졀": 2109,
      "졈": 2110,
      "졉": 2111,
      "졋": 2112,
      "졌": 2113,
      "졍": 2114,
      "졎": 2115,
      "졏": 2116,
      "졓": 2117,
      "졔": 2118,
      "조": 2119,
      "족": 2120,
      "존": 2121,
      "졷": 2122,
      "졸": 2123,
      "좀": 2124,
      "좁": 2125,
      "좃": 2126,
      "종": 2127,
      "좆": 2128,
      "좇": 2129,
      "좉": 2130,
      "좊": 2131,
      "좋": 2132,
      "좌": 2133,
      "좍": 2134,
      "좐": 2135,
      "좔": 2136,
      "좝": 2137,
      "좠": 2138,
      "좡": 2139,
      "좢": 2140,
      "죄": 2141,
      "죈": 2142,
      "죗": 2143,
      "죙": 2144,
      "죠": 2145,
      "죤": 2146,
      "죨": 2147,
      "죳": 2148,
      "죴": 2149,
      "죵": 2150,
      "죶": 2151,
      "죷": 2152,
      "죸": 2153,
      "죻": 2154,
      "주": 2155,
      "죽": 2156,
      "준": 2157,
      "줄": 2158,
      "줌": 2159,
      "줍": 2160,
      "줏": 2161,
      "중": 2162,
      "줗": 2163,
      "줘": 2164,
      "줠": 2165,
      "줫": 2166,
      "줬": 2167,
      "줭": 2168,
      "줮": 2169,
      "줸": 2170,
      "쥇": 2171,
      "쥐": 2172,
      "쥑": 2173,
      "쥘": 2174,
      "쥣": 2175,
      "쥤": 2176,
      "쥬": 2177,
      "쥰": 2178,
      "쥴": 2179,
      "쥼": 2180,
      "즁": 2181,
      "즈": 2182,
      "즉": 2183,
      "즌": 2184,
      "즐": 2185,
      "즘": 2186,
      "즛": 2187,
      "증": 2188,
      "즞": 2189,
      "즤": 2190,
      "지": 2191,
      "직": 2192,
      "짂": 2193,
      "진": 2194,
      "짅": 2195,
      "짇": 2196,
      "질": 2197,
      "짊": 2198,
      "짏": 2199,
      "짐": 2200,
      "집": 2201,
      "짓": 2202,
      "징": 2203,
      "짖": 2204,
      "짘": 2205,
      "짙": 2206,
      "짚": 2207,
      "짛": 2208,
      "짜": 2209,
      "짝": 2210,
      "짠": 2211,
      "짢": 2212,
      "짤": 2213,
      "짦": 2214,
      "짧": 2215,
      "짫": 2216,
      "짬": 2217,
      "짭": 2218,
      "짯": 2219,
      "짱": 2220,
      "짴": 2221,
      "째": 2222,
      "쨉": 2223,
      "쨋": 2224,
      "쨌": 2225,
      "쨍": 2226,
      "쨓": 2227,
      "쨔": 2228,
      "쨘": 2229,
      "쨩": 2230,
      "쨰": 2231,
      "쩁": 2232,
      "쩃": 2233,
      "쩄": 2234,
      "쩌": 2235,
      "쩍": 2236,
      "쩐": 2237,
      "쩔": 2238,
      "쩖": 2239,
      "쩜": 2240,
      "쩝": 2241,
      "쩡": 2242,
      "쩧": 2243,
      "쩨": 2244,
      "쪄": 2245,
      "쪈": 2246,
      "쪘": 2247,
      "쪙": 2248,
      "쪠": 2249,
      "쪼": 2250,
      "쪽": 2251,
      "쪾": 2252,
      "쫀": 2253,
      "쫄": 2254,
      "쫌": 2255,
      "쫏": 2256,
      "쫑": 2257,
      "쫒": 2258,
      "쫓": 2259,
      "쫗": 2260,
      "쫘": 2261,
      "쫙": 2262,
      "쫭": 2263,
      "쬐": 2264,
      "쬬": 2265,
      "쭁": 2266,
      "쭈": 2267,
      "쭉": 2268,
      "쭊": 2269,
      "쭌": 2270,
      "쭐": 2271,
      "쭘": 2272,
      "쭙": 2273,
      "쭝": 2274,
      "쮜": 2275,
      "쮸": 2276,
      "쯔": 2277,
      "쯗": 2278,
      "쯤": 2279,
      "쯥": 2280,
      "쯧": 2281,
      "쯩": 2282,
      "쯪": 2283,
      "찌": 2284,
      "찍": 2285,
      "찎": 2286,
      "찐": 2287,
      "찔": 2288,
      "찜": 2289,
      "찝": 2290,
      "찟": 2291,
      "찡": 2292,
      "찢": 2293,
      "차": 2294,
      "착": 2295,
      "찬": 2296,
      "찮": 2297,
      "찯": 2298,
      "찰": 2299,
      "찱": 2300,
      "참": 2301,
      "찹": 2302,
      "찻": 2303,
      "찼": 2304,
      "창": 2305,
      "찾": 2306,
      "찿": 2307,
      "챃": 2308,
      "채": 2309,
      "책": 2310,
      "챈": 2311,
      "챔": 2312,
      "챗": 2313,
      "챙": 2314,
      "챠": 2315,
      "챡": 2316,
      "챤": 2317,
      "챦": 2318,
      "챨": 2319,
      "처": 2320,
      "척": 2321,
      "천": 2322,
      "철": 2323,
      "첨": 2324,
      "첩": 2325,
      "첫": 2326,
      "첬": 2327,
      "청": 2328,
      "첮": 2329,
      "체": 2330,
      "첵": 2331,
      "첸": 2332,
      "첼": 2333,
      "쳅": 2334,
      "쳇": 2335,
      "쳐": 2336,
      "쳔": 2337,
      "쳣": 2338,
      "쳤": 2339,
      "쳥": 2340,
      "쳫": 2341,
      "쳬": 2342,
      "초": 2343,
      "촉": 2344,
      "촌": 2345,
      "촏": 2346,
      "촐": 2347,
      "촘": 2348,
      "촛": 2349,
      "총": 2350,
      "촟": 2351,
      "촣": 2352,
      "촤": 2353,
      "촥": 2354,
      "촬": 2355,
      "촹": 2356,
      "쵁": 2357,
      "최": 2358,
      "쵝": 2359,
      "쵸": 2360,
      "쵼": 2361,
      "춋": 2362,
      "춌": 2363,
      "추": 2364,
      "축": 2365,
      "춘": 2366,
      "출": 2367,
      "춤": 2368,
      "춥": 2369,
      "춧": 2370,
      "충": 2371,
      "춰": 2372,
      "춴": 2373,
      "춸": 2374,
      "췃": 2375,
      "췌": 2376,
      "췟": 2377,
      "취": 2378,
      "췬": 2379,
      "츄": 2380,
      "츈": 2381,
      "츔": 2382,
      "츙": 2383,
      "츠": 2384,
      "측": 2385,
      "츤": 2386,
      "츨": 2387,
      "츰": 2388,
      "층": 2389,
      "츼": 2390,
      "츽": 2391,
      "칀": 2392,
      "치": 2393,
      "칙": 2394,
      "친": 2395,
      "칝": 2396,
      "칠": 2397,
      "침": 2398,
      "칩": 2399,
      "칫": 2400,
      "칭": 2401,
      "칰": 2402,
      "카": 2403,
      "칵": 2404,
      "칸": 2405,
      "칻": 2406,
      "칼": 2407,
      "캄": 2408,
      "캅": 2409,
      "캇": 2410,
      "캉": 2411,
      "캍": 2412,
      "캐": 2413,
      "캔": 2414,
      "캘": 2415,
      "캠": 2416,
      "캡": 2417,
      "캢": 2418,
      "캣": 2419,
      "캥": 2420,
      "캬": 2421,
      "캭": 2422,
      "컄": 2423,
      "커": 2424,
      "컥": 2425,
      "컨": 2426,
      "컬": 2427,
      "컴": 2428,
      "컵": 2429,
      "컷": 2430,
      "컹": 2431,
      "컼": 2432,
      "컾": 2433,
      "케": 2434,
      "켁": 2435,
      "켄": 2436,
      "켈": 2437,
      "켐": 2438,
      "켓": 2439,
      "켜": 2440,
      "켠": 2441,
      "켤": 2442,
      "켯": 2443,
      "코": 2444,
      "콕": 2445,
      "콘": 2446,
      "콜": 2447,
      "콤": 2448,
      "콥": 2449,
      "콧": 2450,
      "콩": 2451,
      "콬": 2452,
      "콮": 2453,
      "콯": 2454,
      "콰": 2455,
      "콱": 2456,
      "콴": 2457,
      "콸": 2458,
      "쾅": 2459,
      "쾌": 2460,
      "쾡": 2461,
      "쾨": 2462,
      "쿄": 2463,
      "쿈": 2464,
      "쿠": 2465,
      "쿡": 2466,
      "쿤": 2467,
      "쿨": 2468,
      "쿰": 2469,
      "쿳": 2470,
      "쿵": 2471,
      "쿸": 2472,
      "쿼": 2473,
      "퀀": 2474,
      "퀄": 2475,
      "퀘": 2476,
      "퀜": 2477,
      "퀭": 2478,
      "퀴": 2479,
      "퀵": 2480,
      "퀸": 2481,
      "퀼": 2482,
      "큐": 2483,
      "큘": 2484,
      "크": 2485,
      "큭": 2486,
      "큰": 2487,
      "클": 2488,
      "큼": 2489,
      "킁": 2490,
      "킄": 2491,
      "킈": 2492,
      "킌": 2493,
      "키": 2494,
      "킥": 2495,
      "킨": 2496,
      "킬": 2497,
      "킴": 2498,
      "킵": 2499,
      "킷": 2500,
      "킹": 2501,
      "킼": 2502,
      "타": 2503,
      "탁": 2504,
      "탄": 2505,
      "탆": 2506,
      "탈": 2507,
      "탉": 2508,
      "탐": 2509,
      "탑": 2510,
      "탓": 2511,
      "탕": 2512,
      "탗": 2513,
      "태": 2514,
      "택": 2515,
      "탠": 2516,
      "탤": 2517,
      "탬": 2518,
      "탭": 2519,
      "탯": 2520,
      "탱": 2521,
      "탸": 2522,
      "턀": 2523,
      "터": 2524,
      "턱": 2525,
      "턴": 2526,
      "털": 2527,
      "텀": 2528,
      "텁": 2529,
      "텃": 2530,
      "텅": 2531,
      "텈": 2532,
      "테": 2533,
      "텍": 2534,
      "텐": 2535,
      "텔": 2536,
      "템": 2537,
      "텝": 2538,
      "텟": 2539,
      "텡": 2540,
      "텨": 2541,
      "토": 2542,
      "톡": 2543,
      "톤": 2544,
      "톨": 2545,
      "톰": 2546,
      "톱": 2547,
      "통": 2548,
      "톼": 2549,
      "퇄": 2550,
      "퇘": 2551,
      "퇴": 2552,
      "툥": 2553,
      "투": 2554,
      "툭": 2555,
      "툰": 2556,
      "툴": 2557,
      "툼": 2558,
      "툿": 2559,
      "퉁": 2560,
      "퉤": 2561,
      "퉷": 2562,
      "퉽": 2563,
      "튀": 2564,
      "튕": 2565,
      "튜": 2566,
      "튠": 2567,
      "튬": 2568,
      "튭": 2569,
      "트": 2570,
      "특": 2571,
      "튼": 2572,
      "튿": 2573,
      "틀": 2574,
      "틈": 2575,
      "틋": 2576,
      "틍": 2577,
      "틐": 2578,
      "틔": 2579,
      "티": 2580,
      "틱": 2581,
      "틴": 2582,
      "틸": 2583,
      "팀": 2584,
      "팁": 2585,
      "팅": 2586,
      "파": 2587,
      "팍": 2588,
      "팎": 2589,
      "판": 2590,
      "팔": 2591,
      "팜": 2592,
      "팝": 2593,
      "팟": 2594,
      "팡": 2595,
      "팥": 2596,
      "패": 2597,
      "팩": 2598,
      "팬": 2599,
      "팰": 2600,
      "팸": 2601,
      "팻": 2602,
      "팼": 2603,
      "팽": 2604,
      "퍼": 2605,
      "퍽": 2606,
      "펀": 2607,
      "펄": 2608,
      "펌": 2609,
      "펏": 2610,
      "펑": 2611,
      "페": 2612,
      "펙": 2613,
      "펜": 2614,
      "펠": 2615,
      "펩": 2616,
      "펫": 2617,
      "펭": 2618,
      "펴": 2619,
      "편": 2620,
      "펼": 2621,
      "폄": 2622,
      "폇": 2623,
      "평": 2624,
      "폐": 2625,
      "포": 2626,
      "폭": 2627,
      "폰": 2628,
      "폴": 2629,
      "폼": 2630,
      "폽": 2631,
      "폿": 2632,
      "퐁": 2633,
      "퐈": 2634,
      "퐉": 2635,
      "퐌": 2636,
      "퐛": 2637,
      "퐝": 2638,
      "퐠": 2639,
      "푀": 2640,
      "표": 2641,
      "푱": 2642,
      "푸": 2643,
      "푹": 2644,
      "푼": 2645,
      "풀": 2646,
      "품": 2647,
      "풋": 2648,
      "풍": 2649,
      "풓": 2650,
      "풕": 2651,
      "풰": 2652,
      "퓌": 2653,
      "퓨": 2654,
      "퓬": 2655,
      "퓰": 2656,
      "퓽": 2657,
      "프": 2658,
      "픈": 2659,
      "플": 2660,
      "픔": 2661,
      "픕": 2662,
      "피": 2663,
      "픽": 2664,
      "핀": 2665,
      "필": 2666,
      "핍": 2667,
      "핏": 2668,
      "핑": 2669,
      "핓": 2670,
      "핕": 2671,
      "하": 2672,
      "학": 2673,
      "핛": 2674,
      "한": 2675,
      "핟": 2676,
      "할": 2677,
      "핡": 2678,
      "핣": 2679,
      "핥": 2680,
      "핦": 2681,
      "핧": 2682,
      "함": 2683,
      "합": 2684,
      "핫": 2685,
      "핬": 2686,
      "항": 2687,
      "핮": 2688,
      "핯": 2689,
      "핰": 2690,
      "핱": 2691,
      "핳": 2692,
      "해": 2693,
      "핵": 2694,
      "핶": 2695,
      "핸": 2696,
      "핻": 2697,
      "핼": 2698,
      "햄": 2699,
      "햅": 2700,
      "햇": 2701,
      "했": 2702,
      "행": 2703,
      "햌": 2704,
      "햏": 2705,
      "햐": 2706,
      "햤": 2707,
      "향": 2708,
      "햫": 2709,
      "헀": 2710,
      "허": 2711,
      "헉": 2712,
      "헌": 2713,
      "헏": 2714,
      "헐": 2715,
      "헑": 2716,
      "험": 2717,
      "헛": 2718,
      "헝": 2719,
      "헠": 2720,
      "헣": 2721,
      "헤": 2722,
      "헥": 2723,
      "헨": 2724,
      "헬": 2725,
      "헴": 2726,
      "헵": 2727,
      "헷": 2728,
      "헸": 2729,
      "헹": 2730,
      "헿": 2731,
      "혀": 2732,
      "혁": 2733,
      "현": 2734,
      "혈": 2735,
      "혐": 2736,
      "협": 2737,
      "혓": 2738,
      "혔": 2739,
      "형": 2740,
      "혖": 2741,
      "혜": 2742,
      "호": 2743,
      "혹": 2744,
      "혼": 2745,
      "홀": 2746,
      "홈": 2747,
      "홉": 2748,
      "홋": 2749,
      "홍": 2750,
      "홐": 2751,
      "홓": 2752,
      "화": 2753,
      "확": 2754,
      "환": 2755,
      "활": 2756,
      "홥": 2757,
      "홧": 2758,
      "황": 2759,
      "홪": 2760,
      "홬": 2761,
      "홯": 2762,
      "홱": 2763,
      "회": 2764,
      "획": 2765,
      "횐": 2766,
      "횔": 2767,
      "횟": 2768,
      "횡": 2769,
      "횤": 2770,
      "효": 2771,
      "횬": 2772,
      "횽": 2773,
      "훃": 2774,
      "후": 2775,
      "훅": 2776,
      "훈": 2777,
      "훋": 2778,
      "훌": 2779,
      "훑": 2780,
      "훓": 2781,
      "훔": 2782,
      "훕": 2783,
      "훗": 2784,
      "훙": 2785,
      "훜": 2786,
      "훟": 2787,
      "훠": 2788,
      "훡": 2789,
      "훤": 2790,
      "훨": 2791,
      "훸": 2792,
      "훼": 2793,
      "휏": 2794,
      "휘": 2795,
      "휙": 2796,
      "휠": 2797,
      "휨": 2798,
      "휩": 2799,
      "휴": 2800,
      "휸": 2801,
      "휼": 2802,
      "흉": 2803,
      "흏": 2804,
      "흐": 2805,
      "흑": 2806,
      "흔": 2807,
      "흘": 2808,
      "흙": 2809,
      "흝": 2810,
      "흠": 2811,
      "흡": 2812,
      "흣": 2813,
      "흥": 2814,
      "흨": 2815,
      "흩": 2816,
      "흫": 2817,
      "희": 2818,
      "흰": 2819,
      "흳": 2820,
      "히": 2821,
      "힉": 2822,
      "힌": 2823,
      "힐": 2824,
      "힘": 2825,
      "힙": 2826,
      "힛": 2827,
      "힝": 2828,
      "힞": 2829,
      "힣": 2830,
      "盧": 2831,
      "老": 2832,
      "綠": 2833,
      "不": 2834,
      "禮": 2835,
      "紐": 2836,
      "律": 2837,
      "慄": 2838,
      "！": 2839,
      "，": 2840,
      "？": 2841,
      "＼": 2842,
      "＾": 2843,
      "｀": 2844,
      "ｘ": 2845,
      "～": 2846,
      "￣": 2847,
      "##경": 2848,
      "##스": 2849,
      "##타": 2850,
      "##7": 2851,
      "##쇼": 2852,
      "##귀": 2853,
      "##이": 2854,
      "##애": 2855,
      "##나": 2856,
      "##비": 2857,
      "##9": 2858,
      "##년": 2859,
      "##어": 2860,
      "##o": 2861,
      "##f": 2862,
      "##l": 2863,
      "##v": 2864,
      "##h": 2865,
      "##x": 2866,
      "##j": 2867,
      "##s": 2868,
      "##m": 2869,
      "##단": 2870,
      "##호": 2871,
      "##였": 2872,
      "##는": 2873,
      "##데": 2874,
      "##터": 2875,
      "##화": 2876,
      "##r": 2877,
      "##i": 2878,
      "##다": 2879,
      "##과": 2880,
      "##한": 2881,
      "##국": 2882,
      "##영": 2883,
      "##랑": 2884,
      "##중": 2885,
      "##차": 2886,
      "##네": 2887,
      "##사": 2888,
      "##창": 2889,
      "##겁": 2890,
      "##3": 2891,
      "##새": 2892,
      "##락": 2893,
      "##뚠": 2894,
      "##시": 2895,
      "##아": 2896,
      "##리": 2897,
      "##녹": 2898,
      "##음": 2899,
      "##웨": 2900,
      "##덴": 2901,
      "##겨": 2902,
      "##0": 2903,
      "##동": 2904,
      "##의": 2905,
      "##식": 2906,
      "##대": 2907,
      "##역": 2908,
      "##악": 2909,
      "##물": 2910,
      "##관": 2911,
      "##빵": 2912,
      "##ㅠ": 2913,
      "##ㅜ": 2914,
      "##온": 2915,
      "##일": 2916,
      "##하": 2917,
      "##p": 2918,
      "##e": 2919,
      "##c": 2920,
      "##a": 2921,
      "##t": 2922,
      "##낫": 2923,
      "##정": 2924,
      "##죽": 2925,
      "##니": 2926,
      "##플": 2927,
      "##래": 2928,
      "##닛": 2929,
      "##칠": 2930,
      "##마": 2931,
      "##루": 2932,
      "##파": 2933,
      "##테": 2934,
      "##베": 2935,
      "##따": 2936,
      "##k": 2937,
      "##n": 2938,
      "##d": 2939,
      "##즈": 2940,
      "##쩌": 2941,
      "##라": 2942,
      "##구": 2943,
      "##상": 2944,
      "##러": 2945,
      "##만": 2946,
      "##으": 2947,
      "##로": 2948,
      "##픈": 2949,
      "##앜": 2950,
      "##계": 2951,
      "##인": 2952,
      "##개": 2953,
      "##광": 2954,
      "##밀": 2955,
      "##섀": 2956,
      "##꺄": 2957,
      "##포": 2958,
      "##랃": 2959,
      "##치": 2960,
      "##볼": 2961,
      "##신": 2962,
      "##혜": 2963,
      "##쩐": 2964,
      "##복": 2965,
      "##절": 2966,
      "##론": 2967,
      "##ㄱ": 2968,
      "##잼": 2969,
      "##슴": 2970,
      "##랬": 2971,
      "##건": 2972,
      "##았": 2973,
      "##현": 2974,
      "##체": 2975,
      "##진": 2976,
      "##우": 2977,
      "##y": 2978,
      "##u": 2979,
      "##궂": 2980,
      "##팁": 2981,
      "##주": 2982,
      "##집": 2983,
      "##힝": 2984,
      "##근": 2985,
      "##지": 2986,
      "##실": 2987,
      "##트": 2988,
      "##려": 2989,
      "##야": 2990,
      "##할": 2991,
      "##되": 2992,
      "##자": 2993,
      "##준": 2994,
      "##험": 2995,
      "##민": 2996,
      "##녀": 2997,
      "##2": 2998,
      "##4": 2999,
      "##가": 3000,
      "##미": 3001,
      "##빠": 3002,
      "##기": 3003,
      "##크": 3004,
      "##닉": 3005,
      "##혼": 3006,
      "##량": 3007,
      "##적": 3008,
      "##드": 3009,
      "##벤": 3010,
      "##쳐": 3011,
      "##해": 3012,
      "##출": 3013,
      "##욕": 3014,
      "##ㅂ": 3015,
      "##산": 3016,
      "##고": 3017,
      "##뿌": 3018,
      "##입": 3019,
      "##슬": 3020,
      "##링": 3021,
      "##을": 3022,
      "##껀": 3023,
      "##섯": 3024,
      "##6": 3025,
      "##성": 3026,
      "##엇": 3027,
      "##핑": 3028,
      "##닝": 3029,
      "##틍": 3030,
      "##요": 3031,
      "##원": 3032,
      "##석": 3033,
      "##륜": 3034,
      "##뷔": 3035,
      "##초": 3036,
      "##튼": 3037,
      "##던": 3038,
      "##패": 3039,
      "##g": 3040,
      "##코": 3041,
      "##괘": 3042,
      "##젼": 3043,
      "##디": 3044,
      "##카": 3045,
      "##도": 3046,
      "##깃": 3047,
      "##서": 3048,
      "##윤": 3049,
      "##죄": 3050,
      "##욱": 3051,
      "##평": 3052,
      "##8": 3053,
      "##분": 3054,
      "##연": 3055,
      "##틴": 3056,
      "##머": 3057,
      "##꼇": 3058,
      "##꺼": 3059,
      "##력": 3060,
      "##추": 3061,
      "##톡": 3062,
      "##냐": 3063,
      "##보": 3064,
      "##끝": 3065,
      "##효": 3066,
      "##몽": 3067,
      "##걸": 3068,
      "##롯": 3069,
      "##담": 3070,
      "##프": 3071,
      "##닌": 3072,
      "##전": 3073,
      "##별": 3074,
      "##범": 3075,
      "##령": 3076,
      "##향": 3077,
      "##엔": 3078,
      "##젤": 3079,
      "##수": 3080,
      "##작": 3081,
      "##장": 3082,
      "##돌": 3083,
      "##레": 3084,
      "##모": 3085,
      "##히": 3086,
      "##료": 3087,
      "##곡": 3088,
      "##희": 3089,
      "##색": 3090,
      "##5": 3091,
      "##술": 3092,
      "##풍": 3093,
      "##선": 3094,
      "##봉": 3095,
      "##발": 3096,
      "##토": 3097,
      "##흑": 3098,
      "##딸": 3099,
      "##용": 3100,
      "##그": 3101,
      "##빼": 3102,
      "##껄": 3103,
      "##린": 3104,
      "##잌": 3105,
      "##팡": 3106,
      "##밍": 3107,
      "##ㅒ": 3108,
      "##박": 3109,
      "##완": 3110,
      "##람": 3111,
      "##쯔": 3112,
      "##얼": 3113,
      "##쉅": 3114,
      "##ㅇ": 3115,
      "##류": 3116,
      "##문": 3117,
      "##렇": 3118,
      "##천": 3119,
      "##질": 3120,
      "##붕": 3121,
      "##ㅓ": 3122,
      "##ㄴ": 3123,
      "##염": 3124,
      "##살": 3125,
      "##키": 3126,
      "##반": 3127,
      "##칵": 3128,
      "##냉": 3129,
      "##세": 3130,
      "##벽": 3131,
      "##럿": 3132,
      "##저": 3133,
      "##듬": 3134,
      "##켄": 3135,
      "##슈": 3136,
      "##립": 3137,
      "##재": 3138,
      "##똘": 3139,
      "##뭉": 3140,
      "##간": 3141,
      "##겐": 3142,
      "##랭": 3143,
      "##푸": 3144,
      "##멩": 3145,
      "##참": 3146,
      "##턴": 3147,
      "##당": 3148,
      "##굿": 3149,
      "##교": 3150,
      "##조": 3151,
      "##큐": 3152,
      "##憎": 3153,
      "##버": 3154,
      "##엿": 3155,
      "##때": 3156,
      "##먼": 3157,
      "##벌": 3158,
      "##훈": 3159,
      "##목": 3160,
      "##놈": 3161,
      "##뇽": 3162,
      "##놃": 3163,
      "##밴": 3164,
      "##예": 3165,
      "##란": 3166,
      "##듀": 3167,
      "##임": 3168,
      "##유": 3169,
      "##ㄷ": 3170,
      "##견": 3171,
      "##커": 3172,
      "##너": 3173,
      "##탄": 3174,
      "##곤": 3175,
      "##바": 3176,
      "##몬": 3177,
      "##럭": 3178,
      "##퍼": 3179,
      "##오": 3180,
      "##들": 3181,
      "##달": 3182,
      "##부": 3183,
      "##쟈": 3184,
      "##밋": 3185,
      "##릭": 3186,
      "##존": 3187,
      "##눈": 3188,
      "##학": 3189,
      "##생": 3190,
      "##렁": 3191,
      "##거": 3192,
      "##츠": 3193,
      "##름": 3194,
      "##웃": 3195,
      "##판": 3196,
      "##설": 3197,
      "##에": 3198,
      "##뎀": 3199,
      "##철": 3200,
      "##ㅋ": 3201,
      "##친": 3202,
      "##덤": 3203,
      "##킨": 3204,
      "##딫": 3205,
      "##듯": 3206,
      "##게": 3207,
      "##능": 3208,
      "##삼": 3209,
      "##표": 3210,
      "##맥": 3211,
      "##묘": 3212,
      "##쿠": 3213,
      "##늘": 3214,
      "##감": 3215,
      "##여": 3216,
      "##회": 3217,
      "##퐁": 3218,
      "##변": 3219,
      "##금": 3220,
      "##안": 3221,
      "##소": 3222,
      "##랍": 3223,
      "##잖": 3224,
      "##격": 3225,
      "##씬": 3226,
      "##침": 3227,
      "##볕": 3228,
      "##벼": 3229,
      "##먀": 3230,
      "##청": 3231,
      "##급": 3232,
      "##멋": 3233,
      "##쪙": 3234,
      "##피": 3235,
      "##탈": 3236,
      "##텔": 3237,
      "##강": 3238,
      "##태": 3239,
      "##둥": 3240,
      "##밖": 3241,
      "##끼": 3242,
      "##점": 3243,
      "##글": 3244,
      "##w": 3245,
      "##두": 3246,
      "##뻤": 3247,
      "##흉": 3248,
      "##랐": 3249,
      "##홍": 3250,
      "##를": 3251,
      "##남": 3252,
      "##공": 3253,
      "##눌": 3254,
      "##언": 3255,
      "##답": 3256,
      "##것": 3257,
      "##춘": 3258,
      "##빈": 3259,
      "##콩": 3260,
      "##무": 3261,
      "##더": 3262,
      "##돈": 3263,
      "##ㅅ": 3264,
      "##랜": 3265,
      "##채": 3266,
      "##1": 3267,
      "##느": 3268,
      "##킹": 3269,
      "##액": 3270,
      "##션": 3271,
      "##ㅈ": 3272,
      "##종": 3273,
      "##밥": 3274,
      "##허": 3275,
      "##증": 3276,
      "##ㅄ": 3277,
      "##투": 3278,
      "##득": 3279,
      "##섭": 3280,
      "##딘": 3281,
      "##긋": 3282,
      "##착": 3283,
      "##티": 3284,
      "##셀": 3285,
      "##율": 3286,
      "##랫": 3287,
      "##픽": 3288,
      "##깔": 3289,
      "##윈": 3290,
      "##뮈": 3291,
      "##른": 3292,
      "##씨": 3293,
      "##병": 3294,
      "##칸": 3295,
      "##ㅣ": 3296,
      "##괴": 3297,
      "##록": 3298,
      "##매": 3299,
      "##둘": 3300,
      "##맘": 3301,
      "##↓": 3302,
      "##형": 3303,
      "##불": 3304,
      "##렷": 3305,
      "##케": 3306,
      "##헛": 3307,
      "##독": 3308,
      "##양": 3309,
      "##울": 3310,
      "##햇": 3311,
      "##잠": 3312,
      "##심": 3313,
      "##책": 3314,
      "##속": 3315,
      "##져": 3316,
      "##깁": 3317,
      "##칙": 3318,
      "##짘": 3319,
      "##훼": 3320,
      "##죵": 3321,
      "##뚱": 3322,
      "##ㅆ": 3323,
      "##팅": 3324,
      "##방": 3325,
      "##익": 3326,
      "##르": 3327,
      "##께": 3328,
      "##잇": 3329,
      "##처": 3330,
      "##숙": 3331,
      "##웤": 3332,
      "##읏": 3333,
      "##폭": 3334,
      "##않": 3335,
      "##튭": 3336,
      "##짝": 3337,
      "##었": 3338,
      "##운": 3339,
      "##은": 3340,
      "##줄": 3341,
      "##좀": 3342,
      "##굴": 3343,
      "##올": 3344,
      "##암": 3345,
      "##ㅎ": 3346,
      "##ㄹ": 3347,
      "##제": 3348,
      "##덜": 3349,
      "##맨": 3350,
      "##등": 3351,
      "##릴": 3352,
      "##멍": 3353,
      "##메": 3354,
      "##낮": 3355,
      "##룡": 3356,
      "##명": 3357,
      "##뒤": 3358,
      "##림": 3359,
      "##잉": 3360,
      "##봣": 3361,
      "##겟": 3362,
      "##억": 3363,
      "##델": 3364,
      "##활": 3365,
      "##노": 3366,
      "##넿": 3367,
      "##넒": 3368,
      "##b": 3369,
      "##슨": 3370,
      "##브": 3371,
      "##논": 3372,
      "##통": 3373,
      "##ン": 3374,
      "##グ": 3375,
      "##틀": 3376,
      "##략": 3377,
      "##결": 3378,
      "##꼬": 3379,
      "##뤽": 3380,
      "##송": 3381,
      "##릋": 3382,
      "##펴": 3383,
      "##군": 3384,
      "##열": 3385,
      "##ㅏ": 3386,
      "##ㅊ": 3387,
      "##품": 3388,
      "##쁘": 3389,
      "##깐": 3390,
      "##환": 3391,
      "##쓸": 3392,
      "##면": 3393,
      "##뮤": 3394,
      "##랔": 3395,
      "##킥": 3396,
      "##씩": 3397,
      "##페": 3398,
      "##내": 3399,
      "##렘": 3400,
      "##끄": 3401,
      "##럼": 3402,
      "##움": 3403,
      "##헤": 3404,
      "##항": 3405,
      "##찿": 3406,
      "##접": 3407,
      "##뉴": 3408,
      "##뿰": 3409,
      "##섹": 3410,
      "##필": 3411,
      "##칼": 3412,
      "##렸": 3413,
      "##닼": 3414,
      "##갑": 3415,
      "##햐": 3416,
      "##겄": 3417,
      "##욜": 3418,
      "##핱": 3419,
      "##싱": 3420,
      "##멸": 3421,
      "##렬": 3422,
      "##덯": 3423,
      "##엄": 3424,
      "##둿": 3425,
      "##욤": 3426,
      "##랏": 3427,
      "##껴": 3428,
      "##뽁": 3429,
      "##누": 3430,
      "##육": 3431,
      "##캐": 3432,
      "##셧": 3433,
      "##꿈": 3434,
      "##뎈": 3435,
      "##엉": 3436,
      "##앰": 3437,
      "##혹": 3438,
      "##待": 3439,
      "##행": 3440,
      "##닥": 3441,
      "##톤": 3442,
      "##낙": 3443,
      "##듣": 3444,
      "##왁": 3445,
      "##습": 3446,
      "##휙": 3447,
      "##엘": 3448,
      "##륺": 3449,
      "##쿵": 3450,
      "##님": 3451,
      "##넙": 3452,
      "##칫": 3453,
      "##했": 3454,
      "##죤": 3455,
      "##걱": 3456,
      "##뭐": 3457,
      "##랄": 3458,
      "##찮": 3459,
      "##망": 3460,
      "##쭉": 3461,
      "##짜": 3462,
      "##월": 3463,
      "##편": 3464,
      "##날": 3465,
      "##맹": 3466,
      "##찌": 3467,
      "##웠": 3468,
      "##썌": 3469,
      "##뚤": 3470,
      "##먹": 3471,
      "##챦": 3472,
      "##깜": 3473,
      "##약": 3474,
      "##응": 3475,
      "##꾸": 3476,
      "##롭": 3477,
      "##승": 3478,
      "##헌": 3479,
      "##쪽": 3480,
      "##까": 3481,
      "##묵": 3482,
      "##뇌": 3483,
      "##클": 3484,
      "##같": 3485,
      "##법": 3486,
      "##틈": 3487,
      "##없": 3488,
      "##봐": 3489,
      "##쭈": 3490,
      "##헬": 3491,
      "##념": 3492,
      "##둑": 3493,
      "##함": 3494,
      "##받": 3495,
      "##쿨": 3496,
      "##숀": 3497,
      "##배": 3498,
      "##쾡": 3499,
      "##값": 3500,
      "##겻": 3501,
      "##튜": 3502,
      "##블": 3503,
      "##십": 3504,
      "##황": 3505,
      "##댓": 3506,
      "##말": 3507,
      "##렵": 3508,
      "##막": 3509,
      "##옴": 3510,
      "##좋": 3511,
      "##켐": 3512,
      "##꼽": 3513,
      "##깊": 3514,
      "##징": 3515,
      "##릿": 3516,
      "##찍": 3517,
      "##뱉": 3518,
      "##엑": 3519,
      "##뤼": 3520,
      "##짓": 3521,
      "##킷": 3522,
      "##웜": 3523,
      "##템": 3524,
      "##톨": 3525,
      "##⌒": 3526,
      "##합": 3527,
      "##뜨": 3528,
      "##꼭": 3529,
      "##왕": 3530,
      "##돠": 3531,
      "##충": 3532,
      "##본": 3533,
      "##백": 3534,
      "##와": 3535,
      "##꽄": 3536,
      "##쉬": 3537,
      "##떵": 3538,
      "##딩": 3539,
      "##좌": 3540,
      "##잣": 3541,
      "##짐": 3542,
      "##긴": 3543,
      "##놓": 3544,
      "##각": 3545,
      "##닿": 3546,
      "##폰": 3547,
      "##떙": 3548,
      "##땡": 3549,
      "##맞": 3550,
      "##몹": 3551,
      "##직": 3552,
      "##즘": 3553,
      "##苦": 3554,
      "##녜": 3555,
      "##풀": 3556,
      "##련": 3557,
      "##욘": 3558,
      "##낔": 3559,
      "##팬": 3560,
      "##갈": 3561,
      "##졸": 3562,
      "##균": 3563,
      "##言": 3564,
      "##깡": 3565,
      "##릐": 3566,
      "##팀": 3567,
      "##폴": 3568,
      "##골": 3569,
      "##쌍": 3570,
      "##펠": 3571,
      "##∀": 3572,
      "##≤": 3573,
      "##꿀": 3574,
      "##낭": 3575,
      "##믄": 3576,
      "##뜩": 3577,
      "##뎁": 3578,
      "##잡": 3579,
      "##z": 3580,
      "##겠": 3581,
      "##넘": 3582,
      "##옥": 3583,
      "##맙": 3584,
      "##캬": 3585,
      "##깟": 3586,
      "##권": 3587,
      "##덕": 3588,
      "##헴": 3589,
      "##쫄": 3590,
      "##녕": 3591,
      "##캉": 3592,
      "##잘": 3593,
      "##위": 3594,
      "##멀": 3595,
      "##놧": 3596,
      "##봙": 3597,
      "##협": 3598,
      "##옇": 3599,
      "##셔": 3600,
      "##켓": 3601,
      "##빌": 3602,
      "##빨": 3603,
      "##얗": 3604,
      "##촘": 3605,
      "##펜": 3606,
      "##첸": 3607,
      "##귝": 3608,
      "##흘": 3609,
      "##핡": 3610,
      "##씽": 3611,
      "##곰": 3612,
      "##얄": 3613,
      "##앗": 3614,
      "##뤠": 3615,
      "##뻣": 3616,
      "##늉": 3617,
      "##롬": 3618,
      "##ㅡ": 3619,
      "##쉽": 3620,
      "##탕": 3621,
      "##앵": 3622,
      "##떄": 3623,
      "##롱": 3624,
      "##런": 3625,
      "##얻": 3626,
      "##샤": 3627,
      "##짱": 3628,
      "##홈": 3629,
      "##놨": 3630,
      "##됫": 3631,
      "##잔": 3632,
      "##봤": 3633,
      "##극": 3634,
      "##취": 3635,
      "##손": 3636,
      "##컬": 3637,
      "##컥": 3638,
      "##렌": 3639,
      "##ワ": 3640,
      "##ヨ": 3641,
      "##ル": 3642,
      "##シ": 3643,
      "##ム": 3644,
      "##ヒ": 3645,
      "##し": 3646,
      "##ま": 3647,
      "##す": 3648,
      "##순": 3649,
      "##엽": 3650,
      "##늬": 3651,
      "##탆": 3652,
      "##퓨": 3653,
      "##ㅑ": 3654,
      "##엠": 3655,
      "##넹": 3656,
      "##밨": 3657,
      "##쓰": 3658,
      "##밓": 3659,
      "##후": 3660,
      "##찔": 3661,
      "##쥐": 3662,
      "##북": 3663,
      "##ㅁ": 3664,
      "##졉": 3665,
      "##빛": 3666,
      "##낚": 3667,
      "##됏": 3668,
      "##규": 3669,
      "##못": 3670,
      "##봄": 3671,
      "##졍": 3672,
      "##둔": 3673,
      "##롤": 3674,
      "##택": 3675,
      "##킬": 3676,
      "##몰": 3677,
      "##번": 3678,
      "##릉": 3679,
      "##탁": 3680,
      "##믓": 3681,
      "##써": 3682,
      "##딧": 3683,
      "##ㅉ": 3684,
      "##뻔": 3685,
      "##칭": 3686,
      "##있": 3687,
      "##뉘": 3688,
      "##얌": 3689,
      "##업": 3690,
      "##왜": 3691,
      "##렐": 3692,
      "##풋": 3693,
      "##워": 3694,
      "##컴": 3695,
      "##뱃": 3696,
      "##꽃": 3697,
      "##혈": 3698,
      "##쥴": 3699,
      "##김": 3700,
      "##킴": 3701,
      "##럽": 3702,
      "##난": 3703,
      "##똥": 3704,
      "##떠": 3705,
      "##릎": 3706,
      "##롷": 3707,
      "##몸": 3708,
      "##첨": 3709,
      "##흐": 3710,
      "##밈": 3711,
      "##쉐": 3712,
      "##힌": 3713,
      "##品": 3714,
      "##쪈": 3715,
      "##횽": 3716,
      "##띨": 3717,
      "##숭": 3718,
      "##곘": 3719,
      "##싯": 3720,
      "##댜": 3721,
      "##층": 3722,
      "##펏": 3723,
      "##★": 3724,
      "##센": 3725,
      "##빙": 3726,
      "##컷": 3727,
      "##앉": 3728,
      "##햄": 3729,
      "##깍": 3730,
      "##왓": 3731,
      "##뇬": 3732,
      "##빢": 3733,
      "##혐": 3734,
      "##깝": 3735,
      "##례": 3736,
      "##홀": 3737,
      "##륨": 3738,
      "##탱": 3739,
      "##족": 3740,
      "##특": 3741,
      "##껏": 3742,
      "##밭": 3743,
      "##든": 3744,
      "##헥": 3745,
      "##벨": 3746,
      "##된": 3747,
      "##납": 3748,
      "##힘": 3749,
      "##찬": 3750,
      "##作": 3751,
      "##뢰": 3752,
      "##긔": 3753,
      "##널": 3754,
      "##콘": 3755,
      "##쩄": 3756,
      "##찜": 3757,
      "##덥": 3758,
      "##알": 3759,
      "##싸": 3760,
      "##귬": 3761,
      "##밧": 3762,
      "##젓": 3763,
      "##턀": 3764,
      "##돼": 3765,
      "##혓": 3766,
      "##ㅕ": 3767,
      "##엣": 3768,
      "##축": 3769,
      "##쩍": 3770,
      "##곱": 3771,
      "##맛": 3772,
      "##휘": 3773,
      "##ㅗ": 3774,
      "##외": 3775,
      "##앤": 3776,
      "##꽁": 3777,
      "##렛": 3778,
      "##딨": 3779,
      "##웅": 3780,
      "##룸": 3781,
      "##챡": 3782,
      "##뽕": 3783,
      "##털": 3784,
      "##췃": 3785,
      "##츈": 3786,
      "##릇": 3787,
      "##릅": 3788,
      "##뽀": 3789,
      "##뚯": 3790,
      "##탭": 3791,
      "##껰": 3792,
      "##멘": 3793,
      "##갓": 3794,
      "##겹": 3795,
      "##첩": 3796,
      "##궈": 3797,
      "##랙": 3798,
      "##셋": 3799,
      "##또": 3800,
      "##콜": 3801,
      "##쭙": 3802,
      "##뻑": 3803,
      "##검": 3804,
      "##젬": 3805,
      "##숩": 3806,
      "##쟁": 3807,
      "##길": 3808,
      "##퀴": 3809,
      "##뵹": 3810,
      "##흣": 3811,
      "##젝": 3812,
      "##틋": 3813,
      "##캔": 3814,
      "##붸": 3815,
      "##앞": 3816,
      "##힛": 3817,
      "##톱": 3818,
      "##꼐": 3819,
      "##♥": 3820,
      "##므": 3821,
      "##떔": 3822,
      "##흠": 3823,
      "##램": 3824,
      "##삭": 3825,
      "##샌": 3826,
      "##멧": 3827,
      "##폐": 3828,
      "##넷": 3829,
      "##껍": 3830,
      "##땟": 3831,
      "##랖": 3832,
      "##홱": 3833,
      "##떘": 3834,
      "##젠": 3835,
      "##콕": 3836,
      "##휴": 3837,
      "##演": 3838,
      "##빡": 3839,
      "##틱": 3840,
      "##틸": 3841,
      "##쫀": 3842,
      "##곧": 3843,
      "##뿐": 3844,
      "##찰": 3845,
      "##팟": 3846,
      "##밌": 3847,
      "##흥": 3848,
      "##텀": 3849,
      "##꺽": 3850,
      "##쯩": 3851,
      "##힙": 3852,
      "##쏘": 3853,
      "##₂": 3854,
      "##§": 3855,
      "##콧": 3856,
      "##田": 3857,
      "##彩": 3858,
      "##也": 3859,
      "##香": 3860,
      "##땔": 3861,
      "##닐": 3862,
      "##섬": 3863,
      "##겼": 3864,
      "##씀": 3865,
      "##믜": 3866,
      "##둠": 3867,
      "##ㅔ": 3868,
      "##끗": 3869,
      "##ㅌ": 3870,
      "##깄": 3871,
      "##샷": 3872,
      "##츄": 3873,
      "##닷": 3874,
      "##꿐": 3875,
      "##맷": 3876,
      "##헠": 3877,
      "##펙": 3878,
      "##총": 3879,
      "##꼴": 3880,
      "##퀘": 3881,
      "##왤": 3882,
      "##꽝": 3883,
      "##型": 3884,
      "##的": 3885,
      "##な": 3886,
      "##チ": 3887,
      "##ョ": 3888,
      "##ッ": 3889,
      "##パ": 3890,
      "##リ": 3891,
      "##の": 3892,
      "##エ": 3893,
      "##ロ": 3894,
      "##映": 3895,
      "##画": 3896,
      "##퇴": 3897,
      "##핍": 3898,
      "##븅": 3899,
      "##뮬": 3900,
      "##잭": 3901,
      "##땐": 3902,
      "##측": 3903,
      "##땜": 3904,
      "##랟": 3905,
      "##뿔": 3906,
      "##컨": 3907,
      "##훨": 3908,
      "##띵": 3909,
      "##女": 3910,
      "##웰": 3911,
      "##쳣": 3912,
      "##q": 3913,
      "##떨": 3914,
      "##옷": 3915,
      "##굽": 3916,
      "##떻": 3917,
      "##렉": 3918,
      "##혁": 3919,
      "##낰": 3920,
      "##륵": 3921,
      "##최": 3922,
      "##뚝": 3923,
      "##퀄": 3924,
      "##덩": 3925,
      "##컹": 3926,
      "##펭": 3927,
      "##푹": 3928,
      "##엎": 3929,
      "##왑": 3930,
      "##넴": 3931,
      "##눕": 3932,
      "##봇": 3933,
      "##냥": 3934,
      "##높": 3935,
      "##밤": 3936,
      "##下": 3937,
      "##샵": 3938,
      "##툰": 3939,
      "##줌": 3940,
      "##융": 3941,
      "##룩": 3942,
      "##퐉": 3943,
      "##압": 3944,
      "##윙": 3945,
      "##팩": 3946,
      "##챔": 3947,
      "##렴": 3948,
      "##셨": 3949,
      "##쩡": 3950,
      "##객": 3951,
      "##확": 3952,
      "##ㅘ": 3953,
      "##뎌": 3954,
      "##률": 3955,
      "##얔": 3956,
      "##췬": 3957,
      "##뭄": 3958,
      "##쪄": 3959,
      "##낌": 3960,
      "##얍": 3961,
      "##찹": 3962,
      "##쪼": 3963,
      "##껑": 3964,
      "##럴": 3965,
      "##듴": 3966,
      "##깨": 3967,
      "##싹": 3968,
      "##캣": 3969,
      "##엌": 3970,
      "##쾅": 3971,
      "##벅": 3972,
      "##홉": 3973,
      "##듭": 3974,
      "##욬": 3975,
      "##짖": 3976,
      "##ㅍ": 3977,
      "##랴": 3978,
      "##촌": 3979,
      "##핵": 3980,
      "##괜": 3981,
      "##쾌": 3982,
      "##벙": 3983,
      "##ㅃ": 3984,
      "##첼": 3985,
      "##딍": 3986,
      "##붙": 3987,
      "##ㅛ": 3988,
      "##뜬": 3989,
      "##옹": 3990,
      "##쎌": 3991,
      "##！": 3992,
      "##랩": 3993,
      "##뭘": 3994,
      "##룬": 3995,
      "##륒": 3996,
      "##밑": 3997,
      "##샹": 3998,
      "##곸": 3999,
      "##쉘": 4000,
      "##벡": 4001,
      "##뜻": 4002,
      "##늠": 4003,
      "##슐": 4004,
      "##♩": 4005,
      "##♪": 4006,
      "##♬": 4007,
      "##☞": 4008,
      "##☜": 4009,
      "##♡": 4010,
      "##넛": 4011,
      "##뻘": 4012,
      "##떼": 4013,
      "##엡": 4014,
      "##퀸": 4015,
      "##떈": 4016,
      "##빽": 4017,
      "##렙": 4018,
      "##뻬": 4019,
      "##텐": 4020,
      "##궐": 4021,
      "##쿄": 4022,
      "##웍": 4023,
      "##쮸": 4024,
      "##뎍": 4025,
      "##띤": 4026,
      "##째": 4027,
      "##륙": 4028,
      "##척": 4029,
      "##띠": 4030,
      "##획": 4031,
      "##앙": 4032,
      "##옮": 4033,
      "##땁": 4034,
      "##곅": 4035,
      "##룹": 4036,
      "##꾜": 4037,
      "##쨋": 4038,
      "##똑": 4039,
      "##볶": 4040,
      "##궜": 4041,
      "##칰": 4042,
      "##잰": 4043,
      "##뛰": 4044,
      "##뚜": 4045,
      "##갱": 4046,
      "##촉": 4047,
      "##긍": 4048,
      "##츤": 4049,
      "##훤": 4050,
      "##◆": 4051,
      "##※": 4052,
      "##¤": 4053,
      "##《": 4054,
      "##■": 4055,
      "##》": 4056,
      "##¡": 4057,
      "##¿": 4058,
      "##됨": 4059,
      "##뎃": 4060,
      "##궁": 4061,
      "##윅": 4062,
      "##썻": 4063,
      "##→": 4064,
      "##솝": 4065,
      "##뽄": 4066,
      "##쌔": 4067,
      "##놀": 4068,
      "##폼": 4069,
      "##○": 4070,
      "##탠": 4071,
      "##됴": 4072,
      "##쨍": 4073,
      "##は": 4074,
      "##結": 4075,
      "##論": 4076,
      "##を": 4077,
      "##出": 4078,
      "##こ": 4079,
      "##と": 4080,
      "##が": 4081,
      "##で": 4082,
      "##き": 4083,
      "##い": 4084,
      "##찐": 4085,
      "##홥": 4086,
      "##탯": 4087,
      "##턱": 4088,
      "##せ": 4089,
      "##だ": 4090,
      "##よ": 4091,
      "##싶": 4092,
      "##츰": 4093,
      "##솔": 4094,
      "##웬": 4095,
      "##쩔": 4096,
      "##솜": 4097,
      "##뢀": 4098,
      "##눼": 4099,
      "##댖": 4100,
      "##큼": 4101,
      "##얘": 4102,
      "##ㄸ": 4103,
      "##흙": 4104,
      "##웟": 4105,
      "##팽": 4106,
      "##낀": 4107,
      "##옂": 4108,
      "##好": 4109,
      "##탤": 4110,
      "##팔": 4111,
      "##엮": 4112,
      "##뷰": 4113,
      "##겝": 4114,
      "##。": 4115,
      "##웽": 4116,
      "##슥": 4117,
      "##섳": 4118,
      "##왔": 4119,
      "##흡": 4120,
      "##캇": 4121,
      "##넌": 4122,
      "##삽": 4123,
      "##윌": 4124,
      "##쑨": 4125,
      "##셉": 4126,
      "##뽑": 4127,
      "##헀": 4128,
      "##셈": 4129,
      "##딱": 4130,
      "##뱌": 4131,
      "##끈": 4132,
      "##ㄲ": 4133,
      "##텅": 4134,
      "##삘": 4135,
      "##끌": 4136,
      "##쨌": 4137,
      "##렝": 4138,
      "##넢": 4139,
      "##휸": 4140,
      "##짢": 4141,
      "##즐": 4142,
      "##썩": 4143,
      "##끽": 4144,
      "##탑": 4145,
      "##얀": 4146,
      "##뎅": 4147,
      "##갸": 4148,
      "##븐": 4149,
      "##갠": 4150,
      "##젆": 4151,
      "##멜": 4152,
      "##삿": 4153,
      "##삐": 4154,
      "##쟎": 4155,
      "##땋": 4156,
      "##펀": 4157,
      "##ベ": 4158,
      "##쇄": 4159,
      "##펄": 4160,
      "##났": 4161,
      "##랠": 4162,
      "##잤": 4163,
      "##곀": 4164,
      "##낑": 4165,
      "##ㅐ": 4166,
      "##·": 4167,
      "##낲": 4168,
      "##푼": 4169,
      "##빝": 4170,
      "##줫": 4171,
      "##흨": 4172,
      "##믐": 4173,
      "##쁨": 4174,
      "##쩜": 4175,
      "##望": 4176,
      "##콤": 4177,
      "##춤": 4178,
      "##컵": 4179,
      "##젖": 4180,
      "##샛": 4181,
      "##졋": 4182,
      "##？": 4183,
      "##돤": 4184,
      "##륭": 4185,
      "##떡": 4186,
      "##컾": 4187,
      "##쁜": 4188,
      "##믹": 4189,
      "##릣": 4190,
      "##굼": 4191,
      "##헷": 4192,
      "##랗": 4193,
      "##앟": 4194,
      "##늑": 4195,
      "##롸": 4196,
      "##힐": 4197,
      "##훗": 4198,
      "##븡": 4199,
      "##벗": 4200,
      "##핧": 4201,
      "##も": 4202,
      "##か": 4203,
      "##わ": 4204,
      "##븟": 4205,
      "##헝": 4206,
      "##셰": 4207,
      "##쯤": 4208,
      "##헣": 4209,
      "##땅": 4210,
      "##쵸": 4211,
      "##탉": 4212,
      "##혖": 4213,
      "##읔": 4214,
      "##곃": 4215,
      "##쌈": 4216,
      "##쥣": 4217,
      "##농": 4218,
      "##헸": 4219,
      "##끔": 4220,
      "##혀": 4221,
      "##룰": 4222,
      "##녓": 4223,
      "##큘": 4224,
      "##헨": 4225,
      "##쵝": 4226,
      "##닭": 4227,
      "##꽉": 4228,
      "##男": 4229,
      "##왈": 4230,
      "##빳": 4231,
      "##줬": 4232,
      "##낼": 4233,
      "##욯": 4234,
      "##쿼": 4235,
      "##쏠": 4236,
      "##켈": 4237,
      "##귘": 4238,
      "##넣": 4239,
      "##웩": 4240,
      "##짦": 4241,
      "##볔": 4242,
      "##녁": 4243,
      "##땀": 4244,
      "##빔": 4245,
      "##챠": 4246,
      "##꿎": 4247,
      "##火": 4248,
      "##줍": 4249,
      "##쿡": 4250,
      "##쉰": 4251,
      "##샬": 4252,
      "##れ": 4253,
      "##る": 4254,
      "##美": 4255,
      "##쎀": 4256,
      "##곳": 4257,
      "##셜": 4258,
      "##뎄": 4259,
      "##땝": 4260,
      "##랰": 4261,
      "##잎": 4262,
      "##묨": 4263,
      "##짧": 4264,
      "##앍": 4265,
      "##묻": 4266,
      "##人": 4267,
      "##쥰": 4268,
      "##뻐": 4269,
      "##쉴": 4270,
      "##흔": 4271,
      "##쥬": 4272,
      "##腸": 4273,
      "##맄": 4274,
      "##꽤": 4275,
      "##웁": 4276,
      "##끕": 4277,
      "##짤": 4278,
      "##∇": 4279,
      "##￣": 4280,
      "##찾": 4281,
      "##녔": 4282,
      "##딕": 4283,
      "##팰": 4284,
      "##헹": 4285,
      "##씪": 4286,
      "##\\": 4287,
      "##좐": 4288,
      "##핀": 4289,
      "##랒": 4290,
      "##핮": 4291,
      "##샨": 4292,
      "##찡": 4293,
      "##꾼": 4294,
      "##뢍": 4295,
      "##낸": 4296,
      "##｀": 4297,
      "##道": 4298,
      "##記": 4299,
      "##꿧": 4300,
      "##튠": 4301,
      "##떳": 4302,
      "##귯": 4303,
      "##슛": 4304,
      "##뱀": 4305,
      "##넬": 4306,
      "##쾨": 4307,
      "##썽": 4308,
      "##팻": 4309,
      "##롹": 4310,
      "##쐌": 4311,
      "##뿡": 4312,
      "##댄": 4313,
      "##쉣": 4314,
      "##쎤": 4315,
      "##害": 4316,
      "##無": 4317,
      "##益": 4318,
      "##컄": 4319,
      "##벵": 4320,
      "##슺": 4321,
      "##뼈": 4322,
      "##팍": 4323,
      "##빗": 4324,
      "##넥": 4325,
      "##쌀": 4326,
      "##ら": 4327,
      "##け": 4328,
      "##놕": 4329,
      "##큰": 4330,
      "##닠": 4331,
      "##킄": 4332,
      "##귄": 4333,
      "##돋": 4334,
      "##싴": 4335,
      "##밟": 4336,
      "##혔": 4337,
      "##닫": 4338,
      "##댐": 4339,
      "##췌": 4340,
      "##잊": 4341,
      "##될": 4342,
      "##껬": 4343,
      "##옌": 4344,
      "##훅": 4345,
      "##픔": 4346,
      "##넨": 4347,
      "##겜": 4348,
      "##쇠": 4349,
      "##流": 4350,
      "##홪": 4351,
      "##핏": 4352,
      "##졎": 4353,
      "##걑": 4354,
      "##캅": 4355,
      "##쳫": 4356,
      "##츔": 4357,
      "##썸": 4358,
      "##넼": 4359,
      "##퍽": 4360,
      "##え": 4361,
      "##様": 4362,
      "##헿": 4363,
      "##많": 4364,
      "##ㄳ": 4365,
      "##늦": 4366,
      "##홓": 4367,
      "##켯": 4368,
      "##뱅": 4369,
      "##넝": 4370,
      "##첬": 4371,
      "##ㅞ": 4372,
      "##つ": 4373,
      "##頑": 4374,
      "##張": 4375,
      "##ゃ": 4376,
      "##헉": 4377,
      "##솟": 4378,
      "##典": 4379,
      "##뚬": 4380,
      "##쌘": 4381,
      "##뜷": 4382,
      "##괄": 4383,
      "##앸": 4384,
      "##뺑": 4385,
      "##옄": 4386,
      "##즉": 4387,
      "##싖": 4388,
      "##렜": 4389,
      "##山": 4390,
      "##멤": 4391,
      "##쨰": 4392,
      "##밸": 4393,
      "##깥": 4394,
      "##며": 4395,
      "##꽥": 4396,
      "##퉷": 4397,
      "##윔": 4398,
      "##켁": 4399,
      "##빅": 4400,
      "##뎐": 4401,
      "##퉁": 4402,
      "##쟝": 4403,
      "##꿇": 4404,
      "##딴": 4405,
      "##讐": 4406,
      "##情": 4407,
      "##캠": 4408,
      "##쓱": 4409,
      "##칻": 4410,
      "##룔": 4411,
      "##핫": 4412,
      "##됀": 4413,
      "##닊": 4414,
      "##퇄": 4415,
      "##돗": 4416,
      "##쨩": 4417,
      "##콬": 4418,
      "##ㄶ": 4419,
      "##숴": 4420,
      "##홧": 4421,
      "##팸": 4422,
      "##댕": 4423,
      "##썜": 4424,
      "##숨": 4425,
      "##윽": 4426,
      "##쫘": 4427,
      "##뢈": 4428,
      "##붓": 4429,
      "##냔": 4430,
      "##쎄": 4431,
      "##슾": 4432,
      "##밎": 4433,
      "##っ": 4434,
      "##た": 4435,
      "##빰": 4436,
      "##꿘": 4437,
      "##뢔": 4438,
      "##쨔": 4439,
      "##섴": 4440,
      "##띰": 4441,
      "##냇": 4442,
      "##要": 4443,
      "##벳": 4444,
      "##욥": 4445,
      "##쫌": 4446,
      "##멱": 4447,
      "##ひ": 4448,
      "##ぽ": 4449,
      "##ろ": 4450,
      "##傑": 4451,
      "##侖": 4452,
      "##멓": 4453,
      "##윗": 4454,
      "##칩": 4455,
      "##롴": 4456,
      "##낄": 4457,
      "##휼": 4458,
      "##뤄": 4459,
      "##캄": 4460,
      "##챤": 4461,
      "##굳": 4462,
      "##¨": 4463,
      "##葉": 4464,
      "##훡": 4465,
      "##켜": 4466,
      "##껜": 4467,
      "##늡": 4468,
      "##⊙": 4469,
      "##좍": 4470,
      "##흳": 4471,
      "##렠": 4472,
      "##꿔": 4473,
      "##볓": 4474,
      "##냣": 4475,
      "##삤": 4476,
      "##쌓": 4477,
      "##─": 4478,
      "##딪": 4479,
      "##즌": 4480,
      "##툭": 4481,
      "##웡": 4482,
      "##읃": 4483,
      "##맺": 4484,
      "##쒜": 4485,
      "##뵤": 4486,
      "##텍": 4487,
      "##샴": 4488,
      "##봘": 4489,
      "##쒸": 4490,
      "##붐": 4491,
      "##깤": 4492,
      "##슭": 4493,
      "##뿜": 4494,
      "##뭇": 4495,
      "##딤": 4496,
      "##읭": 4497,
      "##겔": 4498,
      "##룽": 4499,
      "##끾": 4500,
      "##큭": 4501,
      "##車": 4502,
      "##メ": 4503,
      "##イ": 4504,
      "##テ": 4505,
      "##몃": 4506,
      "##껌": 4507,
      "##팝": 4508,
      "##…": 4509,
      "##썅": 4510,
      "##슌": 4511,
      "##숏": 4512,
      "##칀": 4513,
      "##ん": 4514,
      "##う": 4515,
      "##に": 4516,
      "##面": 4517,
      "##白": 4518,
      "##섶": 4519,
      "##릳": 4520,
      "##쀼": 4521,
      "##뜸": 4522,
      "##­": 4523,
      "##롄": 4524,
      "##섺": 4525,
      "##숑": 4526,
      "##쩧": 4527,
      "##엨": 4528,
      "##쳤": 4529,
      "##챃": 4530,
      "##ㄺ": 4531,
      "##핦": 4532,
      "##슷": 4533,
      "##맬": 4534,
      "##씹": 4535,
      "##겧": 4536,
      "##☆": 4537,
      "##윱": 4538,
      "##엲": 4539,
      "##뺏": 4540,
      "##잫": 4541,
      "##쭐": 4542,
      "##펑": 4543,
      "##꽂": 4544,
      "##툿": 4545,
      "##쏙": 4546,
      "##룻": 4547,
      "##뮨": 4548,
      "##곻": 4549,
      "##냠": 4550,
      "##뀨": 4551,
      "##뗴": 4552,
      "##밉": 4553,
      "##꼮": 4554,
      "##죠": 4555,
      "##줠": 4556,
      "##퉤": 4557,
      "##쎠": 4558,
      "##햌": 4559,
      "##첵": 4560,
      "##흏": 4561,
      "##및": 4562,
      "##딜": 4563,
      "##젛": 4564,
      "##뭨": 4565,
      "##ㄻ": 4566,
      "##ⅱ": 4567,
      "##ⅲ": 4568,
      "##깅": 4569,
      "##꺠": 4570,
      "##앨": 4571,
      "##탐": 4572,
      "##끙": 4573,
      "##먠": 4574,
      "##탓": 4575,
      "##家": 4576,
      "##겈": 4577,
      "##셴": 4578,
      "##●": 4579,
      "##훔": 4580,
      "##떽": 4581,
      "##눅": 4582,
      "##롁": 4583,
      "##뀌": 4584,
      "##뿅": 4585,
      "##욷": 4586,
      "##샥": 4587,
      "##갔": 4588,
      "##튀": 4589,
      "##똠": 4590,
      "##냬": 4591,
      "##옆": 4592,
      "##슉": 4593,
      "##맣": 4594,
      "##딛": 4595,
      "##쓔": 4596,
      "##低": 4597,
      "##力": 4598,
      "##됐": 4599,
      "##귿": 4600,
      "##좃": 4601,
      "##믈": 4602,
      "##읍": 4603,
      "##슼": 4604,
      "##툼": 4605,
      "##몀": 4606,
      "##쟘": 4607,
      "##젅": 4608,
      "##뻥": 4609,
      "##━": 4610,
      "##겸": 4611,
      "##푀": 4612,
      "##쑥": 4613,
      "##졌": 4614,
      "##갖": 4615,
      "##뿍": 4616,
      "##텡": 4617,
      "##콥": 4618,
      "##챈": 4619,
      "##톼": 4620,
      "##돟": 4621,
      "##カ": 4622,
      "##ピ": 4623,
      "##끅": 4624,
      "##좆": 4625,
      "##뇨": 4626,
      "##ト": 4627,
      "##쯗": 4628,
      "##間": 4629,
      "##木": 4630,
      "##慶": 4631,
      "##一": 4632,
      "##귓": 4633,
      "##땨": 4634,
      "##눔": 4635,
      "##꼅": 4636,
      "##윀": 4637,
      "##닟": 4638,
      "##탗": 4639,
      "##늣": 4640,
      "##뼉": 4641,
      "##앓": 4642,
      "##샘": 4643,
      "##츨": 4644,
      "##꿍": 4645,
      "##立": 4646,
      "##삳": 4647,
      "##쳇": 4648,
      "##잏": 4649,
      "##뺴": 4650,
      "##感": 4651,
      "##텨": 4652,
      "##셤": 4653,
      "##톰": 4654,
      "##핯": 4655,
      "##솧": 4656,
      "##쌕": 4657,
      "##겅": 4658,
      "##뽜": 4659,
      "##렀": 4660,
      "##낯": 4661,
      "##쪘": 4662,
      "##똔": 4663,
      "##헐": 4664,
      "##캡": 4665,
      "##힞": 4666,
      "##쎗": 4667,
      "##쳬": 4668,
      "##갗": 4669,
      "##◀": 4670,
      "##쓉": 4671,
      "##쩝": 4672,
      "##紅": 4673,
      "##塵": 4674,
      "##럤": 4675,
      "##갇": 4676,
      "##웹": 4677,
      "##닺": 4678,
      "##왘": 4679,
      "##味": 4680,
      "##춋": 4681,
      "##훃": 4682,
      "##峽": 4683,
      "##숍": 4684,
      "##ⓞ": 4685,
      "##ⓛ": 4686,
      "##짚": 4687,
      "##쭘": 4688,
      "##緣": 4689,
      "##쉒": 4690,
      "##꿉": 4691,
      "##뚫": 4692,
      "##쥘": 4693,
      "##홬": 4694,
      "##삔": 4695,
      "##핰": 4696,
      "##툴": 4697,
      "##돔": 4698,
      "##겤": 4699,
      "##믺": 4700,
      "##꾱": 4701,
      "##랽": 4702,
      "##룕": 4703,
      "##뷁": 4704,
      "##젔": 4705,
      "##텁": 4706,
      "##＾": 4707,
      "##◎": 4708,
      "##▷": 4709,
      "##◁": 4710,
      "##▽": 4711,
      "##△": 4712,
      "##□": 4713,
      "##】": 4714,
      "##【": 4715,
      "##냄": 4716,
      "##듸": 4717,
      "##꾹": 4718,
      "##돜": 4719,
      "##떤": 4720,
      "##色": 4721,
      "##늄": 4722,
      "##本": 4723,
      "##÷": 4724,
      "##팜": 4725,
      "##찼": 4726,
      "##삥": 4727,
      "##꾀": 4728,
      "##믿": 4729,
      "##씰": 4730,
      "##갛": 4731,
      "##部": 4732,
      "##춰": 4733,
      "##핸": 4734,
      "##줘": 4735,
      "##師": 4736,
      "##녈": 4737,
      "##옼": 4738,
      "##찢": 4739,
      "##냨": 4740,
      "##쏭": 4741,
      "##퓽": 4742,
      "##읅": 4743,
      "##쑈": 4744,
      "##韓": 4745,
      "##紙": 4746,
      "##꺅": 4747,
      "##춧": 4748,
      "##횬": 4749,
      "##쿤": 4750,
      "##섰": 4751,
      "##졔": 4752,
      "##歌": 4753,
      "##曲": 4754,
      "##都": 4755,
      "##옵": 4756,
      "##끠": 4757,
      "##샣": 4758,
      "##앚": 4759,
      "##깽": 4760,
      "##젯": 4761,
      "##땍": 4762,
      "##옿": 4763,
      "##륄": 4764,
      "##됬": 4765,
      "##꿬": 4766,
      "##팥": 4767,
      "##뵛": 4768,
      "##넓": 4769,
      "##빤": 4770,
      "##빋": 4771,
      "##者": 4772,
      "##定": 4773,
      "##離": 4774,
      "##祖": 4775,
      "##솨": 4776,
      "##둣": 4777,
      "##넉": 4778,
      "##댁": 4779,
      "##늰": 4780,
      "##겉": 4781,
      "##쥼": 4782,
      "##퓰": 4783,
      "##쏔": 4784,
      "##땃": 4785,
      "##놉": 4786,
      "##퇘": 4787,
      "##좠": 4788,
      "##엪": 4789,
      "##듵": 4790,
      "##챙": 4791,
      "##淇": 4792,
      "##눠": 4793,
      "##쉡": 4794,
      "##읽": 4795,
      "##덟": 4796,
      "##냌": 4797,
      "##씸": 4798,
      "##넜": 4799,
      "##뎜": 4800,
      "##갯": 4801,
      "##律": 4802,
      "##갤": 4803,
      "##＼": 4804,
      "##뤌": 4805,
      "##졓": 4806,
      "##앳": 4807,
      "##ㅖ": 4808,
      "##껐": 4809,
      "##쿰": 4810,
      "##ㅀ": 4811,
      "##쨓": 4812,
      "##싰": 4813,
      "##넀": 4814,
      "##곽": 4815,
      "##셍": 4816,
      "##쫙": 4817,
      "##봬": 4818,
      "##싫": 4819,
      "##붆": 4820,
      "##훙": 4821,
      "##앱": 4822,
      "##高": 4823,
      "##햅": 4824,
      "##럔": 4825,
      "##덛": 4826,
      "##뇰": 4827,
      "##뛴": 4828,
      "##냊": 4829,
      "##냑": 4830,
      "##‥": 4831,
      "##옰": 4832,
      "##폿": 4833,
      "##겓": 4834,
      "##앋": 4835,
      "##햏": 4836,
      "##슝": 4837,
      "##숲": 4838,
      "##手": 4839,
      "##윘": 4840,
      "##샠": 4841,
      "##뽈": 4842,
      "##퀀": 4843,
      "##뼜": 4844,
      "##겋": 4845,
      "##놬": 4846,
      "##낱": 4847,
      "##쩃": 4848,
      "##썰": 4849,
      "##ㆍ": 4850,
      "##꿋": 4851,
      "##텝": 4852,
      "##좔": 4853,
      "##쮜": 4854,
      "##봅": 4855,
      "##岡": 4856,
      "##蒼": 4857,
      "##佑": 4858,
      "##릏": 4859,
      "##뷸": 4860,
      "##렿": 4861,
      "##찟": 4862,
      "##졷": 4863,
      "##긛": 4864,
      "##볍": 4865,
      "##덨": 4866,
      "##춸": 4867,
      "##쬐": 4868,
      "##퀼": 4869,
      "##맠": 4870,
      "##뤰": 4871,
      "##넫": 4872,
      "##셸": 4873,
      "##霆": 4874,
      "##鋒": 4875,
      "##겡": 4876,
      "##林": 4877,
      "##훌": 4878,
      "##셕": 4879,
      "##찝": 4880,
      "##멈": 4881,
      "##쏴": 4882,
      "##엾": 4883,
      "##긱": 4884,
      "##쑤": 4885,
      "##탬": 4886,
      "##펫": 4887,
      "##死": 4888,
      "##쯧": 4889,
      "##갬": 4890,
      "##궤": 4891,
      "##◐": 4892,
      "##◑": 4893,
      "##둡": 4894,
      "##촬": 4895,
      "##봑": 4896,
      "##덧": 4897,
      "##햫": 4898,
      "##싑": 4899,
      "##小": 4900,
      "##젊": 4901,
      "##봊": 4902,
      "##솢": 4903,
      "##낏": 4904,
      "##닮": 4905,
      "##좡": 4906,
      "##콸": 4907,
      "##좝": 4908,
      "##몇": 4909,
      "##숫": 4910,
      "##湖": 4911,
      "##괸": 4912,
      "##뫄": 4913,
      "##꼼": 4914,
      "##엏": 4915,
      "##헑": 4916,
      "##셩": 4917,
      "##짬": 4918,
      "##쫭": 4919,
      "##읎": 4920,
      "##눙": 4921,
      "##킵": 4922,
      "##ㅢ": 4923,
      "##홋": 4924,
      "##쎼": 4925,
      "##갰": 4926,
      "##냅": 4927,
      "##쩨": 4928,
      "##맜": 4929,
      "##쒯": 4930,
      "##뫘": 4931,
      "##끓": 4932,
      "##꼿": 4933,
      "##핛": 4934,
      "##됑": 4935,
      "##派": 4936,
      "##걀": 4937,
      "##臭": 4938,
      "##쟞": 4939,
      "##峰": 4940,
      "##죻": 4941,
      "##곁": 4942,
      "##쌩": 4943,
      "##밐": 4944,
      "##썹": 4945,
      "##껒": 4946,
      "##밫": 4947,
      "##밷": 4948,
      "##뮌": 4949,
      "##善": 4950,
      "##몫": 4951,
      "##럈": 4952,
      "##짴": 4953,
      "##뀰": 4954,
      "##댬": 4955,
      "##뱔": 4956,
      "##윳": 4957,
      "##史": 4958,
      "##솤": 4959,
      "##쳔": 4960,
      "##킁": 4961,
      "##쬬": 4962,
      "##慄": 4963,
      "##촐": 4964,
      "##ダ": 4965,
      "##見": 4966,
      "##ね": 4967,
      "##됄": 4968,
      "##괭": 4969,
      "##뜯": 4970,
      "##뎡": 4971,
      "##춌": 4972,
      "##튬": 4973,
      "##덱": 4974,
      "##뜰": 4975,
      "##얏": 4976,
      "##켠": 4977,
      "##굷": 4978,
      "##닏": 4979,
      "##썪": 4980,
      "##깻": 4981,
      "##」": 4982,
      "##킈": 4983,
      "##젹": 4984,
      "##놔": 4985,
      "##껃": 4986,
      "##法": 4987,
      "##末": 4988,
      "##生": 4989,
      "##錢": 4990,
      "##看": 4991,
      "##졈": 4992,
      "##멕": 4993,
      "##뀩": 4994,
      "##띄": 4995,
      "##▼": 4996,
      "##쭊": 4997,
      "##쌰": 4998,
      "##맴": 4999,
      "##꾿": 5000,
      "##횡": 5001,
      "##깈": 5002,
      "##흫": 5003,
      "##쉈": 5004,
      "##끆": 5005,
      "##됻": 5006,
      "##씁": 5007,
      "##、": 5008,
      "##쁩": 5009,
      "##껭": 5010,
      "##ⁿ": 5011,
      "##뭡": 5012,
      "##짯": 5013,
      "##멐": 5014,
      "##뼛": 5015,
      "##싀": 5016,
      "##댇": 5017,
      "##줏": 5018,
      "영화": 5019,
      "##하다": 5020,
      "보다": 5021,
      "하다": 5022,
      "없다": 5023,
      "##ㅋㅋ": 5024,
      "이다": 5025,
      "있다": 5026,
      "너무": 5027,
      "좋다": 5028,
      "재미": 5029,
      "##리다": 5030,
      "정말": 5031,
      "##지다": 5032,
      "재밌": 5033,
      "재밌다": 5034,
      "으로": 5035,
      "되다": 5036,
      "진짜": 5037,
      "같다": 5038,
      "##니다": 5039,
      "에서": 5040,
      "##렇다": 5041,
      "##들다": 5042,
      "##르다": 5043,
      "아니다": 5044,
      "연기": 5045,
      "않다": 5046,
      "##오다": 5047,
      "##나다": 5048,
      "최고": 5049,
      "만들다": 5050,
      "나오다": 5051,
      "평점": 5052,
      "생각": 5053,
      "##토리": 5054,
      "##없다": 5055,
      "스토리": 5056,
      "##라마": 5057,
      "##깝다": 5058,
      "드라마": 5059,
      "사람": 5060,
      "배우": 5061,
      "감동": 5062,
      "##있다": 5063,
      "보고": 5064,
      "ㅋㅋㅋ": 5065,
      "이렇다": 5066,
      "아깝다": 5067,
      "##영화": 5068,
      "지루": 5069,
      "ㅋㅋ": 5070,
      "##기다": 5071,
      "까지": 5072,
      "10": 5073,
      "감독": 5074,
      "재미있다": 5075,
      "그냥": 5076,
      "##이다": 5077,
      "내용": 5078,
      "하고": 5079,
      "주다": 5080,
      "##주다": 5081,
      "재미없다": 5082,
      "자다": 5083,
      "##레기": 5084,
      "##치다": 5085,
      "쓰레기": 5086,
      "지루하다": 5087,
      "##럽다": 5088,
      "시간": 5089,
      "사랑": 5090,
      "가다": 5091,
      "이라": 5092,
      "그렇다": 5093,
      "모르다": 5094,
      "들다": 5095,
      "하나": 5096,
      "다시": 5097,
      "##렇게": 5098,
      "싶다": 5099,
      "작품": 5100,
      "알다": 5101,
      "##ㅋㅋㅋㅋ": 5102,
      "ㅠㅠ": 5103,
      "이야": 5104,
      "##프다": 5105,
      "##지막": 5106,
      "마지막": 5107,
      "액션": 5108,
      "이건": 5109,
      "완전": 5110,
      "##되다": 5111,
      "오다": 5112,
      "정도": 5113,
      "##쁘다": 5114,
      "많다": 5115,
      "##가다": 5116,
      "처음": 5117,
      "장면": 5118,
      "주인": 5119,
      "주인공": 5120,
      "차다": 5121,
      "이렇게": 5122,
      "안되다": 5123,
      "나다": 5124,
      "최악": 5125,
      "한국": 5126,
      "지금": 5127,
      "기대": 5128,
      "이야기": 5129,
      "좋아": 5130,
      "별로": 5131,
      "연출": 5132,
      "##어지다": 5133,
      "느낌": 5134,
      "넘다": 5135,
      "그리": 5136,
      "이상": 5137,
      "ㅎㅎ": 5138,
      "명작": 5139,
      "인데": 5140,
      "이해": 5141,
      "좋아하다": 5142,
      "그리고": 5143,
      "역시": 5144,
      "##보다": 5145,
      "받다": 5146,
      "아이": 5147,
      "여자": 5148,
      "남다": 5149,
      "에게": 5150,
      "많이": 5151,
      "우리": 5152,
      "##찮다": 5153,
      "ㅡㅡ": 5154,
      "##지만": 5155,
      "부터": 5156,
      "##끼다": 5157,
      "기억": 5158,
      "이나": 5159,
      "라고": 5160,
      "이런": 5161,
      "괜찮다": 5162,
      "이영화": 5163,
      "느끼다": 5164,
      "그래": 5165,
      "버리다": 5166,
      "때문": 5167,
      "먹다": 5168,
      "아름": 5169,
      "##답다": 5170,
      "아름답다": 5171,
      "마음": 5172,
      "해주다": 5173,
      "공포": 5174,
      "oo": 5175,
      "이고": 5176,
      "보기": 5177,
      "무슨": 5178,
      "유치": 5179,
      "결말": 5180,
      "어떻": 5181,
      "인생": 5182,
      "아무": 5183,
      "##쉽다": 5184,
      "아쉽다": 5185,
      "소재": 5186,
      "##여주다": 5187,
      "전개": 5188,
      "짜증": 5189,
      "끄다": 5190,
      "뻔하다": 5191,
      "어떻다": 5192,
      "남자": 5193,
      "보여주다": 5194,
      "몰입": 5195,
      "없이": 5196,
      "##대로": 5197,
      "애니": 5198,
      "수준": 5199,
      "어리다": 5200,
      "스릴": 5201,
      "무섭": 5202,
      "현실": 5203,
      "무섭다": 5204,
      "##스럽다": 5205,
      "재다": 5206,
      "맞다": 5207,
      "가장": 5208,
      "한번": 5209,
      "필요": 5210,
      "반전": 5211,
      "눈물": 5212,
      "##어다": 5213,
      "라는": 5214,
      "웃기다": 5215,
      "가슴": 5216,
      "매력": 5217,
      "##라다": 5218,
      "되어다": 5219,
      "20": 5220,
      "끝나다": 5221,
      "다른": 5222,
      "##키다": 5223,
      "말다": 5224,
      "낮다": 5225,
      "늘다": 5226,
      "음악": 5227,
      "대한": 5228,
      "슬프다": 5229,
      "##직하다": 5230,
      "인간": 5231,
      "높다": 5232,
      "죽다": 5233,
      "##우다": 5234,
      "유치하다": 5235,
      "멋지다": 5236,
      "인지": 5237,
      "원작": 5238,
      "인가": 5239,
      "##미디": 5240,
      "하지만": 5241,
      "쓰다": 5242,
      "솔직하다": 5243,
      "일본": 5244,
      "크다": 5245,
      "추천": 5246,
      "##롭다": 5247,
      "##내다": 5248,
      "살다": 5249,
      "모든": 5250,
      "내다": 5251,
      "아직": 5252,
      "자체": 5253,
      "야하다": 5254,
      "실망": 5255,
      "캐릭": 5256,
      "허다": 5257,
      "지만": 5258,
      "극장": 5259,
      "대박": 5260,
      "찍다": 5261,
      "재밋": 5262,
      "##추다": 5263,
      "코미디": 5264,
      "보이다": 5265,
      "캐릭터": 5266,
      "처럼": 5267,
      "ㅋㅋㅋㅋ": 5268,
      "이제": 5269,
      "개봉": 5270,
      "억지": 5271,
      "뭔가": 5272,
      "가족": 5273,
      "건지다": 5274,
      "모두": 5275,
      "전혀": 5276,
      "돼다": 5277,
      "연기력": 5278,
      "이쁘다": 5279,
      "아주": 5280,
      "여운": 5281,
      "이네": 5282,
      "지다": 5283,
      "미치다": 5284,
      "그래도": 5285,
      "짜증나다": 5286,
      "시리": 5287,
      "근데": 5288,
      "공감": 5289,
      "긴장": 5290,
      "중간": 5291,
      "ㅜㅜ": 5292,
      "엄청": 5293,
      "기대하다": 5294,
      "영상": 5295,
      "표현": 5296,
      "##0년": 5297,
      "부분": 5298,
      "시리즈": 5299,
      "##당하다": 5300,
      "모습": 5301,
      "##스터": 5302,
      "기다": 5303,
      "이랑": 5304,
      "계속": 5305,
      "에는": 5306,
      "##단하다": 5307,
      "귀엽": 5308,
      "제목": 5309,
      "귀엽다": 5310,
      "밖에": 5311,
      "시키다": 5312,
      "내내": 5313,
      "##ㅠㅠ": 5314,
      "치다": 5315,
      "##잔하다": 5316,
      "##ㅋㅋㅋㅋㅋㅋㅋㅋ": 5317,
      "어이": 5318,
      "보지": 5319,
      "믿다": 5320,
      "진심": 5321,
      "스릴러": 5322,
      "어디": 5323,
      "기분": 5324,
      "흥미": 5325,
      "작가": 5326,
      "대단하다": 5327,
      "대사": 5328,
      "##쾌하다": 5329,
      "막장": 5330,
      "떨어지다": 5331,
      "잔잔하다": 5332,
      "알바": 5333,
      "정신": 5334,
      "##히다": 5335,
      "이지": 5336,
      "웃다": 5337,
      "##겁다": 5338,
      "요즘": 5339,
      "부족": 5340,
      "조금": 5341,
      "빠지다": 5342,
      "이라는": 5343,
      "개인": 5344,
      "##메이": 5345,
      "점도": 5346,
      "##스트": 5347,
      "긴장감": 5348,
      "이유": 5349,
      "노래": 5350,
      "##어나다": 5351,
      "짜다": 5352,
      "오랜": 5353,
      "제대로": 5354,
      "특히": 5355,
      "울다": 5356,
      "##나라": 5357,
      "한테": 5358,
      "노잼": 5359,
      "점수": 5360,
      "시작": 5361,
      "미국": 5362,
      "잇다": 5363,
      "이상하다": 5364,
      "나름": 5365,
      "이란": 5366,
      "##라리": 5367,
      "깊다": 5368,
      "예쁘다": 5369,
      "제일": 5370,
      "차라리": 5371,
      "친구": 5372,
      "느껴": 5373,
      "만화": 5374,
      "에도": 5375,
      "느껴지다": 5376,
      "같이": 5377,
      "출연": 5378,
      "당시": 5379,
      "해보다": 5380,
      "영화로": 5381,
      "어설": 5382,
      "절대": 5383,
      "##뜻하다": 5384,
      "이라고": 5385,
      "어설프다": 5386,
      "의미": 5387,
      "로맨": 5388,
      "훌륭": 5389,
      "빼다": 5390,
      "스타": 5391,
      "##리오": 5392,
      "따뜻하다": 5393,
      "세상": 5394,
      "너무나": 5395,
      "위해": 5396,
      "cg": 5397,
      "답답": 5398,
      "찾다": 5399,
      "아직도": 5400,
      "대다": 5401,
      "감정": 5402,
      "마다": 5403,
      "훌륭하다": 5404,
      "웃음": 5405,
      "도대": 5406,
      "##만하다": 5407,
      "도대체": 5408,
      "ooo": 5409,
      "장난": 5410,
      "공포영화": 5411,
      "시청": 5412,
      "설정": 5413,
      "생각나다": 5414,
      "무엇": 5415,
      "##분하다": 5416,
      "##st": 5417,
      "그리다": 5418,
      "얼마": 5419,
      "그런": 5420,
      "죽이다": 5421,
      "##선하다": 5422,
      "행복": 5423,
      "수작": 5424,
      "써다": 5425,
      "만큼": 5426,
      "##리스": 5427,
      "다르다": 5428,
      "엔딩": 5429,
      "배경": 5430,
      "제작": 5431,
      "관객": 5432,
      "우리나라": 5433,
      "초반": 5434,
      "다큐": 5435,
      "들어": 5436,
      "따다": 5437,
      "시나": 5438,
      "##스팅": 5439,
      "##으로": 5440,
      "추억": 5441,
      "힘들다": 5442,
      "사실": 5443,
      "싫다": 5444,
      "가지": 5445,
      "필요없다": 5446,
      "답답하다": 5447,
      "tv": 5448,
      "전쟁": 5449,
      "오늘": 5450,
      "##oo": 5451,
      "시대": 5452,
      "시나리오": 5453,
      "자신": 5454,
      "지루함": 5455,
      "어색": 5456,
      "한국영": 5457,
      "소리": 5458,
      "소름": 5459,
      "##거리": 5460,
      "멋있다": 5461,
      "놓다": 5462,
      "분위": 5463,
      "언제": 5464,
      "신선하다": 5465,
      "분위기": 5466,
      "아프다": 5467,
      "##겹다": 5468,
      "킬링": 5469,
      "##타임": 5470,
      "어이없다": 5471,
      "졸작": 5472,
      "안타": 5473,
      "이딴": 5474,
      "잊다": 5475,
      "나쁘다": 5476,
      "문제": 5477,
      "프로": 5478,
      "최고다": 5479,
      "##아가다": 5480,
      "완벽": 5481,
      "더럽다": 5482,
      "이지만": 5483,
      "영화관": 5484,
      "안타깝다": 5485,
      "엄마": 5486,
      "멀다": 5487,
      "평가": 5488,
      "결국": 5489,
      "역사": 5490,
      "부족하다": 5491,
      "제발": 5492,
      "스럽다": 5493,
      "##00": 5494,
      "라면": 5495,
      "인상": 5496,
      "배우다": 5497,
      "더빙": 5498,
      "후회": 5499,
      "캐스팅": 5500,
      "코믹": 5501,
      "포스터": 5502,
      "##배우": 5503,
      "니까": 5504,
      "아무리": 5505,
      "구성": 5506,
      "애니메이": 5507,
      "얼마나": 5508,
      "예술": 5509,
      "진정": 5510,
      "애니메이션": 5511,
      "##부하다": 5512,
      "그저": 5513,
      "함께": 5514,
      "##서다": 5515,
      "##같다": 5516,
      "서다": 5517,
      "어색하다": 5518,
      "강추": 5519,
      "몰입도": 5520,
      "티비": 5521,
      "머리": 5522,
      "##디오": 5523,
      "낫다": 5524,
      "비다": 5525,
      "킬링타임": 5526,
      "##실하다": 5527,
      "##연기": 5528,
      "망하다": 5529,
      "적다": 5530,
      "유쾌하다": 5531,
      "대해": 5532,
      "쓸다": 5533,
      "오래": 5534,
      "갈수": 5535,
      "두다": 5536,
      "살리다": 5537,
      "어울": 5538,
      "##장하다": 5539,
      "충격": 5540,
      "잔인": 5541,
      "개연": 5542,
      "나가다": 5543,
      "진부하다": 5544,
      "##심하다": 5545,
      "건가": 5546,
      "완벽하다": 5547,
      "그렇게": 5548,
      "얘기": 5549,
      "여러": 5550,
      "매우": 5551,
      "얼굴": 5552,
      "##아보다": 5553,
      "갈수록": 5554,
      "##소리": 5555,
      "궁금": 5556,
      "즐겁다": 5557,
      "놀라다": 5558,
      "보단": 5559,
      "이름": 5560,
      "ㅉㅉ": 5561,
      "다운": 5562,
      "웃기": 5563,
      "불쌍": 5564,
      "영화인": 5565,
      "그만": 5566,
      "기도": 5567,
      "낭비": 5568,
      "읽다": 5569,
      "어느": 5570,
      "옛날": 5571,
      "어울리다": 5572,
      "들이다": 5573,
      "행복하다": 5574,
      "집중": 5575,
      "주제": 5576,
      "여기": 5577,
      "이후": 5578,
      "장르": 5579,
      "이리": 5580,
      "##시간": 5581,
      "그나": 5582,
      "주연": 5583,
      "ost": 5584,
      "순수": 5585,
      "새롭다": 5586,
      "중국": 5587,
      "그래서": 5588,
      "존나": 5589,
      "##렵다": 5590,
      "감사": 5591,
      "누구": 5592,
      "상황": 5593,
      "그러": 5594,
      "ㅎㅎㅎ": 5595,
      "밉다": 5596,
      "방송": 5597,
      "말고": 5598,
      "비슷": 5599,
      "시즌": 5600,
      "자기": 5601,
      "나이": 5602,
      "후반": 5603,
      "생기다": 5604,
      "##이버": 5605,
      "다음": 5606,
      "예전": 5607,
      "충분하다": 5608,
      "로맨스": 5609,
      "비디오": 5610,
      "19": 5611,
      "걸작": 5612,
      "누가": 5613,
      "궁금하다": 5614,
      "불쌍하다": 5615,
      "만들": 5616,
      "만으로": 5617,
      "##버지": 5618,
      "##거리다": 5619,
      "상상": 5620,
      "약간": 5621,
      "동안": 5622,
      "실화": 5623,
      "##루다": 5624,
      "그것": 5625,
      "인물": 5626,
      "분들": 5627,
      "사회": 5628,
      "그나마": 5629,
      "대체": 5630,
      "발연기": 5631,
      "심하다": 5632,
      "해도": 5633,
      "그대로": 5634,
      "훨씬": 5635,
      "ㅋㅋㅋㅋㅋ": 5636,
      "드리다": 5637,
      "시절": 5638,
      "잔인하다": 5639,
      "소설": 5640,
      "전체": 5641,
      "한마": 5642,
      "아들": 5643,
      "만점": 5644,
      "순수하다": 5645,
      "##타지": 5646,
      "비슷하다": 5647,
      "한마디": 5648,
      "간만": 5649,
      "초딩": 5650,
      "비교": 5651,
      "##자기": 5652,
      "어렵다": 5653,
      "필요하다": 5654,
      "감성": 5655,
      "쉬다": 5656,
      "네이버": 5657,
      "##꾸다": 5658,
      "남기다": 5659,
      "따르다": 5660,
      "마이": 5661,
      "타다": 5662,
      "여배우": 5663,
      "만나다": 5664,
      "여주": 5665,
      "떠나다": 5666,
      "##레이": 5667,
      "200": 5668,
      "이미": 5669,
      "상당하다": 5670,
      "라도": 5671,
      "사랑스럽다": 5672,
      "세계": 5673,
      "이르다": 5674,
      "##ood": 5675,
      "다가": 5676,
      "성룡": 5677,
      "##절하다": 5678,
      "나라": 5679,
      "당하다": 5680,
      "등장": 5681,
      "거지": 5682,
      "편이": 5683,
      "이라도": 5684,
      "굉장하다": 5685,
      "순간": 5686,
      "굳다": 5687,
      "##0분": 5688,
      "단순": 5689,
      "삼류": 5690,
      "혼자": 5691,
      "존재": 5692,
      "치고": 5693,
      "터지다": 5694,
      "바로": 5695,
      "교훈": 5696,
      "허무": 5697,
      "보다는": 5698,
      "감사하다": 5699,
      "돌리다": 5700,
      "라이": 5701,
      "오글": 5702,
      "ㄷㄷ": 5703,
      "빨리": 5704,
      "잡다": 5705,
      "##안하다": 5706,
      "사이": 5707,
      "판타지": 5708,
      "##등학": 5709,
      "진정하다": 5710,
      "케이": 5711,
      "화려": 5712,
      "멜로": 5713,
      "바라다": 5714,
      "지나": 5715,
      "풀다": 5716,
      "good": 5717,
      "이하": 5718,
      "평론": 5719,
      "##er": 5720,
      "##명하다": 5721,
      "목소리": 5722,
      "에요": 5723,
      "##원하다": 5724,
      "개그": 5725,
      "독특": 5726,
      "망치다": 5727,
      "돋다": 5728,
      "관람": 5729,
      "라니": 5730,
      "화려하다": 5731,
      "거의": 5732,
      "당신": 5733,
      "안보": 5734,
      "몇번": 5735,
      "살인": 5736,
      "질질": 5737,
      "가볍": 5738,
      "더욱": 5739,
      "가볍다": 5740,
      "##는데": 5741,
      "가치": 5742,
      "맞추다": 5743,
      "전부": 5744,
      "##상하다": 5745,
      "엄청나다": 5746,
      "보이": 5747,
      "줄거리": 5748,
      "독특하다": 5749,
      "각본": 5750,
      "100": 5751,
      "sf": 5752,
      "지나다": 5753,
      "성하다": 5754,
      "갑자기": 5755,
      "어른": 5756,
      "좀비": 5757,
      "담다": 5758,
      "아버지": 5759,
      "에선": 5760,
      "이번": 5761,
      "점주": 5762,
      "화이": 5763,
      "ㅋㅋㅋㅋㅋㅋㅋㅋㅋㅋㅋ": 5764,
      "그러나": 5765,
      "넣다": 5766,
      "의도": 5767,
      "뜨다": 5768,
      "상영": 5769,
      "##드다": 5770,
      "##머니": 5771,
      "##잡하다": 5772,
      "실제": 5773,
      "흥미롭다": 5774,
      "ㅋㅋㅋㅋㅋㅋㅋ": 5775,
      "시청률": 5776,
      "넘치다": 5777,
      "대로": 5778,
      "자연": 5779,
      "201": 5780,
      "만하": 5781,
      "복수": 5782,
      "으로도": 5783,
      "힘드다": 5784,
      "평론가": 5785,
      "화면": 5786,
      "##없이": 5787,
      "어쩌": 5788,
      "한편": 5789,
      "##요하다": 5790,
      "기다리다": 5791,
      "그녀": 5792,
      "극장판": 5793,
      "간다": 5794,
      "10년": 5795,
      "평범": 5796,
      "우연": 5797,
      "만들어지다": 5798,
      "볼때": 5799,
      "성우": 5800,
      "가능": 5801,
      "스타일": 5802,
      "이기다": 5803,
      "##중하다": 5804,
      "에서도": 5805,
      "억지스럽다": 5806,
      "주기": 5807,
      "달다": 5808,
      "만족": 5809,
      "에로": 5810,
      "일단": 5811,
      "진행": 5812,
      "댓글": 5813,
      "바꾸다": 5814,
      "저런": 5815,
      "오글거리다": 5816,
      "선택": 5817,
      "크리스": 5818,
      "##대하다": 5819,
      "요소": 5820,
      "##끄럽다": 5821,
      "예고": 5822,
      "프랑": 5823,
      "항상": 5824,
      "불편": 5825,
      "아빠": 5826,
      "이기": 5827,
      "참고": 5828,
      "흥행": 5829,
      "에서는": 5830,
      "어디서": 5831,
      "보내다": 5832,
      "어린": 5833,
      "##♥♥": 5834,
      "그때": 5835,
      "꿀잼": 5836,
      "부르다": 5837,
      "올리다": 5838,
      "이래": 5839,
      "갖다": 5840,
      "거기": 5841,
      "탄탄": 5842,
      "##울하다": 5843,
      "너무하다": 5844,
      "예상": 5845,
      "##전하다": 5846,
      "확실하다": 5847,
      "##라지다": 5848,
      "편집": 5849,
      "##먹다": 5850,
      "라서": 5851,
      "가보다": 5852,
      "스럽": 5853,
      "점점": 5854,
      "##ㅠㅠㅠㅠ": 5855,
      "걸리다": 5856,
      "물론": 5857,
      "완성": 5858,
      "관계": 5859,
      "또한": 5860,
      "프랑스": 5861,
      "수가": 5862,
      "역대": 5863,
      "##보이다": 5864,
      "들어가다": 5865,
      "불편하다": 5866,
      "잃다": 5867,
      "평범하다": 5868,
      "전형": 5869,
      "ㅠㅠㅠ": 5870,
      "이냐": 5871,
      "단순하다": 5872,
      "끼다": 5873,
      "듣다": 5874,
      "범죄": 5875,
      "흐르다": 5876,
      "화이팅": 5877,
      "상미": 5878,
      "인거": 5879,
      "허무하다": 5880,
      "이에": 5881,
      "짧다": 5882,
      "이에요": 5883,
      "때리다": 5884,
      "##혀지다": 5885,
      "불륜": 5886,
      "에겐": 5887,
      "카메": 5888,
      "훈훈": 5889,
      "탄탄하다": 5890,
      "가지다": 5891,
      "리얼": 5892,
      "만에": 5893,
      "걸다": 5894,
      "돋보이다": 5895,
      "무조": 5896,
      "엉망": 5897,
      "홍콩": 5898,
      "결혼": 5899,
      "미화": 5900,
      "빠져": 5901,
      "사건": 5902,
      "조차": 5903,
      "중반": 5904,
      "즐기다": 5905,
      "헐리": 5906,
      "##라이": 5907,
      "12": 5908,
      "병맛": 5909,
      "자극": 5910,
      "지겹다": 5911,
      "그게": 5912,
      "설명": 5913,
      "소중하다": 5914,
      "어쩔": 5915,
      "##가지": 5916,
      "과거": 5917,
      "똑같다": 5918,
      "일이": 5919,
      "자꾸": 5920,
      "학교": 5921,
      "찾아보다": 5922,
      "타임": 5923,
      "감상": 5924,
      "메다": 5925,
      "비추다": 5926,
      "적당하다": 5927,
      "심리": 5928,
      "중요하다": 5929,
      "참신": 5930,
      "도저": 5931,
      "##진진": 5932,
      "흥미진진": 5933,
      "훈훈하다": 5934,
      "도저히": 5935,
      "노력": 5936,
      "원래": 5937,
      "마르다": 5938,
      "죽음": 5939,
      "##지하다": 5940,
      "그래픽": 5941,
      "무조건": 5942,
      "갈다": 5943,
      "거리": 5944,
      "닿다": 5945,
      "만이": 5946,
      "바람": 5947,
      "취향": 5948,
      "##라가다": 5949,
      "그림": 5950,
      "불가": 5951,
      "식상하다": 5952,
      "싸우다": 5953,
      "여서": 5954,
      "뛰어나다": 5955,
      "화가": 5956,
      "##리티": 5957,
      "새끼": 5958,
      "화보": 5959,
      "##시하다": 5960,
      "만으로도": 5961,
      "역겹다": 5962,
      "괜히": 5963,
      "짱짱": 5964,
      "한심하다": 5965,
      "전설": 5966,
      "멍청": 5967,
      "영웅": 5968,
      "헐다": 5969,
      "길다": 5970,
      "독립": 5971,
      "뭐라다": 5972,
      "바보": 5973,
      "th": 5974,
      "아저": 5975,
      "오히": 5976,
      "희망": 5977,
      "예고편": 5978,
      "오히려": 5979,
      "게임": 5980,
      "동화": 5981,
      "액션영화": 5982,
      "속편": 5983,
      "주의": 5984,
      "한다": 5985,
      "##무리": 5986,
      "15": 5987,
      "잘만": 5988,
      "아저씨": 5989,
      "천재": 5990,
      "촬영": 5991,
      "다루다": 5992,
      "90년": 5993,
      "하하": 5994,
      "연기자": 5995,
      "마무리": 5996,
      "##다가": 5997,
      "강하다": 5998,
      "귀신": 5999,
      "소녀": 6000,
      "이라니": 6001,
      "미안하다": 6002,
      "왠만하다": 6003,
      "유머": 6004,
      "최근": 6005,
      "로맨틱": 6006,
      "경찰": 6007,
      "나르다": 6008,
      "표정": 6009,
      "억지로": 6010,
      "불다": 6011,
      "참신하다": 6012,
      "한다는": 6013,
      "나서다": 6014,
      "아쉬": 6015,
      "영환": 6016,
      "현재": 6017,
      "그닥": 6018,
      "##민국": 6019,
      "대작": 6020,
      "전편": 6021,
      "철학": 6022,
      "##우드": 6023,
      "기억나다": 6024,
      "부모": 6025,
      "대한민국": 6026,
      "신기": 6027,
      "##파이": 6028,
      "아쉬움": 6029,
      "노출": 6030,
      "드럽다": 6031,
      "레이": 6032,
      "오빠": 6033,
      "##세지": 6034,
      "##bs": 6035,
      "인정": 6036,
      "개다": 6037,
      "초등학": 6038,
      "흘리다": 6039,
      "다행": 6040,
      "잊혀지다": 6041,
      "청춘": 6042,
      "우연히": 6043,
      "빠져들다": 6044,
      "만의": 6045,
      "##in": 6046,
      "다니다": 6047,
      "메세지": 6048,
      "묘사": 6049,
      "진지하다": 6050,
      "##그램": 6051,
      "프로그램": 6052,
      "겁나다": 6053,
      "이정": 6054,
      "조연": 6055,
      "2시간": 6056,
      "돌아가다": 6057,
      "##아오다": 6058,
      "스케": 6059,
      "여전하다": 6060,
      "ㅇㅇ": 6061,
      "사라지다": 6062,
      "아오": 6063,
      "역할": 6064,
      "예요": 6065,
      "전작": 6066,
      "전달": 6067,
      "무비": 6068,
      "서로": 6069,
      "이따": 6070,
      "잘생": 6071,
      "졸라": 6072,
      "지난": 6073,
      "실망하다": 6074,
      "끌다": 6075,
      "설레": 6076,
      "관심": 6077,
      "나중": 6078,
      "그런데": 6079,
      "넘어": 6080,
      "먼저": 6081,
      "망작": 6082,
      "게이": 6083,
      "마치": 6084,
      "특유": 6085,
      "멍청하다": 6086,
      "다만": 6087,
      "뜬금": 6088,
      "여성": 6089,
      "영원하다": 6090,
      "이니": 6091,
      "이연": 6092,
      "작다": 6093,
      "해피": 6094,
      "가득": 6095,
      "미래": 6096,
      "사다": 6097,
      "아마": 6098,
      "행동": 6099,
      "환상": 6100,
      "효과": 6101,
      "흔하다": 6102,
      "##오르다": 6103,
      "80년": 6104,
      "런가": 6105,
      "이며": 6106,
      "진실": 6107,
      "살아가다": 6108,
      "약하다": 6109,
      "잘생기다": 6110,
      "리메이": 6111,
      "실패": 6112,
      "통해": 6113,
      "리메이크": 6114,
      "덥다": 6115,
      "##터리": 6116,
      "바뀌": 6117,
      "이면": 6118,
      "쩔다": 6119,
      "##연하다": 6120,
      "가능하다": 6121,
      "바뀌다": 6122,
      "ㅅㅂ": 6123,
      "겠다": 6124,
      "자유": 6125,
      "정치": 6126,
      "틀다": 6127,
      "호러": 6128,
      "예산": 6129,
      "군대": 6130,
      "누군": 6131,
      "안나": 6132,
      "전문": 6133,
      "카메라": 6134,
      "묻다": 6135,
      "어찌": 6136,
      "착하다": 6137,
      "황당하다": 6138,
      "깊이": 6139,
      "나머": 6140,
      "능력": 6141,
      "빌리다": 6142,
      "스러": 6143,
      "러브": 6144,
      "쏘다": 6145,
      "스러운": 6146,
      "반개": 6147,
      "왠지": 6148,
      "하루": 6149,
      "##세하다": 6150,
      "미소": 6151,
      "제작비": 6152,
      "깔다": 6153,
      "메이": 6154,
      "생애": 6155,
      "위대하다": 6156,
      "선생": 6157,
      "성공": 6158,
      "졸리다": 6159,
      "굿굿": 6160,
      "미스": 6161,
      "손발": 6162,
      "용도": 6163,
      "##쓸하다": 6164,
      "##놓다": 6165,
      "과정": 6166,
      "연애": 6167,
      "평생": 6168,
      "##ㄷㄷ": 6169,
      "독립영화": 6170,
      "대의": 6171,
      "마저": 6172,
      "스트": 6173,
      "시도": 6174,
      "유명하다": 6175,
      "##시절": 6176,
      "너무나도": 6177,
      "케이블": 6178,
      "데이": 6179,
      "메시": 6180,
      "범인": 6181,
      "채널": 6182,
      "##다르다": 6183,
      "지나치다": 6184,
      "얻다": 6185,
      "##시다": 6186,
      "대충": 6187,
      "인하다": 6188,
      "젊다": 6189,
      "피해": 6190,
      "형님": 6191,
      "광고": 6192,
      "성인": 6193,
      "외국": 6194,
      "태어나다": 6195,
      "##4년": 6196,
      "가끔": 6197,
      "잘못": 6198,
      "##일하다": 6199,
      "상상력": 6200,
      "스케일": 6201,
      "결론": 6202,
      "기세": 6203,
      "다소": 6204,
      "신기하다": 6205,
      "괴물": 6206,
      "늙다": 6207,
      "싸이": 6208,
      "의리": 6209,
      "저렇게": 6210,
      "##동안": 6211,
      "##디어": 6212,
      "설레다": 6213,
      "대안": 6214,
      "던지다": 6215,
      "##vd": 6216,
      "##소하다": 6217,
      "dvd": 6218,
      "문화": 6219,
      "언니": 6220,
      "자막": 6221,
      "메시지": 6222,
      "한계": 6223,
      "어린이": 6224,
      "고민": 6225,
      "고생": 6226,
      "고맙": 6227,
      "빠르다": 6228,
      "고맙다": 6229,
      "슬픔": 6230,
      "안다": 6231,
      "참다": 6232,
      "11": 6233,
      "대가": 6234,
      "뮤지": 6235,
      "일상": 6236,
      "##좋다": 6237,
      "으로는": 6238,
      "감탄": 6239,
      "글쎄": 6240,
      "박수": 6241,
      "변하다": 6242,
      "슈퍼": 6243,
      "원하다": 6244,
      "졸다": 6245,
      "지도": 6246,
      "찌다": 6247,
      "##레스": 6248,
      "다시다": 6249,
      "수도": 6250,
      "울리다": 6251,
      "의외": 6252,
      "커플": 6253,
      "##or": 6254,
      "##리아": 6255,
      "국민": 6256,
      "대부": 6257,
      "동생": 6258,
      "되게": 6259,
      "리뷰": 6260,
      "산만하다": 6261,
      "아침": 6262,
      "특별": 6263,
      "나타": 6264,
      "인기": 6265,
      "조폭": 6266,
      "보시": 6267,
      "시사": 6268,
      "오락": 6269,
      "용이": 6270,
      "차이": 6271,
      "포장": 6272,
      "폭력": 6273,
      "##아지다": 6274,
      "별루": 6275,
      "살짝": 6276,
      "열심": 6277,
      "지키다": 6278,
      "시청자": 6279,
      "동물": 6280,
      "표절": 6281,
      "굳이": 6282,
      "로는": 6283,
      "흐름": 6284,
      "희다": 6285,
      "ㅠㅠㅠㅠ": 6286,
      "개도": 6287,
      "개판": 6288,
      "끝내": 6289,
      "블랙": 6290,
      "지르다": 6291,
      "##나오다": 6292,
      "결과": 6293,
      "낚였": 6294,
      "쓰래": 6295,
      "챙기다": 6296,
      "##갑다": 6297,
      "뮤지컬": 6298,
      "난해": 6299,
      "발견": 6300,
      "사극": 6301,
      "심심하다": 6302,
      "연예": 6303,
      "이자": 6304,
      "종교": 6305,
      "흘러": 6306,
      "##련하다": 6307,
      "정말로": 6308,
      "열심히": 6309,
      "남아": 6310,
      "몸매": 6311,
      "악역": 6312,
      "우정": 6313,
      "퀄리티": 6314,
      "포기": 6315,
      "끼리": 6316,
      "덕분": 6317,
      "시선": 6318,
      "오그": 6319,
      "정서": 6320,
      "##끼치다": 6321,
      "소름끼치다": 6322,
      "떠오르다": 6323,
      "모자": 6324,
      "보라": 6325,
      "분노": 6326,
      "쩐다": 6327,
      "추다": 6328,
      "혹시": 6329,
      "##렬하다": 6330,
      "과연": 6331,
      "로서": 6332,
      "무시": 6333,
      "사기": 6334,
      "어떤": 6335,
      "에이": 6336,
      "10분": 6337,
      "는걸": 6338,
      "홍보": 6339,
      "더하다": 6340,
      "우울하다": 6341,
      "희생": 6342,
      "##끔하다": 6343,
      "눈물나다": 6344,
      "그다": 6345,
      "깔끔하다": 6346,
      "끝내다": 6347,
      "남녀": 6348,
      "무협": 6349,
      "벗다": 6350,
      "상처": 6351,
      "성도": 6352,
      "유일하다": 6353,
      "코드": 6354,
      "##엔딩": 6355,
      "##소년": 6356,
      "30분": 6357,
      "용서": 6358,
      "이구": 6359,
      "일어나다": 6360,
      "접다": 6361,
      "##이하다": 6362,
      "##와르": 6363,
      "20년": 6364,
      "스럽게": 6365,
      "이연걸": 6366,
      "그럭": 6367,
      "막판": 6368,
      "반성": 6369,
      "섹스": 6370,
      "와는": 6371,
      "##ou": 6372,
      "특별하다": 6373,
      "30": 6374,
      "뛰다": 6375,
      "의심": 6376,
      "##닫다": 6377,
      "기대다": 6378,
      "난해하다": 6379,
      "말로": 6380,
      "볼거리": 6381,
      "크게": 6382,
      "##물다": 6383,
      "##저럭": 6384,
      "그럭저럭": 6385,
      "싸다": 6386,
      "어제": 6387,
      "감다": 6388,
      "노답": 6389,
      "느와르": 6390,
      "북한": 6391,
      "싫어": 6392,
      "쓸데": 6393,
      "자식": 6394,
      "짓다": 6395,
      "힐링": 6396,
      "##인물": 6397,
      "싸이코": 6398,
      "싫어하다": 6399,
      "기술": 6400,
      "싸움": 6401,
      "등장인물": 6402,
      "해피엔딩": 6403,
      "감명": 6404,
      "보아": 6405,
      "으론": 6406,
      "재난": 6407,
      "펑펑": 6408,
      "##같이": 6409,
      "the": 6410,
      "내리다": 6411,
      "담기다": 6412,
      "일부": 6413,
      "하이": 6414,
      "##드라마": 6415,
      "##멘터리": 6416,
      "에서의": 6417,
      "나머지": 6418,
      "눈빛": 6419,
      "당연하다": 6420,
      "본방": 6421,
      "여행": 6422,
      "이어지다": 6423,
      "제로": 6424,
      "지구": 6425,
      "테러": 6426,
      "형편": 6427,
      "들어오다": 6428,
      "거짓": 6429,
      "드림": 6430,
      "무겁다": 6431,
      "비주": 6432,
      "##이스": 6433,
      "##즈니": 6434,
      "##구려": 6435,
      "##ㅎㅎ": 6436,
      "다큐멘터리": 6437,
      "공부": 6438,
      "남편": 6439,
      "딱하다": 6440,
      "스포": 6441,
      "올해": 6442,
      "##시아": 6443,
      "##니아": 6444,
      "대화": 6445,
      "소장": 6446,
      "실감": 6447,
      "안좋다": 6448,
      "암튼": 6449,
      "에만": 6450,
      "오버": 6451,
      "보다도": 6452,
      "리즈": 6453,
      "불쾌하다": 6454,
      "##an": 6455,
      "그다지": 6456,
      "가면": 6457,
      "스크": 6458,
      "열정": 6459,
      "입장": 6460,
      "고전": 6461,
      "기본": 6462,
      "몰다": 6463,
      "기적": 6464,
      "놓치다": 6465,
      "누나": 6466,
      "라지": 6467,
      "바라": 6468,
      "비극": 6469,
      "세다": 6470,
      "의문": 6471,
      "인터": 6472,
      "투자": 6473,
      "그걸": 6474,
      "그린": 6475,
      "늦다": 6476,
      "불구": 6477,
      "스티": 6478,
      "심각": 6479,
      "싸구려": 6480,
      "연속": 6481,
      "까지는": 6482,
      "까진": 6483,
      "느리다": 6484,
      "디즈니": 6485,
      "신경": 6486,
      "우주": 6487,
      "으리": 6488,
      "전투": 6489,
      "청소년": 6490,
      "##려지다": 6491,
      "이라서": 6492,
      "게다가": 6493,
      "김기": 6494,
      "따위": 6495,
      "무언": 6496,
      "발전": 6497,
      "색다르다": 6498,
      "아련하다": 6499,
      "악당": 6500,
      "연결": 6501,
      "찡하다": 6502,
      "##마스": 6503,
      "##라들다": 6504,
      "##5년": 6505,
      "으로서": 6506,
      "아이돌": 6507,
      "에게는": 6508,
      "시사회": 6509,
      "18": 6510,
      "♥♥♥": 6511,
      "부끄럽다": 6512,
      "실력": 6513,
      "아픔": 6514,
      "오랫": 6515,
      "좀더": 6516,
      "##어로": 6517,
      "##러지다": 6518,
      "까지도": 6519,
      "언제나": 6520,
      "날다": 6521,
      "달라": 6522,
      "닮다": 6523,
      "러닝": 6524,
      "로그": 6525,
      "아줌": 6526,
      "적절하다": 6527,
      "존경": 6528,
      "촌스럽다": 6529,
      "##인트": 6530,
      "아줌마": 6531,
      "과는": 6532,
      "떼다": 6533,
      "라인": 6534,
      "반복": 6535,
      "베스트": 6536,
      "해내다": 6537,
      "##성애": 6538,
      "이제야": 6539,
      "헐리우드": 6540,
      "오그라들다": 6541,
      "강렬하다": 6542,
      "꾸다": 6543,
      "니콜": 6544,
      "단지": 6545,
      "방금": 6546,
      "본인": 6547,
      "세기": 6548,
      "채우다": 6549,
      "##라스": 6550,
      "##묘하다": 6551,
      "##약하다": 6552,
      "완전하다": 6553,
      "13": 6554,
      "깨닫다": 6555,
      "심장": 6556,
      "중학": 6557,
      "##쓰다": 6558,
      "흘러가다": 6559,
      "깨다": 6560,
      "뛰어": 6561,
      "빡치다": 6562,
      "화나다": 6563,
      "전문가": 6564,
      "00": 6565,
      "그거": 6566,
      "로봇": 6567,
      "맨날": 6568,
      "성장": 6569,
      "숨다": 6570,
      "아기": 6571,
      "이어": 6572,
      "이루다": 6573,
      "주변": 6574,
      "풋풋": 6575,
      "해석": 6576,
      "##끌다": 6577,
      "연예인": 6578,
      "견자": 6579,
      "과의": 6580,
      "따라가다": 6581,
      "미드": 6582,
      "빛나다": 6583,
      "시각": 6584,
      "에피": 6585,
      "진리": 6586,
      "최소": 6587,
      "평이": 6588,
      "##너스": 6589,
      "##확하다": 6590,
      "선생님": 6591,
      "봣는데": 6592,
      "소소하다": 6593,
      "시트": 6594,
      "씁쓸하다": 6595,
      "어머니": 6596,
      "와우": 6597,
      "이든": 6598,
      "쵝오": 6599,
      "해리": 6600,
      "##이터": 6601,
      "##독교": 6602,
      "방법": 6603,
      "벌써": 6604,
      "새벽": 6605,
      "섬세하다": 6606,
      "왜케": 6607,
      "외계": 6608,
      "편의": 6609,
      "##주의": 6610,
      "한국인": 6611,
      "누군가": 6612,
      "무언가": 6613,
      "풋풋하다": 6614,
      "대표": 6615,
      "맡다": 6616,
      "밋밋": 6617,
      "스스": 6618,
      "외모": 6619,
      "인도": 6620,
      "질리": 6621,
      "짠하다": 6622,
      "##on": 6623,
      "##아먹다": 6624,
      "##ad": 6625,
      "##망하다": 6626,
      "그렇다고": 6627,
      "견자단": 6628,
      "검색": 6629,
      "고등학": 6630,
      "낳다": 6631,
      "돌다": 6632,
      "드러": 6633,
      "아역": 6634,
      "이끌다": 6635,
      "제이": 6636,
      "필름": 6637,
      "형사": 6638,
      "##란하다": 6639,
      "ㅋㅋㅋㅋㅋㅋ": 6640,
      "주기도": 6641,
      "기르다": 6642,
      "방식": 6643,
      "상업": 6644,
      "짝퉁": 6645,
      "심각하다": 6646,
      "시트콤": 6647,
      "be": 6648,
      "겨울": 6649,
      "고통": 6650,
      "과장": 6651,
      "기독교": 6652,
      "애기": 6653,
      "이여": 6654,
      "히어로": 6655,
      "##ㅜㅜ": 6656,
      "##at": 6657,
      "1시간": 6658,
      "갈등": 6659,
      "로만": 6660,
      "로버": 6661,
      "뭉클": 6662,
      "비판": 6663,
      "생생": 6664,
      "자리": 6665,
      "죄다": 6666,
      "줍다": 6667,
      "최강": 6668,
      "캐리": 6669,
      "통쾌하다": 6670,
      "##ㅋㅋㅋ": 6671,
      "전개도": 6672,
      "이미지": 6673,
      "김기덕": 6674,
      "스스로": 6675,
      "분명": 6676,
      "설마": 6677,
      "은근": 6678,
      "자살": 6679,
      "지는": 6680,
      "국내": 6681,
      "뽑다": 6682,
      "조잡하다": 6683,
      "특수": 6684,
      "##코미디": 6685,
      "헐리웃": 6686,
      "막히다": 6687,
      "명품": 6688,
      "무지": 6689,
      "세월": 6690,
      "없어지다": 6691,
      "입다": 6692,
      "조절": 6693,
      "패러": 6694,
      "학생": 6695,
      "##잡다": 6696,
      "좋아지다": 6697,
      "인가요": 6698,
      "재밋다": 6699,
      "정신병": 6700,
      "오래되다": 6701,
      "국가": 6702,
      "대중": 6703,
      "돌아오다": 6704,
      "움직": 6705,
      "찝찝": 6706,
      "##ie": 6707,
      "##사랑": 6708,
      "##사람": 6709,
      "##구니": 6710,
      "##가락": 6711,
      "찝찝하다": 6712,
      "대학": 6713,
      "도전": 6714,
      "미모": 6715,
      "영어": 6716,
      "점준": 6717,
      "주말": 6718,
      "##래다": 6719,
      "##라도": 6720,
      "##소드": 6721,
      "##숙하다": 6722,
      "##말로": 6723,
      "재밋어": 6724,
      "마이클": 6725,
      "고양": 6726,
      "극치": 6727,
      "레전": 6728,
      "신고": 6729,
      "어휴": 6730,
      "전반": 6731,
      "편하다": 6732,
      "##ㅋㅋㅋㅋㅋㅋㅋㅋㅋㅋㅋㅋㅋㅋㅋㅋ": 6733,
      "레전드": 6734,
      "다이": 6735,
      "단연": 6736,
      "도안": 6737,
      "생활": 6738,
      "신분": 6739,
      "양심": 6740,
      "이보": 6741,
      "조선": 6742,
      "조합": 6743,
      "편견": 6744,
      "##려오다": 6745,
      "##자다": 6746,
      "199": 6747,
      "스럽지": 6748,
      "에피소드": 6749,
      "♥♥": 6750,
      "경험": 6751,
      "교육": 6752,
      "때우다": 6753,
      "스파이": 6754,
      "영국": 6755,
      "인내": 6756,
      "한데": 6757,
      "허세": 6758,
      "후속": 6759,
      "##스타": 6760,
      "##차다": 6761,
      "##지원": 6762,
      "##르노": 6763,
      "가깝다": 6764,
      "개성": 6765,
      "거슬": 6766,
      "날리다": 6767,
      "달달": 6768,
      "사수": 6769,
      "섹시하다": 6770,
      "올라가다": 6771,
      "유발": 6772,
      "치밀": 6773,
      "낭비하다": 6774,
      "##ing": 6775,
      "오브": 6776,
      "우와": 6777,
      "일반": 6778,
      "전에": 6779,
      "한참": 6780,
      "바라보다": 6781,
      "밋밋하다": 6782,
      "21": 6783,
      "가요": 6784,
      "깎다": 6785,
      "다양": 6786,
      "무척": 6787,
      "시원하다": 6788,
      "이용": 6789,
      "장애": 6790,
      "정의": 6791,
      "코난": 6792,
      "##ov": 6793,
      "##음악": 6794,
      "이따위": 6795,
      "의외로": 6796,
      "007": 6797,
      "레알": 6798,
      "명성": 6799,
      "분명하다": 6800,
      "포인트": 6801,
      "초등학생": 6802,
      "대부분": 6803,
      "로써": 6804,
      "바다": 6805,
      "박진": 6806,
      "어처": 6807,
      "##요일": 6808,
      "##박하다": 6809,
      "##불다": 6810,
      "생생하다": 6811,
      "겁니다": 6812,
      "기자": 6813,
      "돌아보다": 6814,
      "아내": 6815,
      "타이": 6816,
      "포르노": 6817,
      "풍경": 6818,
      "##ar": 6819,
      "##2년": 6820,
      "##친구": 6821,
      "가득하다": 6822,
      "스크린": 6823,
      "고양이": 6824,
      "어처구니": 6825,
      "개막": 6826,
      "개뿔": 6827,
      "또다": 6828,
      "신파": 6829,
      "어우": 6830,
      "영혼": 6831,
      "응원": 6832,
      "젠장": 6833,
      "지우다": 6834,
      "##운드": 6835,
      "다가오다": 6836,
      "개념": 6837,
      "더불다": 6838,
      "등등": 6839,
      "변화": 6840,
      "시시하다": 6841,
      "조용": 6842,
      "카리스": 6843,
      "학년": 6844,
      "##7년": 6845,
      "##ll": 6846,
      "##악하다": 6847,
      "마이너스": 6848,
      "외계인": 6849,
      "패러디": 6850,
      "카리스마": 6851,
      "낚시": 6852,
      "만해": 6853,
      "블록": 6854,
      "상관": 6855,
      "신나다": 6856,
      "위로": 6857,
      "적임": 6858,
      "최대": 6859,
      "현대": 6860,
      "##찍하다": 6861,
      "자연스럽다": 6862,
      "스트레스": 6863,
      "로그인": 6864,
      "감히": 6865,
      "관점": 6866,
      "깜짝": 6867,
      "마리": 6868,
      "무리": 6869,
      "민망하다": 6870,
      "번째": 6871,
      "오로": 6872,
      "정체": 6873,
      "주성": 6874,
      "줄다": 6875,
      "특이하다": 6876,
      "형제": 6877,
      "##이크": 6878,
      "##나이": 6879,
      "##하나": 6880,
      "거슬리다": 6881,
      "주성치": 6882,
      "기만": 6883,
      "끌리다": 6884,
      "롭고": 6885,
      "시기": 6886,
      "오르다": 6887,
      "이도": 6888,
      "직접": 6889,
      "할머니": 6890,
      "해결": 6891,
      "##려주다": 6892,
      "으로써": 6893,
      "ㅉㅉㅉ": 6894,
      "피해자": 6895,
      "뭉클하다": 6896,
      "기준": 6897,
      "김민": 6898,
      "변태": 6899,
      "빨다": 6900,
      "세번": 6901,
      "압권": 6902,
      "어지": 6903,
      "여태": 6904,
      "타고": 6905,
      "편도": 6906,
      "화끈": 6907,
      "##om": 6908,
      "##아나다": 6909,
      "##혹하다": 6910,
      "만큼은": 6911,
      "만족하다": 6912,
      "겨우": 6913,
      "악마": 6914,
      "잠깐": 6915,
      "##버리다": 6916,
      "ㅠㅜ": 6917,
      "고르다": 6918,
      "김수": 6919,
      "놀래다": 6920,
      "따로": 6921,
      "말아먹다": 6922,
      "사고": 6923,
      "신다": 6924,
      "아아": 6925,
      "유지": 6926,
      "의하다": 6927,
      "일품": 6928,
      "잠들다": 6929,
      "주지": 6930,
      "##3년": 6931,
      "##현실": 6932,
      "으로만": 6933,
      "초등학교": 6934,
      "성공하다": 6935,
      "나타나다": 6936,
      "가수": 6937,
      "강력": 6938,
      "달리": 6939,
      "몇몇": 6940,
      "무술": 6941,
      "사진": 6942,
      "썩다": 6943,
      "야동": 6944,
      "와의": 6945,
      "프리": 6946,
      "##타인": 6947,
      "하나로": 6948,
      "크리스마스": 6949,
      "이어서": 6950,
      "공짜": 6951,
      "기회": 6952,
      "드물다": 6953,
      "류승": 6954,
      "면서": 6955,
      "부럽다": 6956,
      "욕망": 6957,
      "이민": 6958,
      "짜임": 6959,
      "막장드라마": 6960,
      "에로영화": 6961,
      "달리다": 6962,
      "디테": 6963,
      "아동": 6964,
      "의식": 6965,
      "추하다": 6966,
      "확인": 6967,
      "##시대": 6968,
      "##대다": 6969,
      "##루스": 6970,
      "##랍다": 6971,
      "##넘다": 6972,
      "홍콩영화": 6973,
      "조용하다": 6974,
      "70년": 6975,
      "결정": 6976,
      "내면": 6977,
      "놀랍다": 6978,
      "모으": 6979,
      "선물": 6980,
      "세련": 6981,
      "에나": 6982,
      "흉내": 6983,
      "##99": 6984,
      "아무렇다": 6985,
      "모으다": 6986,
      "감흥": 6987,
      "니깐": 6988,
      "방영": 6989,
      "배역": 6990,
      "벗어나다": 6991,
      "빵점": 6992,
      "뿐이다": 6993,
      "살아나다": 6994,
      "장가": 6995,
      "만들기": 6996,
      "부모님": 6997,
      "넘어가다": 6998,
      "뛰어넘다": 6999,
      "기법": 7000,
      "보통": 7001,
      "비현실": 7002,
      "안습": 7003,
      "인들": 7004,
      "참으로": 7005,
      "흑인": 7006,
      "##이션": 7007,
      "##en": 7008,
      "##발하다": 7009,
      "어린시절": 7010,
      "비현실적": 7011,
      "가정": 7012,
      "깨우다": 7013,
      "만남": 7014,
      "명화": 7015,
      "신의": 7016,
      "여름": 7017,
      "정보": 7018,
      "제시": 7019,
      "진하다": 7020,
      "파이": 7021,
      "##해지다": 7022,
      "##레딧": 7023,
      "##피스": 7024,
      "##bc": 7025,
      "영화계": 7026,
      "이상은": 7027,
      "이래서": 7028,
      "끝내주다": 7029,
      "ebs": 7030,
      "그건": 7031,
      "데리": 7032,
      "도망": 7033,
      "미스터": 7034,
      "부자": 7035,
      "수고": 7036,
      "예능": 7037,
      "최초": 7038,
      "##9년": 7039,
      "##드리다": 7040,
      "##8년": 7041,
      "##ㅇㅇ": 7042,
      "##bb": 7043,
      "거지같다": 7044,
      "모자라다": 7045,
      "5분": 7046,
      "근래": 7047,
      "내생": 7048,
      "단편": 7049,
      "모험": 7050,
      "복잡하다": 7051,
      "비밀": 7052,
      "성격": 7053,
      "숨기다": 7054,
      "요리": 7055,
      "자르다": 7056,
      "조작": 7057,
      "폐지": 7058,
      "한지": 7059,
      "할리": 7060,
      "거짓말": 7061,
      "다양하다": 7062,
      "화끈하다": 7063,
      "감각": 7064,
      "놀다": 7065,
      "단어": 7066,
      "미가": 7067,
      "반하다": 7068,
      "본적": 7069,
      "색감": 7070,
      "앉다": 7071,
      "우려": 7072,
      "##성기": 7073,
      "##버스터": 7074,
      "40": 7075,
      "갖추다": 7076,
      "거나": 7077,
      "낮추다": 7078,
      "뜨겁다": 7079,
      "상태": 7080,
      "성은": 7081,
      "아예": 7082,
      "자주": 7083,
      "잔뜩": 7084,
      "클레": 7085,
      "보고오다": 7086,
      "공포물": 7087,
      "전쟁영화": 7088,
      "50": 7089,
      "no": 7090,
      "감안": 7091,
      "관련": 7092,
      "꼬마": 7093,
      "냄새": 7094,
      "라기": 7095,
      "로드": 7096,
      "무서": 7097,
      "부부": 7098,
      "삭제": 7099,
      "설득": 7100,
      "신세": 7101,
      "심지": 7102,
      "심오": 7103,
      "애쓰다": 7104,
      "어쩜": 7105,
      "용기": 7106,
      "이러": 7107,
      "이소": 7108,
      "최민": 7109,
      "틀어": 7110,
      "풍자": 7111,
      "호구": 7112,
      "##러다": 7113,
      "라이언": 7114,
      "##ㅠㅠㅠㅠㅠㅠㅠㅠ": 7115,
      "기발하다": 7116,
      "동성애": 7117,
      "멈추다": 7118,
      "번은": 7119,
      "사투": 7120,
      "승리": 7121,
      "야구": 7122,
      "웬만하다": 7123,
      "추리": 7124,
      "키스": 7125,
      "하늘": 7126,
      "##꿀잼": 7127,
      "여러분": 7128,
      "you": 7129,
      "대본": 7130,
      "붙이다": 7131,
      "소년": 7132,
      "아래": 7133,
      "에드": 7134,
      "작위": 7135,
      "잖다": 7136,
      "전율": 7137,
      "케릭": 7138,
      "하자": 7139,
      "##으키다": 7140,
      "##포터": 7141,
      "##우성": 7142,
      "##트맨": 7143,
      "##빠지다": 7144,
      "##놓고": 7145,
      "가족영화": 7146,
      "그립": 7147,
      "던데": 7148,
      "동시": 7149,
      "점줌": 7150,
      "조화": 7151,
      "조니": 7152,
      "##es": 7153,
      "여러가지": 7154,
      "지나가다": 7155,
      "넘어서다": 7156,
      "짜임새": 7157,
      "그립다": 7158,
      "겪다": 7159,
      "대놓고": 7160,
      "목적": 7161,
      "신비": 7162,
      "저러다": 7163,
      "##아버지": 7164,
      "##받다": 7165,
      "영화제": 7166,
      "재난영화": 7167,
      "심오하다": 7168,
      "결코": 7169,
      "넘기다": 7170,
      "둘째": 7171,
      "만을": 7172,
      "만은": 7173,
      "명의": 7174,
      "브루스": 7175,
      "비행": 7176,
      "운명": 7177,
      "의사": 7178,
      "재방": 7179,
      "짜지다": 7180,
      "키우다": 7181,
      "탄생": 7182,
      "세련되다": 7183,
      "런닝": 7184,
      "반대": 7185,
      "사상": 7186,
      "스런": 7187,
      "스텝": 7188,
      "씹다": 7189,
      "앞뒤": 7190,
      "애가": 7191,
      "자동": 7192,
      "제임": 7193,
      "제외": 7194,
      "화장": 7195,
      "##어리": 7196,
      "##거지": 7197,
      "20분": 7198,
      "말고는": 7199,
      "ㄷㄷㄷ": 7200,
      "과학": 7201,
      "목숨": 7202,
      "무한": 7203,
      "물이": 7204,
      "반갑다": 7205,
      "부탁": 7206,
      "선동": 7207,
      "시끄럽다": 7208,
      "유아": 7209,
      "포스": 7210,
      "피다": 7211,
      "한숨": 7212,
      "혹은": 7213,
      "##들이다": 7214,
      "하나같이": 7215,
      "아이디어": 7216,
      "들어서다": 7217,
      "무서움": 7218,
      "심지어": 7219,
      "구리": 7220,
      "꿈꾸다": 7221,
      "부작": 7222,
      "사운드": 7223,
      "업다": 7224,
      "연인": 7225,
      "팔이": 7226,
      "##뜨리다": 7227,
      "블록버스터": 7228,
      "to": 7229,
      "구나": 7230,
      "늘어지다": 7231,
      "다크": 7232,
      "다섯": 7233,
      "만드": 7234,
      "매다": 7235,
      "모양": 7236,
      "바르다": 7237,
      "베이": 7238,
      "붙다": 7239,
      "빈약하다": 7240,
      "빵빵": 7241,
      "시점": 7242,
      "열연": 7243,
      "욕심": 7244,
      "장국": 7245,
      "정확하다": 7246,
      "중심": 7247,
      "첫사랑": 7248,
      "코메": 7249,
      "##이입": 7250,
      "##감독": 7251,
      "감정이입": 7252,
      "움직이다": 7253,
      "후속작": 7254,
      "치밀하다": 7255,
      "제임스": 7256,
      "담배": 7257,
      "려고": 7258,
      "매니아": 7259,
      "무료": 7260,
      "버전": 7261,
      "안감": 7262,
      "중독": 7263,
      "할아버지": 7264,
      "##상수": 7265,
      "##로우": 7266,
      "##ut": 7267,
      "##덕화": 7268,
      "재밋음": 7269,
      "또다른": 7270,
      "mbc": 7271,
      "그야": 7272,
      "금보": 7273,
      "두번": 7274,
      "스페": 7275,
      "예수": 7276,
      "조카": 7277,
      "틀리다": 7278,
      "하아": 7279,
      "##이라": 7280,
      "##ver": 7281,
      "##려가다": 7282,
      "##바이": 7283,
      "##백하다": 7284,
      "##팩트": 7285,
      "그만큼": 7286,
      "ㅋㅋㅋㅋㅋㅋㅋㅋ": 7287,
      "14": 7288,
      "22": 7289,
      "44": 7290,
      "거부": 7291,
      "끔찍하다": 7292,
      "영향": 7293,
      "와이": 7294,
      "울컥": 7295,
      "힘내다": 7296,
      "##아이": 7297,
      "##정하다": 7298,
      "##라오다": 7299,
      "##러스": 7300,
      "ㅎㅎㅎㅎ": 7301,
      "낚였다": 7302,
      "장국영": 7303,
      "of": 7304,
      "당황": 7305,
      "된거": 7306,
      "린다": 7307,
      "물다": 7308,
      "바이": 7309,
      "베드": 7310,
      "수많": 7311,
      "심형": 7312,
      "제니": 7313,
      "집착": 7314,
      "충실하다": 7315,
      "플롯": 7316,
      "##루즈": 7317,
      "##통령": 7318,
      "배경음악": 7319,
      "##000": 7320,
      "##파이어": 7321,
      "그야말로": 7322,
      "수많다": 7323,
      "논리": 7324,
      "대신": 7325,
      "돼지": 7326,
      "보구": 7327,
      "새다": 7328,
      "어둡": 7329,
      "음식": 7330,
      "저리": 7331,
      "종영": 7332,
      "터미": 7333,
      "프레": 7334,
      "한개": 7335,
      "허허": 7336,
      "##대사": 7337,
      "##6년": 7338,
      "##담하다": 7339,
      "##간하다": 7340,
      "주제가": 7341,
      "사투리": 7342,
      "어둡다": 7343,
      "30년": 7344,
      "교과": 7345,
      "대통령": 7346,
      "도에": 7347,
      "러시아": 7348,
      "뭥미": 7349,
      "생명": 7350,
      "여기다": 7351,
      "자본": 7352,
      "책임": 7353,
      "환경": 7354,
      "##it": 7355,
      "##지르다": 7356,
      "##능하다": 7357,
      "##두다": 7358,
      "##누다": 7359,
      "##습니": 7360,
      "오래전": 7361,
      "로버트": 7362,
      "두번째": 7363,
      "심형래": 7364,
      "교과서": 7365,
      "끼우다": 7366,
      "나은": 7367,
      "로코": 7368,
      "마냥": 7369,
      "인디": 7370,
      "임팩트": 7371,
      "잠시": 7372,
      "정상": 7373,
      "천국": 7374,
      "파괴": 7375,
      "##싸다": 7376,
      "##쩡하다": 7377,
      "##레이션": 7378,
      "스티븐": 7379,
      "고등학교": 7380,
      "김혜": 7381,
      "늑대": 7382,
      "따름": 7383,
      "막다": 7384,
      "배신": 7385,
      "배급": 7386,
      "뱀파이어": 7387,
      "벌다": 7388,
      "베다": 7389,
      "아우": 7390,
      "우뢰": 7391,
      "의상": 7392,
      "탈출": 7393,
      "파워": 7394,
      "여자친구": 7395,
      "부터가": 7396,
      "일부러": 7397,
      "ㅎㄷㄷ": 7398,
      "구역": 7399,
      "그지": 7400,
      "난리": 7401,
      "내놓다": 7402,
      "딱이다": 7403,
      "배다": 7404,
      "위험": 7405,
      "이전": 7406,
      "자고": 7407,
      "재능": 7408,
      "정이": 7409,
      "정작": 7410,
      "졸리": 7411,
      "지치다": 7412,
      "찾기": 7413,
      "키드": 7414,
      "토록": 7415,
      "##re": 7416,
      "##네이터": 7417,
      "##멘타인": 7418,
      "여자애": 7419,
      "쓸데없이": 7420,
      "클레멘타인": 7421,
      "터미네이터": 7422,
      "그지같다": 7423,
      "가르": 7424,
      "공간": 7425,
      "들리다": 7426,
      "무너": 7427,
      "묻히다": 7428,
      "미녀": 7429,
      "바탕": 7430,
      "반드": 7431,
      "빵터": 7432,
      "손색": 7433,
      "애국": 7434,
      "애매": 7435,
      "여친": 7436,
      "연극": 7437,
      "외로": 7438,
      "의지": 7439,
      "쥐다": 7440,
      "참나": 7441,
      "컨셉": 7442,
      "헤어지다": 7443,
      "##랜드": 7444,
      "##1년": 7445,
      "##티즌": 7446,
      "너무도": 7447,
      "보이지": 7448,
      "해리포터": 7449,
      "제니퍼": 7450,
      "반드시": 7451,
      "곱다": 7452,
      "김지": 7453,
      "떨다": 7454,
      "마약": 7455,
      "발상": 7456,
      "베리": 7457,
      "선정": 7458,
      "유덕화": 7459,
      "인형": 7460,
      "잡고": 7461,
      "저급": 7462,
      "절정": 7463,
      "주윤": 7464,
      "짜리": 7465,
      "클래": 7466,
      "하품": 7467,
      "하지원": 7468,
      "##이나": 7469,
      "##세포": 7470,
      "##맞다": 7471,
      "어디가": 7472,
      "중학교": 7473,
      "드러나다": 7474,
      "인내심": 7475,
      "빵터지다": 7476,
      "주윤발": 7477,
      "re": 7478,
      "거장": 7479,
      "걱정": 7480,
      "고딩": 7481,
      "그동안": 7482,
      "독일": 7483,
      "류작": 7484,
      "만약": 7485,
      "매일": 7486,
      "사무": 7487,
      "속이다": 7488,
      "실수": 7489,
      "아담": 7490,
      "착각": 7491,
      "화의": 7492,
      "##od": 7493,
      "##정우": 7494,
      "##재밋": 7495,
      "##참하다": 7496,
      "##강호": 7497,
      "##무지": 7498,
      "##막히다": 7499,
      "##zz": 7500,
      "##퓨터": 7501,
      "인지도": 7502,
      "조니뎁": 7503,
      "그만하다": 7504,
      "길이": 7505,
      "김태": 7506,
      "나무": 7507,
      "나누다": 7508,
      "동심": 7509,
      "디워": 7510,
      "무기": 7511,
      "배트맨": 7512,
      "아끼다": 7513,
      "에다": 7514,
      "이만": 7515,
      "자랑": 7516,
      "지경": 7517,
      "컴퓨터": 7518,
      "테이": 7519,
      "폭발": 7520,
      "홍상수": 7521,
      "##나가다": 7522,
      "##어도": 7523,
      "##래곤": 7524,
      "##들리다": 7525,
      "##티브": 7526,
      "일본인": 7527,
      "치고는": 7528,
      "쓸데없다": 7529,
      "자동차": 7530,
      "우뢰매": 7531,
      "거북": 7532,
      "끊다": 7533,
      "다리": 7534,
      "부리다": 7535,
      "부실하다": 7536,
      "섞다": 7537,
      "신인": 7538,
      "오프": 7539,
      "이루": 7540,
      "이병": 7541,
      "장진": 7542,
      "편안하다": 7543,
      "평균": 7544,
      "##패스": 7545,
      "##질하다": 7546,
      "2014년": 7547,
      "제이슨": 7548,
      "이소룡": 7549,
      "고프다": 7550,
      "뭐임": 7551,
      "밝다": 7552,
      "보신": 7553,
      "부담": 7554,
      "어째": 7555,
      "여인": 7556,
      "체적": 7557,
      "펴다": 7558,
      "하정우": 7559,
      "##is": 7560,
      "##만다": 7561,
      "##워지다": 7562,
      "에게도": 7563,
      "마음속": 7564,
      "아무튼": 7565,
      "만화책": 7566,
      "사이코": 7567,
      "살인마": 7568,
      "메이드": 7569,
      "간지": 7570,
      "극단": 7571,
      "사용": 7572,
      "상대": 7573,
      "센스": 7574,
      "위원": 7575,
      "이수": 7576,
      "케빈": 7577,
      "판단": 7578,
      "##영상": 7579,
      "##그럽다": 7580,
      "영화감독": 7581,
      "코메디": 7582,
      "거품": 7583,
      "나레이션": 7584,
      "남성": 7585,
      "녹다": 7586,
      "도시": 7587,
      "동영상": 7588,
      "로빈": 7589,
      "루즈": 7590,
      "리가": 7591,
      "민폐": 7592,
      "분량": 7593,
      "손가락": 7594,
      "울면": 7595,
      "적어도": 7596,
      "줄리": 7597,
      "추격": 7598,
      "축구": 7599,
      "평화": 7600,
      "폭풍": 7601,
      "##듯하다": 7602,
      "##놀드": 7603,
      "ㅋㅋㅋㅋㅋㅋㅋㅋㅋㅋㅋㅋㅋㅋㅋ": 7604,
      "ㅋㅋㅋㅋㅋㅋㅋㅋㅋ": 7605,
      "실패하다": 7606,
      "스포츠": 7607,
      "할리우드": 7608,
      "mov": 7609,
      "과도": 7610,
      "기존": 7611,
      "김치": 7612,
      "도움": 7613,
      "리지": 7614,
      "성의": 7615,
      "수입": 7616,
      "실험": 7617,
      "아놀드": 7618,
      "얼다": 7619,
      "엘리": 7620,
      "유행": 7621,
      "일어": 7622,
      "진수": 7623,
      "##랄하다": 7624,
      "##릿하다": 7625,
      "최고봉": 7626,
      "인터넷": 7627,
      "틀어주다": 7628,
      "bad": 7629,
      "거치다": 7630,
      "내일": 7631,
      "네티즌": 7632,
      "누르다": 7633,
      "도둑": 7634,
      "도무지": 7635,
      "명복": 7636,
      "무대": 7637,
      "상실": 7638,
      "수면": 7639,
      "알아보다": 7640,
      "어거지": 7641,
      "여신": 7642,
      "이준": 7643,
      "이군": 7644,
      "죄송": 7645,
      "준비": 7646,
      "찌질하다": 7647,
      "처절하다": 7648,
      "호기": 7649,
      "화일": 7650,
      "흑백": 7651,
      "##리언": 7652,
      "이니까": 7653,
      "이구나": 7654,
      "어우러지다": 7655,
      "각색": 7656,
      "게뭐": 7657,
      "그렇": 7658,
      "깡패": 7659,
      "달콤": 7660,
      "데뷔": 7661,
      "두근": 7662,
      "명대사": 7663,
      "성적": 7664,
      "이동": 7665,
      "인류": 7666,
      "인게": 7667,
      "토나오다": 7668,
      "재미나": 7669,
      "##oooo": 7670,
      "역사상": 7671,
      "어쩌면": 7672,
      "겉멋": 7673,
      "김정": 7674,
      "김희": 7675,
      "다세포": 7676,
      "데스": 7677,
      "동네": 7678,
      "말투": 7679,
      "발음": 7680,
      "분장": 7681,
      "소개": 7682,
      "송강호": 7683,
      "아치": 7684,
      "아만다": 7685,
      "엑스": 7686,
      "오지": 7687,
      "요새": 7688,
      "유럽": 7689,
      "이성": 7690,
      "인종": 7691,
      "자아": 7692,
      "전화": 7693,
      "전기": 7694,
      "출신": 7695,
      "파리": 7696,
      "평소": 7697,
      "하드": 7698,
      "혐오": 7699,
      "##스토리": 7700,
      "##우스": 7701,
      "하고는": 7702,
      "한국판": 7703,
      "배급사": 7704,
      "그렇지만": 7705,
      "극복": 7706,
      "난잡하다": 7707,
      "놀이": 7708,
      "라스트": 7709,
      "망가": 7710,
      "부정": 7711,
      "부인": 7712,
      "비중": 7713,
      "애절하다": 7714,
      "언젠": 7715,
      "에다가": 7716,
      "엑소": 7717,
      "장동": 7718,
      "차원": 7719,
      "첨부": 7720,
      "첩보": 7721,
      "푸다": 7722,
      "황당": 7723,
      "##리카": 7724,
      "##웨이": 7725,
      "##대기": 7726,
      "##ck": 7727,
      "##감하다": 7728,
      "상관없다": 7729,
      "오프닝": 7730,
      "movie": 7731,
      "언젠가": 7732,
      "kbs": 7733,
      "게스트": 7734,
      "드래곤": 7735,
      "듭니": 7736,
      "때매": 7737,
      "미도": 7738,
      "소화": 7739,
      "원주": 7740,
      "임창": 7741,
      "잡히다": 7742,
      "정우성": 7743,
      "차갑다": 7744,
      "흡입": 7745,
      "##스크": 7746,
      "##로드": 7747,
      "##미하다": 7748,
      "##월하다": 7749,
      "영화사": 7750,
      "##0000": 7751,
      "리얼리티": 7752,
      "누군지": 7753,
      "제시카": 7754,
      "임창정": 7755,
      "it": 7756,
      "oc": 7757,
      "강간": 7758,
      "개똥": 7759,
      "공중": 7760,
      "과대": 7761,
      "꺼지다": 7762,
      "도데": 7763,
      "따분하다": 7764,
      "마르": 7765,
      "별하나": 7766,
      "블루": 7767,
      "시스": 7768,
      "싫어지다": 7769,
      "압도": 7770,
      "오는": 7771,
      "재수": 7772,
      "전하": 7773,
      "지식": 7774,
      "피아": 7775,
      "하여": 7776,
      "화란": 7777,
      "##주일": 7778,
      "##가리": 7779,
      "##디다": 7780,
      "##전쟁": 7781,
      "##레인": 7782,
      "##맹이": 7783,
      "이해도": 7784,
      "부족함": 7785,
      "최소한": 7786,
      "류승범": 7787,
      "wh": 7788,
      "ㅜㅠ": 7789,
      "가라": 7790,
      "가까": 7791,
      "고독": 7792,
      "글자": 7793,
      "단체": 7794,
      "단점": 7795,
      "대결": 7796,
      "동양": 7797,
      "만세": 7798,
      "매미": 7799,
      "명불": 7800,
      "모로": 7801,
      "무게": 7802,
      "브래": 7803,
      "빨갱": 7804,
      "서도": 7805,
      "섞이다": 7806,
      "쉽다": 7807,
      "역량": 7808,
      "왜곡": 7809,
      "왤케": 7810,
      "윌리스": 7811,
      "짜이다": 7812,
      "치유": 7813,
      "콜린": 7814,
      "파격": 7815,
      "판이": 7816,
      "하니": 7817,
      "하라": 7818,
      "##어버리다": 7819,
      "##as": 7820,
      "##테리": 7821,
      "##nd": 7822,
      "##려움": 7823,
      "##허전": 7824,
      "##처럼": 7825,
      "에서만": 7826,
      "액션씬": 7827,
      "cgv": 7828,
      "##ery": 7829,
      "best": 7830,
      "무너지다": 7831,
      "명불허전": 7832,
      "빨갱이": 7833,
      "개콘": 7834,
      "객관": 7835,
      "계기": 7836,
      "그대": 7837,
      "녀석": 7838,
      "년전": 7839,
      "늘리다": 7840,
      "드디어": 7841,
      "등록": 7842,
      "몽환": 7843,
      "무의": 7844,
      "무재": 7845,
      "무난": 7846,
      "민주": 7847,
      "브라": 7848,
      "서부": 7849,
      "서울": 7850,
      "신하": 7851,
      "심다": 7852,
      "알파": 7853,
      "옳다": 7854,
      "일으키다": 7855,
      "지지": 7856,
      "파다": 7857,
      "회사": 7858,
      "##사하다": 7859,
      "##동원": 7860,
      "##동생": 7861,
      "##란티": 7862,
      "##부터": 7863,
      "##열하다": 7864,
      "##숭이": 7865,
      "만화영화": 7866,
      "만큼이나": 7867,
      "##레이드": 7868,
      "블랙코미디": 7869,
      "이루어지다": 7870,
      "호기심": 7871,
      "망가지다": 7872,
      "ocn": 7873,
      "격투": 7874,
      "군인": 7875,
      "깨알": 7876,
      "높이다": 7877,
      "담백하다": 7878,
      "듣기": 7879,
      "명연기": 7880,
      "무간": 7881,
      "박다": 7882,
      "배꼽": 7883,
      "열자": 7884,
      "엽기": 7885,
      "용다": 7886,
      "이종": 7887,
      "일베": 7888,
      "정리": 7889,
      "중년": 7890,
      "중딩": 7891,
      "켜다": 7892,
      "한순": 7893,
      "##le": 7894,
      "##웃음": 7895,
      "##둥이": 7896,
      "대사도": 7897,
      "가능성": 7898,
      "범죄자": 7899,
      "1회": 7900,
      "♡♡": 7901,
      "가야": 7902,
      "가져": 7903,
      "가리다": 7904,
      "권력": 7905,
      "기획": 7906,
      "끼치다": 7907,
      "노인": 7908,
      "노무": 7909,
      "딸리다": 7910,
      "매끄럽다": 7911,
      "뮤직": 7912,
      "밀려오다": 7913,
      "베일": 7914,
      "보나": 7915,
      "부활": 7916,
      "상어": 7917,
      "서양": 7918,
      "선사": 7919,
      "어쨌": 7920,
      "연습": 7921,
      "와도": 7922,
      "일주일": 7923,
      "잔혹하다": 7924,
      "절제": 7925,
      "절망": 7926,
      "정준": 7927,
      "졸업": 7928,
      "지리다": 7929,
      "질리다": 7930,
      "처리": 7931,
      "킬러": 7932,
      "타란티": 7933,
      "향수": 7934,
      "##ow": 7935,
      "##유리": 7936,
      "##누라": 7937,
      "##승우": 7938,
      "하나님": 7939,
      "198": 7940,
      "이기도": 7941,
      "비행기": 7942,
      "화장실": 7943,
      "이병헌": 7944,
      "신하균": 7945,
      "한순간": 7946,
      "타란티노": 7947,
      "계시다": 7948,
      "고뇌": 7949,
      "다해": 7950,
      "대에": 7951,
      "드니": 7952,
      "말씀": 7953,
      "머릿": 7954,
      "바닥": 7955,
      "백인": 7956,
      "보임": 7957,
      "본능": 7958,
      "상징": 7959,
      "시종": 7960,
      "알려지다": 7961,
      "에가": 7962,
      "우선": 7963,
      "원숭이": 7964,
      "인걸": 7965,
      "저지르다": 7966,
      "직업": 7967,
      "징그럽다": 7968,
      "탁월하다": 7969,
      "##중훈": 7970,
      "##아들이다": 7971,
      "에서나": 7972,
      "후회되다": 7973,
      "뜬금없이": 7974,
      "굿굿굿": 7975,
      "스파이더": 7976,
      "장애인": 7977,
      "디테일": 7978,
      "무간도": 7979,
      "25": 7980,
      "is": 7981,
      "very": 7982,
      "각자": 7983,
      "교회": 7984,
      "낭만": 7985,
      "달라지다": 7986,
      "든지": 7987,
      "많아지다": 7988,
      "매번": 7989,
      "박히다": 7990,
      "박중훈": 7991,
      "불과": 7992,
      "속지": 7993,
      "쏟다": 7994,
      "쓴다": 7995,
      "애초": 7996,
      "오우": 7997,
      "원조": 7998,
      "유명": 7999,
      "존스": 8000,
      "지상": 8001,
      "지옥": 8002,
      "트리": 8003,
      "향연": 8004,
      "##근하다": 8005,
      "##효주": 8006,
      "##오글": 8007,
      "까지만": 8008,
      "##00원": 8009,
      "미스터리": 8010,
      "달콤하다": 8011,
      "가히": 8012,
      "공유": 8013,
      "공룡": 8014,
      "디카": 8015,
      "레옹": 8016,
      "만도": 8017,
      "민족": 8018,
      "박신": 8019,
      "박보": 8020,
      "반지": 8021,
      "버튼": 8022,
      "부산": 8023,
      "비호": 8024,
      "비쥬": 8025,
      "삶다": 8026,
      "스피": 8027,
      "쓸쓸하다": 8028,
      "이별": 8029,
      "이승": 8030,
      "일지": 8031,
      "짬뽕": 8032,
      "차리다": 8033,
      "창피": 8034,
      "포드": 8035,
      "피터": 8036,
      "한가지": 8037,
      "해안": 8038,
      "혁명": 8039,
      "황정": 8040,
      "##관계": 8041,
      "##니엘": 8042,
      "##미다": 8043,
      "##버그": 8044,
      "ㅜㅜㅜ": 8045,
      "2000년": 8046,
      "오글오글": 8047,
      "미스테리": 8048,
      "애매하다": 8049,
      "박보영": 8050,
      "16": 8051,
      "경우": 8052,
      "구조": 8053,
      "나루": 8054,
      "년도": 8055,
      "닥치": 8056,
      "드네": 8057,
      "똑같이": 8058,
      "리암": 8059,
      "마법": 8060,
      "맛있다": 8061,
      "모이다": 8062,
      "믿음": 8063,
      "반영": 8064,
      "방해": 8065,
      "방향": 8066,
      "버티": 8067,
      "변신": 8068,
      "부다": 8069,
      "부로": 8070,
      "선수": 8071,
      "시원": 8072,
      "알아": 8073,
      "억울하다": 8074,
      "욕먹다": 8075,
      "장점": 8076,
      "전지": 8077,
      "정선": 8078,
      "찾아가다": 8079,
      "코스": 8080,
      "포함": 8081,
      "흔들다": 8082,
      "##다니다": 8083,
      "##진하다": 8084,
      "##린다": 8085,
      "아이유": 8086,
      "개그맨": 8087,
      "나타내다": 8088,
      "의심스럽다": 8089,
      "오로지": 8090,
      "스파이더맨": 8091,
      "강동원": 8092,
      "견디다": 8093,
      "그럴": 8094,
      "기타": 8095,
      "담담하다": 8096,
      "덩어리": 8097,
      "두운": 8098,
      "뒤죽": 8099,
      "떠올": 8100,
      "바치다": 8101,
      "받아들이다": 8102,
      "소통": 8103,
      "심사": 8104,
      "예측": 8105,
      "올레": 8106,
      "왕조": 8107,
      "우드": 8108,
      "우디": 8109,
      "우울": 8110,
      "워낙": 8111,
      "쟁이": 8112,
      "칭찬": 8113,
      "커서": 8114,
      "한효주": 8115,
      "##차별": 8116,
      "##라라": 8117,
      "##예진": 8118,
      "##얗다": 8119,
      "##봤다": 8120,
      "다시금": 8121,
      "제작자": 8122,
      "아오이": 8123,
      "어지럽다": 8124,
      "김수현": 8125,
      "그럴듯하다": 8126,
      "떠올리다": 8127,
      "2년": 8128,
      "가나": 8129,
      "가짜": 8130,
      "그로": 8131,
      "놀란": 8132,
      "도르다": 8133,
      "리도": 8134,
      "마녀": 8135,
      "명장": 8136,
      "무식": 8137,
      "미션": 8138,
      "본질": 8139,
      "비록": 8140,
      "상식": 8141,
      "소지": 8142,
      "수록": 8143,
      "순위": 8144,
      "승부": 8145,
      "연상": 8146,
      "우린": 8147,
      "월드": 8148,
      "윌리": 8149,
      "자세하다": 8150,
      "절로": 8151,
      "정부": 8152,
      "즐거": 8153,
      "짜릿하다": 8154,
      "차승": 8155,
      "찬양": 8156,
      "초월": 8157,
      "최후": 8158,
      "치노": 8159,
      "케미": 8160,
      "튀다": 8161,
      "풀리다": 8162,
      "픽사": 8163,
      "##al": 8164,
      "##보이": 8165,
      "##프리오": 8166,
      "##박죽": 8167,
      "##브리": 8168,
      "##워즈": 8169,
      "스타워즈": 8170,
      "들어주다": 8171,
      "중학생": 8172,
      "부자연": 8173,
      "수면제": 8174,
      "브래드": 8175,
      "비호감": 8176,
      "뒤죽박죽": 8177,
      "1등": 8178,
      "ㅈㄴ": 8179,
      "갈리다": 8180,
      "고어": 8181,
      "광구": 8182,
      "괴롭다": 8183,
      "구석": 8184,
      "국어": 8185,
      "극적": 8186,
      "도중": 8187,
      "떨어": 8188,
      "못자다": 8189,
      "뿌리다": 8190,
      "사과": 8191,
      "살이": 8192,
      "상이": 8193,
      "성형": 8194,
      "아카": 8195,
      "어딘": 8196,
      "연관": 8197,
      "왕가": 8198,
      "이안": 8199,
      "쯧쯧": 8200,
      "천사": 8201,
      "페이": 8202,
      "혼란": 8203,
      "##ct": 8204,
      "##정화": 8205,
      "##부지": 8206,
      "##능력": 8207,
      "##괴하다": 8208,
      "##워드": 8209,
      "##★☆": 8210,
      "아이언": 8211,
      "출연자": 8212,
      "잔인함": 8213,
      "멜로영화": 8214,
      "클래식": 8215,
      "디카프리오": 8216,
      "왕조현": 8217,
      "차승원": 8218,
      "1년": 8219,
      "com": 8220,
      "vs": 8221,
      "고증": 8222,
      "급하다": 8223,
      "기괴하다": 8224,
      "끊기다": 8225,
      "다녀": 8226,
      "당장": 8227,
      "모욕": 8228,
      "무어": 8229,
      "미학": 8230,
      "벌어지다": 8231,
      "빌다": 8232,
      "세대": 8233,
      "섹시": 8234,
      "스키": 8235,
      "시험": 8236,
      "애정": 8237,
      "외롭다": 8238,
      "전성기": 8239,
      "트랜": 8240,
      "특집": 8241,
      "페이크": 8242,
      "##스톤": 8243,
      "##ig": 8244,
      "##일관": 8245,
      "##ce": 8246,
      "##tt": 8247,
      "##추어": 8248,
      "##뚱하다": 8249,
      "##캐스팅": 8250,
      "스릴러물": 8251,
      "중국영화": 8252,
      "아마추어": 8253,
      "미스캐스팅": 8254,
      "이구만": 8255,
      "sh": 8256,
      "가하다": 8257,
      "고인": 8258,
      "구만": 8259,
      "구로": 8260,
      "구분": 8261,
      "기사": 8262,
      "남친": 8263,
      "너희": 8264,
      "떡밥": 8265,
      "브로": 8266,
      "뺏다": 8267,
      "스펙": 8268,
      "식이": 8269,
      "실사": 8270,
      "애인": 8271,
      "언어": 8272,
      "엄정화": 8273,
      "운동": 8274,
      "위트": 8275,
      "전도": 8276,
      "절대로": 8277,
      "조지": 8278,
      "짜내다": 8279,
      "철저": 8280,
      "추가": 8281,
      "춤추다": 8282,
      "태국": 8283,
      "해봤다": 8284,
      "호불": 8285,
      "화질": 8286,
      "환자": 8287,
      "회상": 8288,
      "##라기": 8289,
      "##인간": 8290,
      "##돌다": 8291,
      "##더기": 8292,
      "##★★": 8293,
      "대박나다": 8294,
      "ㅋㅋㅋㅋㅋㅋㅋㅋㅋㅋㅋㅋㅋㅋㅋㅋㅋㅋㅋ": 8295,
      "죄송하다": 8296,
      "가까이": 8297,
      "시종일관": 8298,
      "닥치고": 8299,
      "버티다": 8300,
      "떨어뜨리다": 8301,
      "##★☆★☆": 8302,
      "호불호": 8303,
      "90분": 8304,
      "bb": 8305,
      "걷다": 8306,
      "공주": 8307,
      "국산": 8308,
      "누님": 8309,
      "능가": 8310,
      "도와": 8311,
      "두렵다": 8312,
      "랑은": 8313,
      "별거": 8314,
      "생기": 8315,
      "세트": 8316,
      "신화": 8317,
      "아누": 8318,
      "안남": 8319,
      "안녕": 8320,
      "암울하다": 8321,
      "이은": 8322,
      "작화": 8323,
      "조아": 8324,
      "커버": 8325,
      "하얗다": 8326,
      "한석": 8327,
      "호흡": 8328,
      "##어스": 8329,
      "##아리": 8330,
      "##ay": 8331,
      "##상우": 8332,
      "##크레딧": 8333,
      "##듬다": 8334,
      "##매이션": 8335,
      "##독하다": 8336,
      "##은이": 8337,
      "부터는": 8338,
      "아무나": 8339,
      "남자배우": 8340,
      "다른사람": 8341,
      "만화가": 8342,
      "엔딩크레딧": 8343,
      "로맨틱코미디": 8344,
      "슈퍼맨": 8345,
      "아기자기": 8346,
      "김혜수": 8347,
      "위험하다": 8348,
      "피아노": 8349,
      "머릿속": 8350,
      "철저하다": 8351,
      "도와주다": 8352,
      "한석규": 8353,
      "검사": 8354,
      "공연": 8355,
      "관리": 8356,
      "광기": 8357,
      "깨달": 8358,
      "꼬이다": 8359,
      "눈치": 8360,
      "데리다": 8361,
      "되돌": 8362,
      "떨리다": 8363,
      "라스": 8364,
      "로움": 8365,
      "마찬": 8366,
      "마누라": 8367,
      "망치": 8368,
      "밀다": 8369,
      "박하다": 8370,
      "반응": 8371,
      "상큼": 8372,
      "섬뜩": 8373,
      "소유": 8374,
      "숨막히다": 8375,
      "아가": 8376,
      "어정": 8377,
      "오오": 8378,
      "온갖": 8379,
      "완젼": 8380,
      "이드": 8381,
      "익숙하다": 8382,
      "재앙": 8383,
      "정사": 8384,
      "주관": 8385,
      "지하": 8386,
      "첨으로": 8387,
      "포켓": 8388,
      "해지": 8389,
      "해외": 8390,
      "형식": 8391,
      "##리스트": 8392,
      "##dd": 8393,
      "##왕국": 8394,
      "##갈리다": 8395,
      "##랗다": 8396,
      "##늦다": 8397,
      "애니매이션": 8398,
      "세계관": 8399,
      "ㅋㅋㅋㅋㅋㅋㅋㅋㅋㅋ": 8400,
      "짱짱맨": 8401,
      "나루토": 8402,
      "부자연스럽다": 8403,
      "다녀오다": 8404,
      "트랜스": 8405,
      "마찬가지": 8406,
      "40분": 8407,
      "av": 8408,
      "pd": 8409,
      "감수": 8410,
      "고문": 8411,
      "권상우": 8412,
      "난후": 8413,
      "납득": 8414,
      "다치다": 8415,
      "도라": 8416,
      "두고": 8417,
      "리기": 8418,
      "만난": 8419,
      "문득": 8420,
      "박찬": 8421,
      "방황": 8422,
      "보석": 8423,
      "산다": 8424,
      "살때": 8425,
      "싱겁다": 8426,
      "싸하다": 8427,
      "애틋": 8428,
      "애잔하다": 8429,
      "어차": 8430,
      "위주": 8431,
      "유리": 8432,
      "이탈": 8433,
      "인권": 8434,
      "잃어버리다": 8435,
      "재치": 8436,
      "주가": 8437,
      "찌르다": 8438,
      "찬란하다": 8439,
      "최선": 8440,
      "택시": 8441,
      "티나": 8442,
      "##하하": 8443,
      "##하드": 8444,
      "##니까": 8445,
      "##성이": 8446,
      "##살다": 8447,
      "##두고": 8448,
      "##뜨다": 8449,
      "데이빗": 8450,
      "니콜라스": 8451,
      "드러내다": 8452,
      "일반인": 8453,
      "오로라": 8454,
      "가르치다": 8455,
      "테이큰": 8456,
      "김희선": 8457,
      "포켓몬": 8458,
      "두고두고": 8459,
      "애틋하다": 8460,
      "어차피": 8461,
      "개꿀잼": 8462,
      "눕다": 8463,
      "대하": 8464,
      "돌려주다": 8465,
      "로다": 8466,
      "멘탈": 8467,
      "밝히다": 8468,
      "본격": 8469,
      "빠순": 8470,
      "색채": 8471,
      "성과": 8472,
      "스토": 8473,
      "스필": 8474,
      "아바": 8475,
      "안해": 8476,
      "에바": 8477,
      "여지": 8478,
      "역작": 8479,
      "우왕": 8480,
      "음향": 8481,
      "의견": 8482,
      "인식": 8483,
      "자의": 8484,
      "재탕": 8485,
      "적당": 8486,
      "조정": 8487,
      "참여": 8488,
      "치료": 8489,
      "클라라": 8490,
      "패션": 8491,
      "피식": 8492,
      "한동안": 8493,
      "해오다": 8494,
      "화하다": 8495,
      "##스하다": 8496,
      "##일러": 8497,
      "##am": 8498,
      "##천원": 8499,
      "알바생": 8500,
      "크리스찬": 8501,
      "카메론": 8502,
      "15년": 8503,
      "외국인": 8504,
      "도망가다": 8505,
      "어쨌든": 8506,
      "즐거움": 8507,
      "17": 8508,
      "간간": 8509,
      "구경": 8510,
      "나로": 8511,
      "뉴스": 8512,
      "된장": 8513,
      "떠들다": 8514,
      "맙시": 8515,
      "반도": 8516,
      "복선": 8517,
      "불법": 8518,
      "시체": 8519,
      "시장": 8520,
      "안기다": 8521,
      "어떠": 8522,
      "없애": 8523,
      "여유": 8524,
      "연주": 8525,
      "영구": 8526,
      "오해": 8527,
      "올라오다": 8528,
      "옮기다": 8529,
      "이웃": 8530,
      "일수": 8531,
      "잘나가다": 8532,
      "집단": 8533,
      "클로": 8534,
      "토니": 8535,
      "향기": 8536,
      "홀로": 8537,
      "##동근": 8538,
      "##동자": 8539,
      "##로로": 8540,
      "##갛다": 8541,
      "오랫동안": 8542,
      "고등학생": 8543,
      "스페인": 8544,
      "전지현": 8545,
      "없애다": 8546,
      "가만": 8547,
      "거임": 8548,
      "고해": 8549,
      "귀찮다": 8550,
      "극본": 8551,
      "기전": 8552,
      "김명": 8553,
      "나오": 8554,
      "난무": 8555,
      "다니엘": 8556,
      "뒤늦다": 8557,
      "로마": 8558,
      "로망": 8559,
      "막상": 8560,
      "박시": 8561,
      "발랄하다": 8562,
      "밝혀지다": 8563,
      "볼라": 8564,
      "비참하다": 8565,
      "설경": 8566,
      "수사": 8567,
      "시골": 8568,
      "어리": 8569,
      "어수": 8570,
      "엠마": 8571,
      "여고": 8572,
      "영활": 8573,
      "외면": 8574,
      "우승": 8575,
      "위안": 8576,
      "유익": 8577,
      "유승": 8578,
      "유쾌": 8579,
      "음모": 8580,
      "이영": 8581,
      "인연": 8582,
      "조명": 8583,
      "졸잼": 8584,
      "중후": 8585,
      "지내다": 8586,
      "짱구": 8587,
      "채다": 8588,
      "크레딧": 8589,
      "투성이": 8590,
      "##im": 8591,
      "##아다니다": 8592,
      "##ed": 8593,
      "##로그": 8594,
      "##고기": 8595,
      "##은경": 8596,
      "##본색": 8597,
      "하고프다": 8598,
      "재수없다": 8599,
      "어딘가": 8600,
      "아기자기하다": 8601,
      "빠순이": 8602,
      "3시간": 8603,
      "70": 8604,
      "80": 8605,
      "in": 8606,
      "고스": 8607,
      "괴수": 8608,
      "남고": 8609,
      "대역": 8610,
      "덮다": 8611,
      "띄다": 8612,
      "러셀": 8613,
      "레오": 8614,
      "먹기": 8615,
      "모니": 8616,
      "번역": 8617,
      "빨갛다": 8618,
      "생존": 8619,
      "원피스": 8620,
      "장소": 8621,
      "지독하다": 8622,
      "질문": 8623,
      "짙다": 8624,
      "찾아오다": 8625,
      "커피": 8626,
      "틀림": 8627,
      "흠잡다": 8628,
      "##호하다": 8629,
      "##il": 8630,
      "##id": 8631,
      "##우치다": 8632,
      "##수정": 8633,
      "##버스": 8634,
      "##에몽": 8635,
      "##맣다": 8636,
      "유치원": 8637,
      "살인자": 8638,
      "영웅본색": 8639,
      "마저도": 8640,
      "겨울왕국": 8641,
      "신세계": 8642,
      "무의미하다": 8643,
      "박찬욱": 8644,
      "스필버그": 8645,
      "설경구": 8646,
      "1분": 8647,
      "60년": 8648,
      "xx": 8649,
      "간직": 8650,
      "건데": 8651,
      "고질": 8652,
      "관대하다": 8653,
      "극혐": 8654,
      "깜놀": 8655,
      "납치": 8656,
      "내보": 8657,
      "대상": 8658,
      "따라": 8659,
      "마블": 8660,
      "목사": 8661,
      "묵직하다": 8662,
      "미달": 8663,
      "볼일": 8664,
      "손예진": 8665,
      "스탈": 8666,
      "스콧": 8667,
      "쏘우": 8668,
      "아메": 8669,
      "안쓰": 8670,
      "애로": 8671,
      "오직": 8672,
      "이태": 8673,
      "일찍": 8674,
      "자격": 8675,
      "잘알": 8676,
      "전라도": 8677,
      "정당": 8678,
      "주먹": 8679,
      "지배": 8680,
      "진창": 8681,
      "집어": 8682,
      "집다": 8683,
      "찬사": 8684,
      "출발": 8685,
      "클라스": 8686,
      "타인": 8687,
      "픽션": 8688,
      "화판": 8689,
      "흔적": 8690,
      "흔들리다": 8691,
      "##슬리": 8692,
      "##라이즈": 8693,
      "##9999": 8694,
      "최민수": 8695,
      "에드워드": 8696,
      "저급하다": 8697,
      "거북하다": 8698,
      "창피하다": 8699,
      "아이언맨": 8700,
      "도라에몽": 8701,
      "아바타": 8702,
      "유익하다": 8703,
      "내보내다": 8704,
      "안쓰럽다": 8705,
      "잘알다": 8706,
      "강요": 8707,
      "개발": 8708,
      "거듭": 8709,
      "고수": 8710,
      "공허": 8711,
      "구혜": 8712,
      "그치다": 8713,
      "금지": 8714,
      "까맣다": 8715,
      "께서": 8716,
      "난국": 8717,
      "노튼": 8718,
      "대고": 8719,
      "더러": 8720,
      "동감": 8721,
      "드라": 8722,
      "디스": 8723,
      "따스하다": 8724,
      "로운": 8725,
      "맺다": 8726,
      "명확하다": 8727,
      "무리다": 8728,
      "물어": 8729,
      "백배": 8730,
      "성장하다": 8731,
      "소품": 8732,
      "수위": 8733,
      "쓰이다": 8734,
      "어중": 8735,
      "어마": 8736,
      "열다": 8737,
      "올려주다": 8738,
      "완죤": 8739,
      "우롱": 8740,
      "유령": 8741,
      "유혹": 8742,
      "장미": 8743,
      "정석": 8744,
      "쪽팔": 8745,
      "청년": 8746,
      "컬트": 8747,
      "태권": 8748,
      "파고": 8749,
      "팝콘": 8750,
      "한정": 8751,
      "합치다": 8752,
      "화중": 8753,
      "황금": 8754,
      "후기": 8755,
      "힙합": 8756,
      "##데미": 8757,
      "##마하다": 8758,
      "##진희": 8759,
      "##민아": 8760,
      "##서트": 8761,
      "##곤하다": 8762,
      "##바로": 8763,
      "##생활": 8764,
      "##뚱맞": 8765,
      "한국어": 8766,
      "밖에는": 8767,
      "이정재": 8768,
      "다이하드": 8769,
      "최민식": 8770,
      "소지섭": 8771,
      "왕가위": 8772,
      "섬뜩하다": 8773,
      "어수선하다": 8774,
      "구혜선": 8775,
      "쪽팔리다": 8776,
      "mc": 8777,
      "가관": 8778,
      "가기": 8779,
      "감추다": 8780,
      "강아": 8781,
      "경악": 8782,
      "고작": 8783,
      "군더": 8784,
      "내려가다": 8785,
      "농담": 8786,
      "데미": 8787,
      "람보": 8788,
      "마구": 8789,
      "마디": 8790,
      "마스터": 8791,
      "말리다": 8792,
      "미니": 8793,
      "미술": 8794,
      "박정": 8795,
      "반감": 8796,
      "부드": 8797,
      "붉다": 8798,
      "비싸다": 8799,
      "샤론": 8800,
      "성유리": 8801,
      "송승": 8802,
      "신데": 8803,
      "신부": 8804,
      "실상": 8805,
      "심정": 8806,
      "아프": 8807,
      "엉뚱하다": 8808,
      "열리다": 8809,
      "오페": 8810,
      "왕자": 8811,
      "울음": 8812,
      "이의": 8813,
      "이순": 8814,
      "재주": 8815,
      "저희": 8816,
      "정점": 8817,
      "주온": 8818,
      "지대": 8819,
      "직장": 8820,
      "째다": 8821,
      "차별": 8822,
      "칠하다": 8823,
      "텐데": 8824,
      "팍팍": 8825,
      "학원": 8826,
      "##드라": 8827,
      "##저분하다": 8828,
      "##태현": 8829,
      "##남자": 8830,
      "##꼽다": 8831,
      "##와라": 8832,
      "사람과": 8833,
      "아이고": 8834,
      "재밋는": 8835,
      "197": 8836,
      "만족스럽다": 8837,
      "에로물": 8838,
      "불가능하다": 8839,
      "나머진": 8840,
      "싸이코패스": 8841,
      "##ㅎㅎㅎㅎ": 8842,
      "인도영화": 8843,
      "로버츠": 8844,
      "외로움": 8845,
      "일어나": 8846,
      "이탈리아": 8847,
      "어떠하다": 8848,
      "김명민": 8849,
      "강아지": 8850,
      "군더더기": 8851,
      "송승헌": 8852,
      "90": 8853,
      "ㄱㄱ": 8854,
      "가해": 8855,
      "가게": 8856,
      "감옥": 8857,
      "고도": 8858,
      "고치다": 8859,
      "국제": 8860,
      "긴박": 8861,
      "꺼내다": 8862,
      "끝판": 8863,
      "나비": 8864,
      "돌이": 8865,
      "뒤지다": 8866,
      "디자": 8867,
      "매주": 8868,
      "모독": 8869,
      "밟다": 8870,
      "벗기다": 8871,
      "사장": 8872,
      "사망": 8873,
      "살기": 8874,
      "새록": 8875,
      "색깔": 8876,
      "서인": 8877,
      "서서": 8878,
      "수십": 8879,
      "스무": 8880,
      "쎄다": 8881,
      "영광": 8882,
      "오인": 8883,
      "이외": 8884,
      "작전": 8885,
      "적나라": 8886,
      "젊은이": 8887,
      "주네": 8888,
      "주행": 8889,
      "지고": 8890,
      "지극": 8891,
      "지켜": 8892,
      "집안": 8893,
      "차분하다": 8894,
      "추구": 8895,
      "출현": 8896,
      "피디": 8897,
      "한글": 8898,
      "핸드": 8899,
      "헛웃음": 8900,
      "호감": 8901,
      "홧팅": 8902,
      "히스": 8903,
      "##스텔": 8904,
      "##비스": 8905,
      "##새록": 8906,
      "##아나": 8907,
      "##라면": 8908,
      "##광하다": 8909,
      "##해진": 8910,
      "##릭스": 8911,
      "##탈출": 8912,
      "##렐라": 8913,
      "보고서": 8914,
      "어쩌다": 8915,
      "대학생": 8916,
      "김태희": 8917,
      "엑스맨": 8918,
      "무식하다": 8919,
      "아카데미": 8920,
      "이은주": 8921,
      "깨달음": 8922,
      "부드럽다": 8923,
      "신데렐라": 8924,
      "새록새록": 8925,
      "지켜보다": 8926,
      "me": 8927,
      "간단하다": 8928,
      "강제": 8929,
      "구지": 8930,
      "기용": 8931,
      "기록": 8932,
      "기승": 8933,
      "깨끗": 8934,
      "내기": 8935,
      "댄스": 8936,
      "디젤": 8937,
      "마마": 8938,
      "몰락": 8939,
      "무적": 8940,
      "배드": 8941,
      "본성": 8942,
      "불만": 8943,
      "서정": 8944,
      "손꼽다": 8945,
      "스킵": 8946,
      "안드": 8947,
      "안성기": 8948,
      "앞서": 8949,
      "오마": 8950,
      "유의": 8951,
      "이중": 8952,
      "이형": 8953,
      "이스트": 8954,
      "임신": 8955,
      "자위": 8956,
      "잘나다": 8957,
      "저주": 8958,
      "정화": 8959,
      "정통": 8960,
      "주위": 8961,
      "줄리아": 8962,
      "지역": 8963,
      "찰리": 8964,
      "커녕": 8965,
      "클리": 8966,
      "파라": 8967,
      "펼치다": 8968,
      "학창": 8969,
      "학살": 8970,
      "호화": 8971,
      "히트": 8972,
      "##타쿠": 8973,
      "##사미": 8974,
      "##새다": 8975,
      "##리하다": 8976,
      "##플린": 8977,
      "##엇음": 8978,
      "##머리": 8979,
      "##세계": 8980,
      "##알바": 8981,
      "##펙트": 8982,
      "하고도": 8983,
      "시간대": 8984,
      "재밋네": 8985,
      "관람객": 8986,
      "더욱더": 8987,
      "신세경": 8988,
      "재방송": 8989,
      "애국심": 8990,
      "장동건": 8991,
      "드래곤볼": 8992,
      "불과하다": 8993,
      "오페라": 8994,
      "학창시절": 8995,
      "5년": 8996,
      "8년": 8997,
      "sm": 8998,
      "st": 8999,
      "가안": 9000,
      "감기": 9001,
      "강호": 9002,
      "강지": 9003,
      "건강": 9004,
      "걸이": 9005,
      "기쁘다": 9006,
      "김구": 9007,
      "김선": 9008,
      "노예": 9009,
      "도로": 9010,
      "따지다": 9011,
      "래야": 9012,
      "먼지": 9013,
      "멀리": 9014,
      "모순": 9015,
      "미장": 9016,
      "배속": 9017,
      "버스": 9018,
      "벌리다": 9019,
      "불안하다": 9020,
      "삼가다": 9021,
      "새삼": 9022,
      "수치": 9023,
      "신선": 9024,
      "알리다": 9025,
      "어딜": 9026,
      "이선": 9027,
      "재료": 9028,
      "잭슨": 9029,
      "적극": 9030,
      "절묘하다": 9031,
      "지인": 9032,
      "지적": 9033,
      "진영화": 9034,
      "차태현": 9035,
      "천만": 9036,
      "추악하다": 9037,
      "태양": 9038,
      "피곤하다": 9039,
      "할배": 9040,
      "함부": 9041,
      "행위": 9042,
      "헤어": 9043,
      "환장하다": 9044,
      "흐지": 9045,
      "##ff": 9046,
      "##포머": 9047,
      "##자리": 9048,
      "##준호": 9049,
      "##피아": 9050,
      "##10": 9051,
      "##은하다": 9052,
      "##센스": 9053,
      "장난감": 9054,
      "다운로드": 9055,
      "조차도": 9056,
      "123": 9057,
      "레이첼": 9058,
      "##나이트": 9059,
      "김민종": 9060,
      "##ㅇㅇㅇㅇ": 9061,
      "##000원": 9062,
      "원주율": 9063,
      "어중간하다": 9064,
      "지극히": 9065,
      "김구라": 9066,
      "함부로": 9067,
      "7년": 9068,
      "so": 9069,
      "ㅂㅅ": 9070,
      "각각": 9071,
      "간의": 9072,
      "경의": 9073,
      "경계": 9074,
      "고자": 9075,
      "고요": 9076,
      "괜찬": 9077,
      "그려지다": 9078,
      "나와라": 9079,
      "남지": 9080,
      "남매": 9081,
      "니당": 9082,
      "단역": 9083,
      "당당하다": 9084,
      "덴젤": 9085,
      "레드": 9086,
      "모방": 9087,
      "버그": 9088,
      "법정": 9089,
      "볼걸": 9090,
      "브리": 9091,
      "성찰": 9092,
      "송지": 9093,
      "수없이": 9094,
      "아나": 9095,
      "양반": 9096,
      "에릭": 9097,
      "역다": 9098,
      "엽문": 9099,
      "오리": 9100,
      "오유": 9101,
      "올드": 9102,
      "유우": 9103,
      "임청": 9104,
      "장이": 9105,
      "재현": 9106,
      "저렇다": 9107,
      "제왕": 9108,
      "종합": 9109,
      "지저분하다": 9110,
      "차마": 9111,
      "카피": 9112,
      "쿵푸": 9113,
      "토끼": 9114,
      "퍼스": 9115,
      "펼쳐": 9116,
      "한텐": 9117,
      "허구": 9118,
      "##스틴": 9119,
      "##데이": 9120,
      "##리즘": 9121,
      "##역사": 9122,
      "##et": 9123,
      "##니버스": 9124,
      "##인드": 9125,
      "##프레": 9126,
      "##저리": 9127,
      "##조하다": 9128,
      "##♡♥": 9129,
      "아이러": 9130,
      "재밋었": 9131,
      "미국인": 9132,
      "ㅋㅋㅋㅋㅋㅋㅋㅋㅋㅋㅋㅋㅋ": 9133,
      "이연희": 9134,
      "러브스토리": 9135,
      "이민기": 9136,
      "흉내내": 9137,
      "다크나이트": 9138,
      "사무라이": 9139,
      "엑소시": 9140,
      "공중파": 9141,
      "황정민": 9142,
      "전도연": 9143,
      "어정쩡하다": 9144,
      "감수성": 9145,
      "간간히": 9146,
      "적나라하다": 9147,
      "미장센": 9148,
      "흐지부지": 9149,
      "니당다": 9150,
      "임청하": 9151,
      "28": 9152,
      "3분": 9153,
      "lov": 9154,
      "가을": 9155,
      "가난": 9156,
      "거야": 9157,
      "구원": 9158,
      "김영": 9159,
      "꾸미다": 9160,
      "답지": 9161,
      "대비": 9162,
      "덜덜": 9163,
      "또는": 9164,
      "뜯다": 9165,
      "마을": 9166,
      "마틴": 9167,
      "망설": 9168,
      "명도": 9169,
      "박평": 9170,
      "부디": 9171,
      "부각": 9172,
      "사형": 9173,
      "성함": 9174,
      "신민아": 9175,
      "쏟아지다": 9176,
      "아시": 9177,
      "아자": 9178,
      "엉터리": 9179,
      "와중": 9180,
      "요약": 9181,
      "우아": 9182,
      "위기": 9183,
      "잠자다": 9184,
      "전해지다": 9185,
      "조승우": 9186,
      "중요": 9187,
      "지네": 9188,
      "징징": 9189,
      "초기": 9190,
      "친일": 9191,
      "크루즈": 9192,
      "톰크": 9193,
      "퇴보": 9194,
      "허탈": 9195,
      "홍진": 9196,
      "##스카": 9197,
      "##스키": 9198,
      "##스펜": 9199,
      "##ic": 9200,
      "##니스": 9201,
      "##라고": 9202,
      "##랬는데": 9203,
      "##트라": 9204,
      "##미스": 9205,
      "##커스": 9206,
      "##들리": 9207,
      "##게봣": 9208,
      "##공주": 9209,
      "##않다": 9210,
      "oooo": 9211,
      "예술가": 9212,
      "2005년": 9213,
      "타이틀": 9214,
      "어지간하다": 9215,
      "스피드": 9216,
      "트랜스포머": 9217,
      "틀림없다": 9218,
      "아프리카": 9219,
      "펼쳐지다": 9220,
      "but": 9221,
      "ch": 9222,
      "on": 9223,
      "sbs": 9224,
      "강시": 9225,
      "광팬": 9226,
      "구려": 9227,
      "구멍": 9228,
      "김윤": 9229,
      "노골": 9230,
      "님들": 9231,
      "드립": 9232,
      "뚝뚝": 9233,
      "말르다": 9234,
      "맥스": 9235,
      "멤버": 9236,
      "변호": 9237,
      "보물": 9238,
      "부여": 9239,
      "불면": 9240,
      "비치": 9241,
      "섭외": 9242,
      "소수": 9243,
      "소문": 9244,
      "송혜": 9245,
      "식스": 9246,
      "신념": 9247,
      "씨발": 9248,
      "어떡": 9249,
      "에러": 9250,
      "엿보다": 9251,
      "이경": 9252,
      "인척": 9253,
      "잠수": 9254,
      "전사": 9255,
      "주고": 9256,
      "죽지": 9257,
      "지브리": 9258,
      "최하": 9259,
      "큐브": 9260,
      "튀어": 9261,
      "하디": 9262,
      "한예": 9263,
      "호텔": 9264,
      "혹평": 9265,
      "흑역사": 9266,
      "##다보다": 9267,
      "##하늘": 9268,
      "##요기": 9269,
      "##효진": 9270,
      "##스트라": 9271,
      "ㅋㅋㅋㅋㅋㅋㅋㅋㅋㅋㅋㅋ": 9272,
      "사기꾼": 9273,
      "♥♥♥♥": 9274,
      "유지태": 9275,
      "위원회": 9276,
      "인종차별": 9277,
      "공허하다": 9278,
      "망설이다": 9279,
      "톰크루즈": 9280,
      "24": 9281,
      "300": 9282,
      "htt": 9283,
      "가식": 9284,
      "가미": 9285,
      "강조": 9286,
      "공원": 9287,
      "교수": 9288,
      "극찬": 9289,
      "기념": 9290,
      "김소": 9291,
      "꼬맹이": 9292,
      "꼽히다": 9293,
      "나니": 9294,
      "냉정하다": 9295,
      "눈요기": 9296,
      "뉴욕": 9297,
      "리스": 9298,
      "리브": 9299,
      "머피": 9300,
      "멀쩡하다": 9301,
      "메인": 9302,
      "무색": 9303,
      "미야": 9304,
      "발레": 9305,
      "비정": 9306,
      "뽕짝": 9307,
      "생략": 9308,
      "성경": 9309,
      "신도": 9310,
      "아리": 9311,
      "아야": 9312,
      "어케": 9313,
      "엉엉": 9314,
      "에여": 9315,
      "역활": 9316,
      "울림": 9317,
      "원표": 9318,
      "윤아": 9319,
      "이던": 9320,
      "이예": 9321,
      "절반": 9322,
      "증명": 9323,
      "증말": 9324,
      "쫓다": 9325,
      "초능력": 9326,
      "타령": 9327,
      "특징": 9328,
      "피라": 9329,
      "환타지": 9330,
      "흥분": 9331,
      "히로": 9332,
      "##비디오": 9333,
      "##러티브": 9334,
      "##밀리": 9335,
      "##진짜": 9336,
      "##크스": 9337,
      "##프라이즈": 9338,
      "##범수": 9339,
      "##저나": 9340,
      "##유미": 9341,
      "ㅠㅠㅠㅠㅠㅠ": 9342,
      "만큼의": 9343,
      "그나저나": 9344,
      "나이트": 9345,
      "15분": 9346,
      "전투씬": 9347,
      "##ㅋㅋㅋㅋㅋㅋㅋㅋㅋㅋㅋㅋㅋㅋㅋㅋㅋㅋㅋㅋㅋㅋㅋㅋㅋㅋㅋㅋㅋㅋㅋㅋ": 9348,
      "오우삼": 9349,
      "윌리엄": 9350,
      "오인혜": 9351,
      "깨끗하다": 9352,
      "강지환": 9353,
      "아이러니": 9354,
      "http": 9355,
      "60": 9356,
      "고로": 9357,
      "공식": 9358,
      "구도": 9359,
      "그레이": 9360,
      "나나": 9361,
      "남발": 9362,
      "닥터": 9363,
      "더니": 9364,
      "동호": 9365,
      "디지다": 9366,
      "똑똑": 9367,
      "마크": 9368,
      "만듬": 9369,
      "몇개": 9370,
      "모야": 9371,
      "문성": 9372,
      "미이라": 9373,
      "밀리다": 9374,
      "바쁘다": 9375,
      "베트": 9376,
      "별다르다": 9377,
      "불후": 9378,
      "빼놓다": 9379,
      "뿌리": 9380,
      "사나이": 9381,
      "서사": 9382,
      "서프라이즈": 9383,
      "선율": 9384,
      "스카": 9385,
      "시민": 9386,
      "쓰러지다": 9387,
      "알리": 9388,
      "어의": 9389,
      "에스": 9390,
      "여우": 9391,
      "여왕": 9392,
      "열광하다": 9393,
      "오토": 9394,
      "용두": 9395,
      "워커": 9396,
      "원인": 9397,
      "으아": 9398,
      "이완": 9399,
      "이재": 9400,
      "일리": 9401,
      "장치": 9402,
      "장근": 9403,
      "장혁": 9404,
      "장나라": 9405,
      "전락": 9406,
      "전환": 9407,
      "절절": 9408,
      "젊음": 9409,
      "접근": 9410,
      "정성": 9411,
      "젖다": 9412,
      "조악하다": 9413,
      "존잼": 9414,
      "존내": 9415,
      "쥬라기": 9416,
      "쫒다": 9417,
      "찜찜": 9418,
      "초점": 9419,
      "치면": 9420,
      "퀴어": 9421,
      "파일": 9422,
      "패턴": 9423,
      "플레이": 9424,
      "흐뭇": 9425,
      "##ion": 9426,
      "##시키다": 9427,
      "##저기": 9428,
      "##너지": 9429,
      "##소영": 9430,
      "##덩이": 9431,
      "남자라면": 9432,
      "구성은": 9433,
      "여기저기": 9434,
      "2015년": 9435,
      "글쎄요": 9436,
      "인터뷰": 9437,
      "어처구니없다": 9438,
      "강력하다": 9439,
      "이러니": 9440,
      "스텝업": 9441,
      "송지효": 9442,
      "송혜교": 9443,
      "장근석": 9444,
      "6년": 9445,
      "and": 9446,
      "가사": 9447,
      "갇히다": 9448,
      "김남": 9449,
      "대만": 9450,
      "두려움": 9451,
      "따라오다": 9452,
      "땡기다": 9453,
      "똑바로": 9454,
      "마케": 9455,
      "매트": 9456,
      "모호하다": 9457,
      "박스": 9458,
      "밧다": 9459,
      "배려": 9460,
      "배틀": 9461,
      "밴드": 9462,
      "벅차다": 9463,
      "보스": 9464,
      "불필": 9465,
      "불행": 9466,
      "비롯": 9467,
      "세우다": 9468,
      "악플": 9469,
      "안함": 9470,
      "야마": 9471,
      "어서": 9472,
      "에어": 9473,
      "에든": 9474,
      "우익": 9475,
      "의학": 9476,
      "이신": 9477,
      "이혼": 9478,
      "이범수": 9479,
      "임수정": 9480,
      "자라다": 9481,
      "작렬": 9482,
      "잘봣": 9483,
      "저번": 9484,
      "종류": 9485,
      "주상": 9486,
      "준영": 9487,
      "지존": 9488,
      "진작": 9489,
      "찢다": 9490,
      "창의": 9491,
      "취급": 9492,
      "클린": 9493,
      "태우다": 9494,
      "퍼즐": 9495,
      "품다": 9496,
      "풍부하다": 9497,
      "헷갈리다": 9498,
      "호강": 9499,
      "홍금": 9500,
      "##비하다": 9501,
      "##겨지다": 9502,
      "##하면": 9503,
      "##현준": 9504,
      "##자키": 9505,
      "##무비": 9506,
      "##르르": 9507,
      "##ㅡㅡ": 9508,
      "##렉스": 9509,
      "에서야": 9510,
      "하나요": 9511,
      "재밋는데": 9512,
      "어쩌라고": 9513,
      "희망이": 9514,
      "대가리": 9515,
      "런닝맨": 9516,
      "와이프": 9517,
      "자본주의": 9518,
      "뮤직비디오": 9519,
      "해안가": 9520,
      "정당화": 9521,
      "가해자": 9522,
      "love": 9523,
      "미야자키": 9524,
      "흐뭇하다": 9525,
      "불필요하다": 9526,
      "주상욱": 9527,
      "do": 9528,
      "gt": 9529,
      "my": 9530,
      "가시": 9531,
      "가르다": 9532,
      "개잼": 9533,
      "거대하다": 9534,
      "걸치다": 9535,
      "계획": 9536,
      "고향": 9537,
      "과잉": 9538,
      "기어": 9539,
      "김성": 9540,
      "끊임": 9541,
      "노랗다": 9542,
      "노동자": 9543,
      "녹화": 9544,
      "닫다": 9545,
      "덜하다": 9546,
      "동료": 9547,
      "들보": 9548,
      "등급": 9549,
      "땜시": 9550,
      "루이스": 9551,
      "모성애": 9552,
      "무도": 9553,
      "문학": 9554,
      "물건": 9555,
      "미인": 9556,
      "미루다": 9557,
      "미묘하다": 9558,
      "박해": 9559,
      "부조": 9560,
      "빅뱅": 9561,
      "사토": 9562,
      "상치": 9563,
      "성숙하다": 9564,
      "수애": 9565,
      "싱크": 9566,
      "양동근": 9567,
      "언론": 9568,
      "에일": 9569,
      "올리": 9570,
      "외화": 9571,
      "외치다": 9572,
      "우월": 9573,
      "웅장": 9574,
      "이서": 9575,
      "일도": 9576,
      "일요일": 9577,
      "임권": 9578,
      "저녁": 9579,
      "전이": 9580,
      "전의": 9581,
      "접함": 9582,
      "조직": 9583,
      "졸음": 9584,
      "지원": 9585,
      "짐승": 9586,
      "체험": 9587,
      "쿨하다": 9588,
      "태도": 9589,
      "투표": 9590,
      "파악": 9591,
      "팔다": 9592,
      "피트": 9593,
      "활용": 9594,
      "후지": 9595,
      "훔치다": 9596,
      "휴먼": 9597,
      "##창하다": 9598,
      "##리나": 9599,
      "##문화": 9600,
      "##여행": 9601,
      "##웍스": 9602,
      "이나영": 9603,
      "정신차": 9604,
      "중국인": 9605,
      "크리스토": 9606,
      "남아돌다": 9607,
      "드림웍스": 9608,
      "##ㅜㅜㅜㅜ": 9609,
      "단편영화": 9610,
      "구역질": 9611,
      "##레인저": 9612,
      "용두사미": 9613,
      "홍금보": 9614,
      "끊임없다": 9615,
      "임권택": 9616,
      "35": 9617,
      "se": 9618,
      "가운": 9619,
      "건너": 9620,
      "검다": 9621,
      "게리": 9622,
      "경제": 9623,
      "고래": 9624,
      "구리다": 9625,
      "국적": 9626,
      "기리": 9627,
      "김대": 9628,
      "김현": 9629,
      "김재": 9630,
      "나빠지다": 9631,
      "난생": 9632,
      "높이": 9633,
      "눈뜨다": 9634,
      "느슨": 9635,
      "대도": 9636,
      "대전": 9637,
      "대장": 9638,
      "도입": 9639,
      "도통": 9640,
      "로우": 9641,
      "로보": 9642,
      "록키": 9643,
      "매혹": 9644,
      "면도": 9645,
      "모티브": 9646,
      "묘미": 9647,
      "무지하다": 9648,
      "물의": 9649,
      "미키": 9650,
      "미안": 9651,
      "밖엔": 9652,
      "병원": 9653,
      "부가": 9654,
      "사라": 9655,
      "사로": 9656,
      "서스펜": 9657,
      "선하다": 9658,
      "순정": 9659,
      "순진하다": 9660,
      "시리다": 9661,
      "어벤": 9662,
      "엉덩이": 9663,
      "에의": 9664,
      "역쉬": 9665,
      "오타쿠": 9666,
      "용감하다": 9667,
      "웨스": 9668,
      "은퇴": 9669,
      "이를": 9670,
      "일일": 9671,
      "일드": 9672,
      "자매": 9673,
      "작년": 9674,
      "적응": 9675,
      "정재": 9676,
      "증거": 9677,
      "직원": 9678,
      "진보": 9679,
      "짓거리": 9680,
      "차지": 9681,
      "총알": 9682,
      "침묵": 9683,
      "커지다": 9684,
      "크리": 9685,
      "타락": 9686,
      "펭귄": 9687,
      "해적": 9688,
      "헐크": 9689,
      "호소": 9690,
      "활동": 9691,
      "##혜정": 9692,
      "##엇어": 9693,
      "진짜진짜": 9694,
      "제작사": 9695,
      "2003년": 9696,
      "2012년": 9697,
      "유아인": 9698,
      "파워레인저": 9699,
      "박신양": 9700,
      "코스프레": 9701,
      "파고들다": 9702,
      "불면증": 9703,
      "어떡하다": 9704,
      "마케팅": 9705,
      "느슨하다": 9706,
      "서스펜스": 9707,
      "3년": 9708,
      "4년": 9709,
      "bg": 9710,
      "ㄹㅇ": 9711,
      "간첩": 9712,
      "갈아": 9713,
      "거만": 9714,
      "경이": 9715,
      "경기": 9716,
      "고발": 9717,
      "곱씹": 9718,
      "긍정": 9719,
      "기차": 9720,
      "기쁨": 9721,
      "김동": 9722,
      "나마": 9723,
      "날로": 9724,
      "닌자": 9725,
      "대감": 9726,
      "디아": 9727,
      "레즈": 9728,
      "로렌": 9729,
      "먹히다": 9730,
      "메리": 9731,
      "멘붕": 9732,
      "무성": 9733,
      "물씬": 9734,
      "미리": 9735,
      "미개": 9736,
      "박사": 9737,
      "분석": 9738,
      "불안": 9739,
      "삽입": 9740,
      "서방": 9741,
      "소방": 9742,
      "슬래": 9743,
      "아르": 9744,
      "악의": 9745,
      "앞서다": 9746,
      "양조": 9747,
      "여정": 9748,
      "온몸": 9749,
      "워싱": 9750,
      "웹툰": 9751,
      "저기": 9752,
      "존중": 9753,
      "종일": 9754,
      "주체": 9755,
      "주원": 9756,
      "주옥": 9757,
      "중이": 9758,
      "진지": 9759,
      "추락": 9760,
      "컨저": 9761,
      "파트": 9762,
      "행크스": 9763,
      "훈련": 9764,
      "##스케": 9765,
      "##요미": 9766,
      "##장애": 9767,
      "##바닥": 9768,
      "##더스": 9769,
      "##맹랑": 9770,
      "##까지": 9771,
      "##넣다": 9772,
      "오랜만": 9773,
      "2004년": 9774,
      "허무맹랑": 9775,
      "자유롭다": 9776,
      "스티브": 9777,
      "기독교인": 9778,
      "파이팅": 9779,
      "예수님": 9780,
      "가져오다": 9781,
      "강호동": 9782,
      "엑소시스트": 9783,
      "식스센스": 9784,
      "곱씹다": 9785,
      "양조위": 9786,
      "컨저링": 9787,
      "am": 9788,
      "go": 9789,
      "im": 9790,
      "강혜정": 9791,
      "거뭐": 9792,
      "고정": 9793,
      "고고": 9794,
      "곳곳": 9795,
      "구라": 9796,
      "권하다": 9797,
      "그땐": 9798,
      "긋다": 9799,
      "기간": 9800,
      "김강": 9801,
      "꺼리다": 9802,
      "나발": 9803,
      "노리다": 9804,
      "다기": 9805,
      "도하": 9806,
      "마루": 9807,
      "맛깔": 9808,
      "메가": 9809,
      "몬스터": 9810,
      "무관": 9811,
      "발생": 9812,
      "사연": 9813,
      "서기": 9814,
      "성지": 9815,
      "스톤": 9816,
      "실소": 9817,
      "쓰기": 9818,
      "아키": 9819,
      "아시아": 9820,
      "암살": 9821,
      "오디": 9822,
      "욕구": 9823,
      "용가리": 9824,
      "으으": 9825,
      "은은하다": 9826,
      "이분": 9827,
      "익다": 9828,
      "저절": 9829,
      "저렴": 9830,
      "전세계": 9831,
      "제국": 9832,
      "조조": 9833,
      "주목": 9834,
      "줄이다": 9835,
      "차이다": 9836,
      "창작": 9837,
      "최저": 9838,
      "탕웨이": 9839,
      "필수": 9840,
      "하차": 9841,
      "호프": 9842,
      "혹성": 9843,
      "화만": 9844,
      "환불": 9845,
      "활약": 9846,
      "휴가": 9847,
      "##이트": 9848,
      "##ch": 9849,
      "##라드": 9850,
      "##재현": 9851,
      "##바리": 9852,
      "##들러": 9853,
      "##틀러": 9854,
      "##센트": 9855,
      "##쟁이": 9856,
      "으로나": 9857,
      "으로가": 9858,
      "지금껏": 9859,
      "미국영화": 9860,
      "ㄷㄷㄷㄷ": 9861,
      "ㅋㅋㅋㅋㅋㅋㅋㅋㅋㅋㅋㅋㅋㅋ": 9862,
      "호러물": 9863,
      "##ore": 9864,
      "하이킥": 9865,
      "인터스텔": 9866,
      "부탁드리다": 9867,
      "자랑스럽다": 9868,
      "줄리엣": 9869,
      "이동욱": 9870,
      "이성재": 9871,
      "일베충": 9872,
      "이승기": 9873,
      "이순신": 9874,
      "클리셰": 9875,
      "우아하다": 9876,
      "홍진호": 9877,
      "잠수함": 9878,
      "똑똑하다": 9879,
      "베트남": 9880,
      "찜찜하다": 9881,
      "bgm": 9882,
      "슬래셔": 9883,
      "워싱턴": 9884,
      "김강우": 9885,
      "저절로": 9886,
      "인터스텔라": 9887,
      "50년": 9888,
      "bbb": 9889,
      "li": 9890,
      "ㄴㄴ": 9891,
      "가위": 9892,
      "거울": 9893,
      "격전": 9894,
      "고찰": 9895,
      "공존": 9896,
      "구르다": 9897,
      "귀가": 9898,
      "귀요미": 9899,
      "글구": 9900,
      "금요일": 9901,
      "김하늘": 9902,
      "깨지다": 9903,
      "날아가다": 9904,
      "노말": 9905,
      "망상": 9906,
      "미사": 9907,
      "미흡": 9908,
      "박지": 9909,
      "법칙": 9910,
      "부러": 9911,
      "부턴": 9912,
      "브레이": 9913,
      "비비": 9914,
      "비유": 9915,
      "상의": 9916,
      "서극": 9917,
      "습작": 9918,
      "실컷": 9919,
      "아웃": 9920,
      "언급": 9921,
      "얽히다": 9922,
      "여진": 9923,
      "연장": 9924,
      "영감": 9925,
      "예매": 9926,
      "오류": 9927,
      "왤다": 9928,
      "이념": 9929,
      "일생": 9930,
      "자제": 9931,
      "잘살다": 9932,
      "장인": 9933,
      "장쯔": 9934,
      "장편": 9935,
      "죽여주다": 9936,
      "지니": 9937,
      "찬란": 9938,
      "창조": 9939,
      "최진": 9940,
      "충무": 9941,
      "트릭": 9942,
      "파이다": 9943,
      "푸른": 9944,
      "화해": 9945,
      "황비": 9946,
      "훈남": 9947,
      "##지우": 9948,
      "##가니": 9949,
      "##고리": 9950,
      "##고하다": 9951,
      "##보고": 9952,
      "##칙하다": 9953,
      "##홀하다": 9954,
      "가슴속": 9955,
      "조금씩": 9956,
      "그러하다": 9957,
      "this": 9958,
      "아역배우": 9959,
      "무리수": 9960,
      "top": 9961,
      "인디아나": 9962,
      "이준기": 9963,
      "두근거리다": 9964,
      "고질라": 9965,
      "집어넣다": 9966,
      "디자인": 9967,
      "비정상": 9968,
      "매트릭스": 9969,
      "에일리언": 9970,
      "크리스토퍼": 9971,
      "저렴하다": 9972,
      "혹성탈출": 9973,
      "장쯔이": 9974,
      "14년": 9975,
      "3일": 9976,
      "bl": 9977,
      "ever": 9978,
      "na": 9979,
      "감당": 9980,
      "개망": 9981,
      "거창하다": 9982,
      "건아": 9983,
      "경쾌하다": 9984,
      "극한": 9985,
      "나약하다": 9986,
      "내러티브": 9987,
      "뇌리": 9988,
      "다문화": 9989,
      "대형": 9990,
      "대책": 9991,
      "덕후": 9992,
      "도덕": 9993,
      "동아리": 9994,
      "레인": 9995,
      "리오": 9996,
      "마초": 9997,
      "만날": 9998,
      "명곡": 9999,
      "물리다": 10000,
      "미군": 10001,
      "보호": 10002,
      "봣다": 10003,
      "부재": 10004,
      "불러": 10005,
      "불리다": 10006,
      "비명": 10007,
      "비난": 10008,
      "사귀": 10009,
      "샤를": 10010,
      "소박하다": 10011,
      "속도": 10012,
      "수다": 10013,
      "스마": 10014,
      "시르다": 10015,
      "신현준": 10016,
      "안티": 10017,
      "애도": 10018,
      "여동생": 10019,
      "예의": 10020,
      "옹박": 10021,
      "용의": 10022,
      "인공": 10023,
      "일기": 10024,
      "자라": 10025,
      "저예": 10026,
      "전국": 10027,
      "전적": 10028,
      "절실": 10029,
      "조인": 10030,
      "지리": 10031,
      "질투": 10032,
      "치기": 10033,
      "카이": 10034,
      "콘서트": 10035,
      "콤비": 10036,
      "클루": 10037,
      "풍기다": 10038,
      "플래": 10039,
      "한장": 10040,
      "한두": 10041,
      "해주": 10042,
      "허니": 10043,
      "현빈": 10044,
      "흥겹다": 10045,
      "##타다": 10046,
      "##애니": 10047,
      "##ht": 10048,
      "##ill": 10049,
      "##일으키다": 10050,
      "##래도": 10051,
      "##현정": 10052,
      "##드리": 10053,
      "##산영화": 10054,
      "##을때": 10055,
      "##프트": 10056,
      "##게임": 10057,
      "##피트": 10058,
      "##두근": 10059,
      "##었다": 10060,
      "##왜곡": 10061,
      "##솔하다": 10062,
      "1000": 10063,
      "에게나": 10064,
      "에게서": 10065,
      "아무래도": 10066,
      "역사왜곡": 10067,
      "어느새다": 10068,
      "그러니까": 10069,
      "케이트": 10070,
      "##머니즘": 10071,
      "설레임": 10072,
      "사다코": 10073,
      "어찌나": 10074,
      "해리슨": 10075,
      "주지훈": 10076,
      "신비롭다": 10077,
      "런닝타임": 10078,
      "두근두근": 10079,
      "♡♡♡": 10080,
      "브래드피트": 10081,
      "샤론스톤": 10082,
      "가난하다": 10083,
      "튀어나오다": 10084,
      "박해일": 10085,
      "정재영": 10086,
      "황비홍": 10087,
      "불러일으키다": 10088,
      "사귀다": 10089,
      "저예산영화": 10090,
      "23": 10091,
      "up": 10092,
      "간절하다": 10093,
      "갑작": 10094,
      "갑갑": 10095,
      "개구": 10096,
      "건드리다": 10097,
      "고백": 10098,
      "광주": 10099,
      "긴박하다": 10100,
      "김보": 10101,
      "나열": 10102,
      "농구": 10103,
      "대리": 10104,
      "대치": 10105,
      "동기": 10106,
      "따윈": 10107,
      "때메": 10108,
      "롯데": 10109,
      "루크": 10110,
      "마주": 10111,
      "마츠": 10112,
      "마땅": 10113,
      "말기": 10114,
      "모델": 10115,
      "무니": 10116,
      "무려": 10117,
      "미로": 10118,
      "미지": 10119,
      "박하": 10120,
      "버금": 10121,
      "볼껄": 10122,
      "부리": 10123,
      "불친": 10124,
      "빼앗": 10125,
      "사정": 10126,
      "삼다": 10127,
      "서영": 10128,
      "서우": 10129,
      "서민": 10130,
      "선전": 10131,
      "슈렉": 10132,
      "스캔": 10133,
      "신앙": 10134,
      "실종": 10135,
      "쏠쏠": 10136,
      "아리다": 10137,
      "악평": 10138,
      "안질": 10139,
      "알차다": 10140,
      "압박": 10141,
      "어딨": 10142,
      "에리": 10143,
      "에너지": 10144,
      "연령": 10145,
      "이스": 10146,
      "이슬": 10147,
      "자비": 10148,
      "자료": 10149,
      "작업": 10150,
      "종이": 10151,
      "지성": 10152,
      "진화": 10153,
      "진주": 10154,
      "채플린": 10155,
      "충만": 10156,
      "측면": 10157,
      "크로우": 10158,
      "테론": 10159,
      "토마스": 10160,
      "통수": 10161,
      "트루": 10162,
      "프렌": 10163,
      "한가": 10164,
      "한없이": 10165,
      "현장": 10166,
      "화답": 10167,
      "황제": 10168,
      "회복": 10169,
      "후진": 10170,
      "##스틱": 10171,
      "##어마하다": 10172,
      "##op": 10173,
      "##ve": 10174,
      "##차기": 10175,
      "##아라": 10176,
      "##ul": 10177,
      "##려놓다": 10178,
      "##효과": 10179,
      "##부림": 10180,
      "##깁슨": 10181,
      "##메오": 10182,
      "##막하다": 10183,
      "##겠다": 10184,
      "##ㅉㅉ": 10185,
      "쓰레기통": 10186,
      "이라기": 10187,
      "우리네": 10188,
      "이지나": 10189,
      "그러면": 10190,
      "가치관": 10191,
      "2014": 10192,
      "크리스틴": 10193,
      "##♥♥♥♥": 10194,
      "레이싱": 10195,
      "투자자": 10196,
      "조선족": 10197,
      "프레디": 10198,
      "시스템": 10199,
      "물어보다": 10200,
      "어마어마하다": 10201,
      "한예슬": 10202,
      "충무로": 10203,
      "안질리다": 10204,
      "어딨다": 10205,
      "2회": 10206,
      "99": 10207,
      "fu": 10208,
      "la": 10209,
      "sn": 10210,
      "가버리다": 10211,
      "개미": 10212,
      "개독": 10213,
      "게왜": 10214,
      "고려": 10215,
      "고급": 10216,
      "공개": 10217,
      "교감": 10218,
      "근거": 10219,
      "기네": 10220,
      "까메오": 10221,
      "꼽는": 10222,
      "나인": 10223,
      "넓다": 10224,
      "높아지다": 10225,
      "다한": 10226,
      "대기": 10227,
      "대략": 10228,
      "데드": 10229,
      "도아": 10230,
      "독도": 10231,
      "동방": 10232,
      "듣보": 10233,
      "라마": 10234,
      "라곤": 10235,
      "러시": 10236,
      "리스트": 10237,
      "리들리": 10238,
      "마인드": 10239,
      "매년": 10240,
      "멍하다": 10241,
      "문근": 10242,
      "미만": 10243,
      "보장": 10244,
      "불꽃": 10245,
      "사전": 10246,
      "살아오다": 10247,
      "상투": 10248,
      "선배": 10249,
      "세이": 10250,
      "세라": 10251,
      "수정": 10252,
      "스칼": 10253,
      "신성": 10254,
      "신들리다": 10255,
      "쌓이다": 10256,
      "아랫": 10257,
      "안젤": 10258,
      "안목": 10259,
      "앵글": 10260,
      "어둠": 10261,
      "어르다": 10262,
      "어려움": 10263,
      "오싹": 10264,
      "옹호": 10265,
      "요구": 10266,
      "우스": 10267,
      "웨슬리": 10268,
      "유도": 10269,
      "유오": 10270,
      "유부": 10271,
      "육체": 10272,
      "일대기": 10273,
      "작정": 10274,
      "장군": 10275,
      "재일": 10276,
      "재회": 10277,
      "조각": 10278,
      "조재현": 10279,
      "중세": 10280,
      "지니다": 10281,
      "진구": 10282,
      "진솔하다": 10283,
      "질린다": 10284,
      "쫄깃": 10285,
      "처참하다": 10286,
      "표본": 10287,
      "하트": 10288,
      "한쪽": 10289,
      "함정": 10290,
      "합리": 10291,
      "허전하다": 10292,
      "형성": 10293,
      "화평": 10294,
      "회장": 10295,
      "휴머니즘": 10296,
      "##이야": 10297,
      "##비아": 10298,
      "##ld": 10299,
      "##데터": 10300,
      "##사이": 10301,
      "##리타": 10302,
      "##리어": 10303,
      "##리칸": 10304,
      "##돌이": 10305,
      "##그리": 10306,
      "##액션": 10307,
      "##렷하다": 10308,
      "##져스": 10309,
      "##은혜": 10310,
      "##브이": 10311,
      "##규리": 10312,
      "이라곤": 10313,
      "시청율": 10314,
      "다음주": 10315,
      "2001년": 10316,
      "다가가다": 10317,
      "2012": 10318,
      "2013년": 10319,
      "12년": 10320,
      "멍청이": 10321,
      "호러영화": 10322,
      "리즈시절": 10323,
      "현대인": 10324,
      "not": 10325,
      "와이어": 10326,
      "프레데터": 10327,
      "되돌아보다": 10328,
      "따라서": 10329,
      "아메리칸": 10330,
      "로보캅": 10331,
      "로렌스": 10332,
      "naver": 10333,
      "조인성": 10334,
      "마땅하다": 10335,
      "불친절하다": 10336,
      "듣보잡": 10337,
      "문근영": 10338,
      "스칼렛": 10339,
      "유오성": 10340,
      "ㅅㅅ": 10341,
      "가문": 10342,
      "각인": 10343,
      "건축": 10344,
      "고소영": 10345,
      "고현정": 10346,
      "공효진": 10347,
      "교차": 10348,
      "까먹다": 10349,
      "눈부": 10350,
      "다수": 10351,
      "도박": 10352,
      "라디오": 10353,
      "리플": 10354,
      "리더": 10355,
      "맑은": 10356,
      "멜깁슨": 10357,
      "몰래": 10358,
      "반의": 10359,
      "발휘": 10360,
      "발톱": 10361,
      "버젼": 10362,
      "본드": 10363,
      "뵈다": 10364,
      "설치다": 10365,
      "솜씨": 10366,
      "수백": 10367,
      "슈스케": 10368,
      "스턴": 10369,
      "스틸": 10370,
      "스치다": 10371,
      "시보": 10372,
      "실존": 10373,
      "쌍욕": 10374,
      "알맹이": 10375,
      "어깨": 10376,
      "에반": 10377,
      "엑스트라": 10378,
      "예정": 10379,
      "원빈": 10380,
      "웨이": 10381,
      "윤계": 10382,
      "이진": 10383,
      "이뿌": 10384,
      "이남": 10385,
      "인셉": 10386,
      "임용": 10387,
      "자전": 10388,
      "자세": 10389,
      "자존": 10390,
      "자칫": 10391,
      "자빠지다": 10392,
      "잘쓰다": 10393,
      "적도": 10394,
      "제법": 10395,
      "조성": 10396,
      "조여": 10397,
      "지진희": 10398,
      "직전": 10399,
      "찌푸": 10400,
      "초심": 10401,
      "초콜": 10402,
      "친절하다": 10403,
      "콧물": 10404,
      "파란": 10405,
      "페미": 10406,
      "한결": 10407,
      "허영": 10408,
      "호평": 10409,
      "확신": 10410,
      "황홀하다": 10411,
      "효민": 10412,
      "##나미": 10413,
      "##hh": 10414,
      "##아주": 10415,
      "##el": 10416,
      "##니발": 10417,
      "##만화": 10418,
      "##인데": 10419,
      "##건강": 10420,
      "##고은": 10421,
      "##보단": 10422,
      "##달다": 10423,
      "##쉬다": 10424,
      "##잡이": 10425,
      "##팍하다": 10426,
      "까지의": 10427,
      "ㅠㅠㅠㅠㅠㅠㅠㅠㅠㅠ": 10428,
      "정신건강": 10429,
      "출연료": 10430,
      "##라이트": 10431,
      "주의자": 10432,
      "ㅠㅠㅠㅠㅠ": 10433,
      "흘러나오다": 10434,
      "에이리언": 10435,
      "치밀다": 10436,
      "신파극": 10437,
      "이민정": 10438,
      "##ent": 10439,
      "로드무비": 10440,
      "이러하다": 10441,
      "바이러스": 10442,
      "어째서": 10443,
      "민주주의": 10444,
      "이종석": 10445,
      "페이지": 10446,
      "지하철": 10447,
      "핸드폰": 10448,
      "김선아": 10449,
      "##♡♥♡♥": 10450,
      "변호사": 10451,
      "오토바이": 10452,
      "김남길": 10453,
      "클루니": 10454,
      "갑갑하다": 10455,
      "스캔들": 10456,
      "윤계상": 10457,
      "인셉션": 10458,
      "찌푸리다": 10459,
      "1억": 10460,
      "tr": 10461,
      "개떡": 10462,
      "거중": 10463,
      "건물": 10464,
      "고만": 10465,
      "구해": 10466,
      "그릇": 10467,
      "그딴": 10468,
      "글로": 10469,
      "금방": 10470,
      "급전": 10471,
      "기묘하다": 10472,
      "깜찍하다": 10473,
      "꼴리다": 10474,
      "나왓": 10475,
      "난이": 10476,
      "낯선": 10477,
      "내주다": 10478,
      "넘버": 10479,
      "놀람": 10480,
      "다케": 10481,
      "독창": 10482,
      "듯이": 10483,
      "딱좋다": 10484,
      "떄문": 10485,
      "똥폼": 10486,
      "띄우다": 10487,
      "맑다": 10488,
      "멋대로": 10489,
      "무작": 10490,
      "무장": 10491,
      "무얼": 10492,
      "물리": 10493,
      "방이": 10494,
      "백미": 10495,
      "변명": 10496,
      "병사": 10497,
      "불사": 10498,
      "사서": 10499,
      "사춘": 10500,
      "사막": 10501,
      "사소하다": 10502,
      "산드라": 10503,
      "삼국": 10504,
      "수호": 10505,
      "수술": 10506,
      "스탤": 10507,
      "승화": 10508,
      "시바": 10509,
      "악몽": 10510,
      "앓이": 10511,
      "어렷": 10512,
      "얼른": 10513,
      "엄태": 10514,
      "여명": 10515,
      "연쇄": 10516,
      "우마": 10517,
      "유작": 10518,
      "유희": 10519,
      "이브": 10520,
      "인증": 10521,
      "잉여": 10522,
      "자하": 10523,
      "잡지": 10524,
      "장만": 10525,
      "재기": 10526,
      "전통": 10527,
      "정글": 10528,
      "정돈": 10529,
      "종말": 10530,
      "줄알": 10531,
      "채민": 10532,
      "추적": 10533,
      "치열하다": 10534,
      "카타": 10535,
      "코스트": 10536,
      "통한": 10537,
      "통일": 10538,
      "통쾌": 10539,
      "판치다": 10540,
      "평타": 10541,
      "피로": 10542,
      "피우다": 10543,
      "하필": 10544,
      "한수": 10545,
      "한때": 10546,
      "해대": 10547,
      "헤헤": 10548,
      "현상": 10549,
      "후유": 10550,
      "훼손": 10551,
      "흡사하다": 10552,
      "희한": 10553,
      "##스코": 10554,
      "##어들다": 10555,
      "##fe": 10556,
      "##시고": 10557,
      "##ap": 10558,
      "##all": 10559,
      "##마자": 10560,
      "##구다": 10561,
      "##만원": 10562,
      "##슴다": 10563,
      "##슬기": 10564,
      "##수하다": 10565,
      "##레미": 10566,
      "##버트": 10567,
      "##달리다": 10568,
      "##소설": 10569,
      "##11": 10570,
      "##납다": 10571,
      "##ㅗㅗ": 10572,
      "에서부터": 10573,
      "까지가": 10574,
      "사랑과": 10575,
      "이상형": 10576,
      "아주아주": 10577,
      "만큼도": 10578,
      "##라이언": 10579,
      "아마도": 10580,
      "데이먼": 10581,
      "결과물": 10582,
      "##이스토리": 10583,
      "##ant": 10584,
      "한지민": 10585,
      "##oooooooo": 10586,
      "자아내다": 10587,
      "나오니": 10588,
      "모니터": 10589,
      "허탈하다": 10590,
      "피라냐": 10591,
      "문성우": 10592,
      "클린트": 10593,
      "가운데": 10594,
      "여진구": 10595,
      "갑작스럽다": 10596,
      "눈부시다": 10597,
      "사춘기": 10598,
      "2일": 10599,
      "cf": 10600,
      "ne": 10601,
      "강인": 10602,
      "강철": 10603,
      "걸레": 10604,
      "결합": 10605,
      "경쟁": 10606,
      "골든": 10607,
      "공리": 10608,
      "공격": 10609,
      "괴작": 10610,
      "군데": 10611,
      "근본": 10612,
      "기계": 10613,
      "기부": 10614,
      "끊어지다": 10615,
      "내겐": 10616,
      "단조": 10617,
      "대구": 10618,
      "더보": 10619,
      "독백": 10620,
      "동의": 10621,
      "뒤통": 10622,
      "린치": 10623,
      "막스": 10624,
      "망신": 10625,
      "매회": 10626,
      "매튜": 10627,
      "모래": 10628,
      "무책": 10629,
      "무능하다": 10630,
      "바랬": 10631,
      "발암": 10632,
      "백만": 10633,
      "본받다": 10634,
      "볼땐": 10635,
      "부의": 10636,
      "부수": 10637,
      "비평": 10638,
      "사의": 10639,
      "소린": 10640,
      "소외": 10641,
      "수영": 10642,
      "수퍼": 10643,
      "아따": 10644,
      "악인": 10645,
      "어물": 10646,
      "어쩐": 10647,
      "어보": 10648,
      "어줍": 10649,
      "어메이": 10650,
      "에혀": 10651,
      "여실": 10652,
      "오드리": 10653,
      "옴니버스": 10654,
      "운전": 10655,
      "유역": 10656,
      "이요": 10657,
      "이슈": 10658,
      "인과": 10659,
      "일제": 10660,
      "자마자": 10661,
      "장기": 10662,
      "전무": 10663,
      "정적": 10664,
      "정답": 10665,
      "정유미": 10666,
      "제공": 10667,
      "조커": 10668,
      "좌파": 10669,
      "주장": 10670,
      "지능": 10671,
      "진의": 10672,
      "질주": 10673,
      "집합": 10674,
      "찍히다": 10675,
      "치가": 10676,
      "치명": 10677,
      "털리다": 10678,
      "토르": 10679,
      "튀기다": 10680,
      "팬심": 10681,
      "행운": 10682,
      "허준": 10683,
      "후의": 10684,
      "히치": 10685,
      "##랑이": 10686,
      "##대전": 10687,
      "##일체": 10688,
      "##구구": 10689,
      "##구석": 10690,
      "##ust": 10691,
      "##지마": 10692,
      "##기스": 10693,
      "##고싶": 10694,
      "##을까": 10695,
      "##카시": 10696,
      "##학생": 10697,
      "##괴담": 10698,
      "##필드": 10699,
      "##런스": 10700,
      "##젝트": 10701,
      "감독판": 10702,
      "한국말": 10703,
      "그리스": 10704,
      "아이리스": 10705,
      "라고는": 10706,
      "남자친구": 10707,
      "관객수": 10708,
      "그만두다": 10709,
      "2008년": 10710,
      "ㅋㅋㅋㅋㅋㅋㅋㅋㅋㅋㅋㅋㅋㅋㅋㅋㅋㅋㅋㅋㅋㅋㅋㅋㅋㅋㅋ": 10711,
      "댓글알바": 10712,
      "데이트": 10713,
      "또다시": 10714,
      "김수로": 10715,
      "what": 10716,
      "##★☆★☆★☆★☆": 10717,
      "서인국": 10718,
      "서서히": 10719,
      "이선균": 10720,
      "정신차리다": 10721,
      "사로자다": 10722,
      "어벤져스": 10723,
      "소방관": 10724,
      "미흡하다": 10725,
      "##이야기": 10726,
      "이뿌다": 10727,
      "스탤론": 10728,
      "채민서": 10729,
      "후유증": 10730,
      "뒤통수": 10731,
      "무책임": 10732,
      "어메이징": 10733,
      "각성": 10734,
      "강남": 10735,
      "거대": 10736,
      "거여": 10737,
      "계단": 10738,
      "고기": 10739,
      "공기": 10740,
      "과제": 10741,
      "구매": 10742,
      "그룹": 10743,
      "기막히다": 10744,
      "김래": 10745,
      "나뉘": 10746,
      "낚임": 10747,
      "농락": 10748,
      "대변": 10749,
      "돌아다니다": 10750,
      "동참": 10751,
      "되새": 10752,
      "리언": 10753,
      "마련": 10754,
      "마피아": 10755,
      "먹이다": 10756,
      "명량": 10757,
      "명예": 10758,
      "못지": 10759,
      "미남": 10760,
      "박영": 10761,
      "박현": 10762,
      "받치다": 10763,
      "보영": 10764,
      "복제": 10765,
      "봉태": 10766,
      "봣던": 10767,
      "부대": 10768,
      "분신": 10769,
      "사르다": 10770,
      "셜록": 10771,
      "소비": 10772,
      "소림": 10773,
      "수식": 10774,
      "스탭": 10775,
      "시네": 10776,
      "신동": 10777,
      "신은경": 10778,
      "심해": 10779,
      "심심": 10780,
      "쓰나미": 10781,
      "아날": 10782,
      "안고": 10783,
      "안듬": 10784,
      "압축": 10785,
      "얄팍하다": 10786,
      "양산": 10787,
      "어드": 10788,
      "어유": 10789,
      "어쨋": 10790,
      "에야": 10791,
      "여야": 10792,
      "오만": 10793,
      "와나": 10794,
      "유전": 10795,
      "의존": 10796,
      "이주": 10797,
      "이내": 10798,
      "인피": 10799,
      "일방": 10800,
      "자가": 10801,
      "잔혹": 10802,
      "잘해": 10803,
      "장수": 10804,
      "장선": 10805,
      "재연": 10806,
      "저격": 10807,
      "제한": 10808,
      "제인": 10809,
      "제레미": 10810,
      "조디": 10811,
      "주신": 10812,
      "주민": 10813,
      "주어지다": 10814,
      "지속": 10815,
      "짐작": 10816,
      "쬐다": 10817,
      "차기": 10818,
      "천하": 10819,
      "취미": 10820,
      "치르다": 10821,
      "침대": 10822,
      "케로로": 10823,
      "쾌감": 10824,
      "큰일": 10825,
      "타입": 10826,
      "타짜": 10827,
      "태극": 10828,
      "털다": 10829,
      "토미": 10830,
      "토이스토리": 10831,
      "팬티": 10832,
      "평정": 10833,
      "필립": 10834,
      "한몫": 10835,
      "해달": 10836,
      "헌터": 10837,
      "혼나다": 10838,
      "휴지": 10839,
      "##스미스": 10840,
      "##나무": 10841,
      "##시스": 10842,
      "##의제": 10843,
      "##일랜드": 10844,
      "##ain": 10845,
      "##니트": 10846,
      "##db": 10847,
      "##라하다": 10848,
      "##현우": 10849,
      "##녀유": 10850,
      "##45": 10851,
      "##서린": 10852,
      "##서블": 10853,
      "##장면": 10854,
      "##장난": 10855,
      "##오래": 10856,
      "##렁하다": 10857,
      "##ㄹㄹ": 10858,
      "##릴라": 10859,
      "##결하다": 10860,
      "##극장": 10861,
      "드라마틱": 10862,
      "100분": 10863,
      "일본애니": 10864,
      "이라고는": 10865,
      "오래오래": 10866,
      "어울림": 10867,
      "주제곡": 10868,
      "관계자": 10869,
      "불가능": 10870,
      "진실되다": 10871,
      "스트립": 10872,
[...]
