{
  "version": "1.0",
  "truncation": null,
  "padding": null,
  "added_tokens": [
    {
      "id": 0,
      "content": "[PAD]",
      "single_word": false,
      "lstrip": false,
      "rstrip": false,
      "normalized": false,
      "special": true
    },
    {
      "id": 1,
      "content": "[UNK]",
      "single_word": false,
      "lstrip": false,
      "rstrip": false,
      "normalized": false,
      "special": true
    },
    {
      "id": 2,
      "content": "[SOS]",
      "single_word": false,
      "lstrip": false,
      "rstrip": false,
      "normalized": false,
      "special": true
    },
    {
      "id": 3,
      "content": "[EOS]",
      "single_word": false,
      "lstrip": false,
      "rstrip": false,
      "normalized": false,
      "special": true
    }
  ],
  "normalizer": null,
  "pre_tokenizer": {
    "type": "Whitespace"
  },
  "post_processor": null,
  "decoder": null,
  "model": {
    "type": "BPE",
    "dropout": null,
    "unk_token": "[UNK]",
    "continuing_subword_prefix": "##",
    "end_of_word_suffix": null,
    "fuse_unk": false,
    "byte_fallback": false,
    "ignore_merges": false,
    "vocab": {
      "[PAD]": 0,
      "[UNK]": 1,
      "[SOS]": 2,
      "[EOS]": 3,
      "!": 4,
      "%": 5,
      "'": 6,
      ",": 7,
      "-": 8,
      ".": 9,
      "0": 10,
      "1": 11,
      "2": 12,
      "3": 13,
      "4": 14,
      "5": 15,
      "6": 16,
      "7": 17,
      "8": 18,
      "9": 19,
      ";": 20,
      "?": 21,
      "A": 22,
      "B": 23,
      "C": 24,
      "D": 25,
      "L": 26,
      "N": 27,
      "O": 28,
      "P": 29,
      "S": 30,
      "X": 31,
      "_": 32,
      "a": 33,
      "c": 34,
      "g": 35,
      "j": 36,
      "k": 37,
      "n": 38,
      "o": 39,
      "s": 40,
      "~": 41,
      "…": 42,
      "ㅊ": 43,
      "ㅋ": 44,
      "ㅎ": 45,
      "ㅜ": 46,
      "ㅠ": 47,
      "가": 48,
      "각": 49,
      "간": 50,
      "갇": 51,
      "갈": 52,
      "감": 53,
      "갑": 54,
      "값": 55,
      "갔": 56,
      "강": 57,
      "갖": 58,
      "같": 59,
      "갚": 60,
      "개": 61,
      "객": 62,
      "갠": 63,
      "갯": 64,
      "갱": 65,
      "걍": 66,
      "걔": 67,
      "거": 68,
      "걱": 69,
      "건": 70,
      "걷": 71,
      "걸": 72,
      "검": 73,
      "겁": 74,
      "것": 75,
      "겉": 76,
      "게": 77,
      "겐": 78,
      "겜": 79,
      "겟": 80,
      "겠": 81,
      "겨": 82,
      "격": 83,
      "겪": 84,
      "견": 85,
      "결": 86,
      "겹": 87,
      "겼": 88,
      "경": 89,
      "곁": 90,
      "계": 91,
      "곗": 92,
      "고": 93,
      "곡": 94,
      "곤": 95,
      "곧": 96,
      "골": 97,
      "곰": 98,
      "곱": 99,
      "곳": 100,
      "공": 101,
      "과": 102,
      "관": 103,
      "광": 104,
      "괘": 105,
      "괜": 106,
      "괴": 107,
      "교": 108,
      "구": 109,
      "국": 110,
      "군": 111,
      "굳": 112,
      "굴": 113,
      "굶": 114,
      "굽": 115,
      "굿": 116,
      "궁": 117,
      "궈": 118,
      "권": 119,
      "궜": 120,
      "귀": 121,
      "귄": 122,
      "귈": 123,
      "귐": 124,
      "규": 125,
      "균": 126,
      "귤": 127,
      "그": 128,
      "극": 129,
      "근": 130,
      "글": 131,
      "긁": 132,
      "금": 133,
      "급": 134,
      "긋": 135,
      "긍": 136,
      "기": 137,
      "긴": 138,
      "길": 139,
      "김": 140,
      "깃": 141,
      "깅": 142,
      "깊": 143,
      "까": 144,
      "깍": 145,
      "깎": 146,
      "깐": 147,
      "깔": 148,
      "깜": 149,
      "깝": 150,
      "깠": 151,
      "깡": 152,
      "깨": 153,
      "깬": 154,
      "깰": 155,
      "깼": 156,
      "꺼": 157,
      "꺽": 158,
      "껀": 159,
      "껄": 160,
      "껏": 161,
      "께": 162,
      "껴": 163,
      "꼈": 164,
      "꼬": 165,
      "꼭": 166,
      "꼰": 167,
      "꼴": 168,
      "꼼": 169,
      "꼿": 170,
      "꽁": 171,
      "꽂": 172,
      "꽃": 173,
      "꽈": 174,
      "꽉": 175,
      "꽝": 176,
      "꽤": 177,
      "꾸": 178,
      "꾹": 179,
      "꾼": 180,
      "꿀": 181,
      "꿈": 182,
      "꿎": 183,
      "꿔": 184,
      "꿧": 185,
      "꿨": 186,
      "꿩": 187,
      "꿰": 188,
      "뀌": 189,
      "뀐": 190,
      "뀔": 191,
      "끄": 192,
      "끈": 193,
      "끊": 194,
      "끌": 195,
      "끓": 196,
      "끔": 197,
      "끗": 198,
      "끝": 199,
      "끼": 200,
      "낀": 201,
      "낄": 202,
      "낌": 203,
      "나": 204,
      "낙": 205,
      "낚": 206,
      "난": 207,
      "날": 208,
      "남": 209,
      "납": 210,
      "낫": 211,
      "났": 212,
      "낭": 213,
      "낮": 214,
      "낳": 215,
      "내": 216,
      "낸": 217,
      "낼": 218,
      "냄": 219,
      "냅": 220,
      "냈": 221,
      "냉": 222,
      "냐": 223,
      "냥": 224,
      "너": 225,
      "넋": 226,
      "넌": 227,
      "널": 228,
      "넓": 229,
      "넘": 230,
      "넛": 231,
      "넣": 232,
      "네": 233,
      "넥": 234,
      "넷": 235,
      "넹": 236,
      "녀": 237,
      "녁": 238,
      "년": 239,
      "념": 240,
      "녔": 241,
      "녕": 242,
      "노": 243,
      "녹": 244,
      "논": 245,
      "놀": 246,
      "놈": 247,
      "놉": 248,
      "농": 249,
      "높": 250,
      "놓": 251,
      "놔": 252,
      "놨": 253,
      "뇌": 254,
      "뇨": 255,
      "뇽": 256,
      "누": 257,
      "눅": 258,
      "눈": 259,
      "눌": 260,
      "눕": 261,
      "눠": 262,
      "눴": 263,
      "뉴": 264,
      "느": 265,
      "는": 266,
      "늘": 267,
      "늙": 268,
      "늠": 269,
      "능": 270,
      "늦": 271,
      "늪": 272,
      "니": 273,
      "닉": 274,
      "닌": 275,
      "닐": 276,
      "님": 277,
      "닙": 278,
      "닝": 279,
      "다": 280,
      "닥": 281,
      "닦": 282,
      "단": 283,
      "닫": 284,
      "달": 285,
      "닭": 286,
      "닮": 287,
      "닳": 288,
      "담": 289,
      "답": 290,
      "닷": 291,
      "당": 292,
      "닿": 293,
      "대": 294,
      "댄": 295,
      "댈": 296,
      "댓": 297,
      "댔": 298,
      "댜": 299,
      "더": 300,
      "덕": 301,
      "던": 302,
      "덜": 303,
      "덤": 304,
      "덥": 305,
      "덧": 306,
      "덩": 307,
      "덮": 308,
      "데": 309,
      "덴": 310,
      "델": 311,
      "뎌": 312,
      "뎠": 313,
      "도": 314,
      "독": 315,
      "돈": 316,
      "돋": 317,
      "돌": 318,
      "돕": 319,
      "동": 320,
      "돼": 321,
      "됐": 322,
      "되": 323,
      "된": 324,
      "될": 325,
      "됨": 326,
      "됩": 327,
      "됬": 328,
      "두": 329,
      "둑": 330,
      "둔": 331,
      "둘": 332,
      "둠": 333,
      "둥": 334,
      "둬": 335,
      "뒀": 336,
      "뒤": 337,
      "뒷": 338,
      "뒹": 339,
      "듀": 340,
      "드": 341,
      "득": 342,
      "든": 343,
      "듣": 344,
      "들": 345,
      "듦": 346,
      "듬": 347,
      "듭": 348,
      "듯": 349,
      "등": 350,
      "디": 351,
      "딘": 352,
      "딛": 353,
      "딜": 354,
      "딧": 355,
      "딨": 356,
      "딩": 357,
      "딪": 358,
      "따": 359,
      "딱": 360,
      "딴": 361,
      "딸": 362,
      "땀": 363,
      "땅": 364,
      "때": 365,
      "땐": 366,
      "땜": 367,
      "땠": 368,
      "땡": 369,
      "떄": 370,
      "떠": 371,
      "떡": 372,
      "떤": 373,
      "떨": 374,
      "떴": 375,
      "떻": 376,
      "떼": 377,
      "뗄": 378,
      "또": 379,
      "똑": 380,
      "똥": 381,
      "뚝": 382,
      "뚫": 383,
      "뚱": 384,
      "뛰": 385,
      "뛴": 386,
      "뜁": 387,
      "뜨": 388,
      "뜩": 389,
      "뜬": 390,
      "뜰": 391,
      "뜸": 392,
      "뜻": 393,
      "띄": 394,
      "띠": 395,
      "띰": 396,
      "띵": 397,
      "라": 398,
      "락": 399,
      "란": 400,
      "랄": 401,
      "람": 402,
      "랍": 403,
      "랐": 404,
      "랑": 405,
      "랖": 406,
      "래": 407,
      "랙": 408,
      "랜": 409,
      "랠": 410,
      "램": 411,
      "랩": 412,
      "랫": 413,
      "랬": 414,
      "랭": 415,
      "량": 416,
      "러": 417,
      "런": 418,
      "럴": 419,
      "럼": 420,
      "럽": 421,
      "럿": 422,
      "렀": 423,
      "렁": 424,
      "렇": 425,
      "레": 426,
      "렉": 427,
      "렌": 428,
      "렐": 429,
      "렘": 430,
      "렛": 431,
      "렜": 432,
      "려": 433,
      "력": 434,
      "련": 435,
      "렬": 436,
      "렴": 437,
      "렵": 438,
      "렷": 439,
      "렸": 440,
      "령": 441,
      "례": 442,
      "로": 443,
      "록": 444,
      "론": 445,
      "롤": 446,
      "롭": 447,
      "롯": 448,
      "롱": 449,
      "뢰": 450,
      "료": 451,
      "루": 452,
      "룩": 453,
      "룰": 454,
      "룸": 455,
      "룽": 456,
      "뤄": 457,
      "류": 458,
      "륜": 459,
      "률": 460,
      "르": 461,
      "륵": 462,
      "른": 463,
      "를": 464,
      "름": 465,
      "릅": 466,
      "릇": 467,
      "릎": 468,
      "리": 469,
      "릭": 470,
      "린": 471,
      "릴": 472,
      "림": 473,
      "립": 474,
      "릿": 475,
      "링": 476,
      "마": 477,
      "막": 478,
      "만": 479,
      "많": 480,
      "말": 481,
      "맘": 482,
      "맙": 483,
      "맛": 484,
      "망": 485,
      "맞": 486,
      "맡": 487,
      "매": 488,
      "맥": 489,
      "맨": 490,
      "맴": 491,
      "맷": 492,
      "맹": 493,
      "맺": 494,
      "머": 495,
      "먹": 496,
      "먼": 497,
      "멀": 498,
      "멈": 499,
      "멋": 500,
      "멍": 501,
      "메": 502,
      "멘": 503,
      "멤": 504,
      "며": 505,
      "면": 506,
      "명": 507,
      "몇": 508,
      "모": 509,
      "목": 510,
      "몫": 511,
      "몬": 512,
      "몰": 513,
      "몸": 514,
      "몹": 515,
      "못": 516,
      "몽": 517,
      "묘": 518,
      "무": 519,
      "묵": 520,
      "문": 521,
      "묻": 522,
      "물": 523,
      "뭇": 524,
      "뭉": 525,
      "뭐": 526,
      "뭔": 527,
      "뭘": 528,
      "뭣": 529,
      "뮤": 530,
      "미": 531,
      "민": 532,
      "믿": 533,
      "밀": 534,
      "밉": 535,
      "밌": 536,
      "밍": 537,
      "밑": 538,
      "바": 539,
      "박": 540,
      "밖": 541,
      "반": 542,
      "받": 543,
      "발": 544,
      "밝": 545,
      "밟": 546,
      "밤": 547,
      "밥": 548,
      "방": 549,
      "밭": 550,
      "배": 551,
      "백": 552,
      "밸": 553,
      "뱃": 554,
      "뱄": 555,
      "뱉": 556,
      "버": 557,
      "벅": 558,
      "번": 559,
      "벋": 560,
      "벌": 561,
      "범": 562,
      "법": 563,
      "벗": 564,
      "벚": 565,
      "베": 566,
      "벤": 567,
      "벨": 568,
      "벴": 569,
      "벼": 570,
      "벽": 571,
      "변": 572,
      "별": 573,
      "볍": 574,
      "병": 575,
      "볕": 576,
      "보": 577,
      "복": 578,
      "볶": 579,
      "본": 580,
      "볼": 581,
      "봄": 582,
      "봅": 583,
      "봇": 584,
      "봉": 585,
      "봐": 586,
      "봤": 587,
      "뵈": 588,
      "부": 589,
      "북": 590,
      "분": 591,
      "불": 592,
      "붓": 593,
      "붕": 594,
      "붙": 595,
      "뷔": 596,
      "브": 597,
      "블": 598,
      "비": 599,
      "빈": 600,
      "빌": 601,
      "빔": 602,
      "빗": 603,
      "빙": 604,
      "빚": 605,
      "빛": 606,
      "빠": 607,
      "빡": 608,
      "빨": 609,
      "빴": 610,
      "빵": 611,
      "빼": 612,
      "빽": 613,
      "뺄": 614,
      "뺏": 615,
      "뺴": 616,
      "뻐": 617,
      "뻑": 618,
      "뻔": 619,
      "뻘": 620,
      "뻣": 621,
      "뻤": 622,
      "뻥": 623,
      "뽀": 624,
      "뽑": 625,
      "뽕": 626,
      "뿅": 627,
      "뿌": 628,
      "뿍": 629,
      "뿐": 630,
      "쁘": 631,
      "쁜": 632,
      "쁠": 633,
      "쁨": 634,
      "삐": 635,
      "삔": 636,
      "사": 637,
      "삭": 638,
      "산": 639,
      "살": 640,
      "삶": 641,
      "삼": 642,
      "삽": 643,
      "삿": 644,
      "샀": 645,
      "상": 646,
      "새": 647,
      "색": 648,
      "샌": 649,
      "샐": 650,
      "샘": 651,
      "샜": 652,
      "생": 653,
      "샤": 654,
      "서": 655,
      "석": 656,
      "섞": 657,
      "선": 658,
      "섣": 659,
      "설": 660,
      "섬": 661,
      "섭": 662,
      "섯": 663,
      "섰": 664,
      "성": 665,
      "세": 666,
      "섹": 667,
      "센": 668,
      "셀": 669,
      "셔": 670,
      "션": 671,
      "셥": 672,
      "셨": 673,
      "소": 674,
      "속": 675,
      "손": 676,
      "솔": 677,
      "솜": 678,
      "송": 679,
      "쇠": 680,
      "쇼": 681,
      "숍": 682,
      "숏": 683,
      "수": 684,
      "숙": 685,
      "순": 686,
      "술": 687,
      "숨": 688,
      "숫": 689,
      "숭": 690,
      "쉬": 691,
      "쉴": 692,
      "쉼": 693,
      "쉽": 694,
      "슈": 695,
      "스": 696,
      "슨": 697,
      "슬": 698,
      "슴": 699,
      "습": 700,
      "슷": 701,
      "승": 702,
      "시": 703,
      "식": 704,
      "신": 705,
      "실": 706,
      "싫": 707,
      "심": 708,
      "십": 709,
      "싱": 710,
      "싶": 711,
      "싸": 712,
      "싹": 713,
      "싼": 714,
      "쌀": 715,
      "쌈": 716,
      "쌍": 717,
      "쌓": 718,
      "쌤": 719,
      "쌩": 720,
      "써": 721,
      "썩": 722,
      "썰": 723,
      "썸": 724,
      "썹": 725,
      "썼": 726,
      "쎄": 727,
      "쎈": 728,
      "쎌": 729,
      "쏘": 730,
      "쏜": 731,
      "쏟": 732,
      "쏠": 733,
      "쐬": 734,
      "쑤": 735,
      "쑥": 736,
      "쓰": 737,
      "쓴": 738,
      "쓸": 739,
      "씀": 740,
      "씁": 741,
      "씌": 742,
      "씨": 743,
      "씩": 744,
      "씬": 745,
      "씰": 746,
      "씸": 747,
      "씹": 748,
      "씻": 749,
      "씽": 750,
      "아": 751,
      "악": 752,
      "안": 753,
      "앉": 754,
      "않": 755,
      "알": 756,
      "압": 757,
      "앗": 758,
      "았": 759,
      "앙": 760,
      "앞": 761,
      "애": 762,
      "액": 763,
      "앨": 764,
      "앱": 765,
      "야": 766,
      "약": 767,
      "얄": 768,
      "얇": 769,
      "양": 770,
      "얘": 771,
      "어": 772,
      "억": 773,
      "언": 774,
      "얻": 775,
      "얼": 776,
      "얽": 777,
      "엄": 778,
      "업": 779,
      "없": 780,
      "엇": 781,
      "었": 782,
      "엉": 783,
      "엊": 784,
      "에": 785,
      "엔": 786,
      "엘": 787,
      "엠": 788,
      "엣": 789,
      "여": 790,
      "역": 791,
      "엮": 792,
      "연": 793,
      "열": 794,
      "염": 795,
      "엽": 796,
      "엿": 797,
      "였": 798,
      "영": 799,
      "옆": 800,
      "옇": 801,
      "예": 802,
      "옛": 803,
      "오": 804,
      "옥": 805,
      "온": 806,
      "올": 807,
      "옮": 808,
      "옳": 809,
      "옴": 810,
      "옵": 811,
      "옷": 812,
      "와": 813,
      "완": 814,
      "왓": 815,
      "왔": 816,
      "왕": 817,
      "왜": 818,
      "왠": 819,
      "왤": 820,
      "외": 821,
      "왼": 822,
      "욌": 823,
      "요": 824,
      "욕": 825,
      "욜": 826,
      "용": 827,
      "우": 828,
      "욱": 829,
      "운": 830,
      "울": 831,
      "움": 832,
      "웁": 833,
      "웃": 834,
      "워": 835,
      "원": 836,
      "월": 837,
      "웠": 838,
      "웨": 839,
      "웬": 840,
      "웹": 841,
      "웽": 842,
      "위": 843,
      "윗": 844,
      "윙": 845,
      "유": 846,
      "육": 847,
      "윤": 848,
      "율": 849,
      "으": 850,
      "은": 851,
      "을": 852,
      "음": 853,
      "응": 854,
      "의": 855,
      "이": 856,
      "익": 857,
      "인": 858,
      "일": 859,
      "읽": 860,
      "잃": 861,
      "임": 862,
      "입": 863,
      "잇": 864,
      "있": 865,
      "잊": 866,
      "잌": 867,
      "자": 868,
      "작": 869,
      "잔": 870,
      "잖": 871,
      "잘": 872,
      "잠": 873,
      "잡": 874,
      "잤": 875,
      "장": 876,
      "잦": 877,
      "재": 878,
      "잼": 879,
      "잿": 880,
      "쟁": 881,
      "저": 882,
      "적": 883,
      "전": 884,
      "절": 885,
      "젊": 886,
      "점": 887,
      "접": 888,
      "젔": 889,
      "정": 890,
      "젖": 891,
      "제": 892,
      "젝": 893,
      "젠": 894,
      "젤": 895,
      "젯": 896,
      "져": 897,
      "젹": 898,
      "졋": 899,
      "졌": 900,
      "조": 901,
      "족": 902,
      "존": 903,
      "졸": 904,
      "좀": 905,
      "좁": 906,
      "종": 907,
      "좋": 908,
      "좌": 909,
      "죄": 910,
      "죠": 911,
      "주": 912,
      "죽": 913,
      "준": 914,
      "줄": 915,
      "줌": 916,
      "줍": 917,
      "중": 918,
      "줘": 919,
      "줬": 920,
      "쥐": 921,
      "쥬": 922,
      "즈": 923,
      "즉": 924,
      "즐": 925,
      "즘": 926,
      "즙": 927,
      "증": 928,
      "지": 929,
      "직": 930,
      "진": 931,
      "질": 932,
      "짐": 933,
      "집": 934,
      "짓": 935,
      "징": 936,
      "짚": 937,
      "짜": 938,
      "짝": 939,
      "짠": 940,
      "짤": 941,
      "짧": 942,
      "짬": 943,
      "짰": 944,
      "짱": 945,
      "째": 946,
      "짼": 947,
      "쨌": 948,
      "쩌": 949,
      "쩍": 950,
      "쩐": 951,
      "쩔": 952,
      "쩝": 953,
      "쩡": 954,
      "쪄": 955,
      "쪘": 956,
      "쪼": 957,
      "쪽": 958,
      "쫄": 959,
      "쫌": 960,
      "쫙": 961,
      "쭈": 962,
      "쭉": 963,
      "쭤": 964,
      "쯤": 965,
      "찌": 966,
      "찍": 967,
      "찐": 968,
      "찔": 969,
      "찜": 970,
      "찝": 971,
      "찡": 972,
      "찢": 973,
      "차": 974,
      "착": 975,
      "찬": 976,
      "찮": 977,
      "찰": 978,
      "참": 979,
      "찹": 980,
      "찼": 981,
      "창": 982,
      "찾": 983,
      "채": 984,
      "책": 985,
      "챔": 986,
      "챗": 987,
      "챘": 988,
      "챙": 989,
      "처": 990,
      "척": 991,
      "천": 992,
      "철": 993,
      "첨": 994,
      "첩": 995,
      "첫": 996,
      "청": 997,
      "체": 998,
      "쳇": 999,
      "쳐": 1000,
      "쳤": 1001,
      "초": 1002,
      "촉": 1003,
      "촌": 1004,
      "총": 1005,
      "촬": 1006,
      "최": 1007,
      "추": 1008,
      "축": 1009,
      "춘": 1010,
      "출": 1011,
      "춤": 1012,
      "춥": 1013,
      "충": 1014,
      "춰": 1015,
      "췄": 1016,
      "취": 1017,
      "츄": 1018,
      "츠": 1019,
      "측": 1020,
      "츤": 1021,
      "층": 1022,
      "치": 1023,
      "칙": 1024,
      "친": 1025,
      "칠": 1026,
      "침": 1027,
      "칩": 1028,
      "칫": 1029,
      "칭": 1030,
      "카": 1031,
      "칼": 1032,
      "캄": 1033,
      "캐": 1034,
      "캔": 1035,
      "캬": 1036,
      "커": 1037,
      "컥": 1038,
      "컨": 1039,
      "컴": 1040,
      "컷": 1041,
      "컸": 1042,
      "컹": 1043,
      "케": 1044,
      "켓": 1045,
      "켜": 1046,
      "켠": 1047,
      "켰": 1048,
      "코": 1049,
      "콕": 1050,
      "콘": 1051,
      "콜": 1052,
      "콤": 1053,
      "콧": 1054,
      "콩": 1055,
      "쾌": 1056,
      "쿠": 1057,
      "쿨": 1058,
      "쿵": 1059,
      "쿼": 1060,
      "퀴": 1061,
      "큐": 1062,
      "크": 1063,
      "큰": 1064,
      "클": 1065,
      "큼": 1066,
      "킁": 1067,
      "키": 1068,
      "킥": 1069,
      "킨": 1070,
      "킬": 1071,
      "킴": 1072,
      "킹": 1073,
      "타": 1074,
      "탁": 1075,
      "탄": 1076,
      "탈": 1077,
      "탐": 1078,
      "탑": 1079,
      "탓": 1080,
      "탔": 1081,
      "탕": 1082,
      "태": 1083,
      "택": 1084,
      "탱": 1085,
      "터": 1086,
      "턱": 1087,
      "턴": 1088,
      "털": 1089,
      "텀": 1090,
      "텁": 1091,
      "텄": 1092,
      "텅": 1093,
      "테": 1094,
      "텍": 1095,
      "텐": 1096,
      "텔": 1097,
      "템": 1098,
      "텨": 1099,
      "텻": 1100,
      "텼": 1101,
      "토": 1102,
      "톡": 1103,
      "톤": 1104,
      "톱": 1105,
      "통": 1106,
      "퇴": 1107,
      "투": 1108,
      "툭": 1109,
      "툰": 1110,
      "툴": 1111,
      "툼": 1112,
      "퉁": 1113,
      "퉜": 1114,
      "튀": 1115,
      "튜": 1116,
      "트": 1117,
      "특": 1118,
      "틀": 1119,
      "틈": 1120,
      "틋": 1121,
      "티": 1122,
      "틱": 1123,
      "팀": 1124,
      "팁": 1125,
      "팅": 1126,
      "파": 1127,
      "팍": 1128,
      "판": 1129,
      "팔": 1130,
      "팠": 1131,
      "패": 1132,
      "팩": 1133,
      "팬": 1134,
      "팸": 1135,
      "퍼": 1136,
      "펑": 1137,
      "페": 1138,
      "펜": 1139,
      "펨": 1140,
      "펭": 1141,
      "펴": 1142,
      "편": 1143,
      "펼": 1144,
      "평": 1145,
      "폐": 1146,
      "포": 1147,
      "폭": 1148,
      "폰": 1149,
      "폼": 1150,
      "퐈": 1151,
      "표": 1152,
      "푸": 1153,
      "푹": 1154,
      "푼": 1155,
      "풀": 1156,
      "품": 1157,
      "풋": 1158,
      "풍": 1159,
      "퓨": 1160,
      "프": 1161,
      "픈": 1162,
      "플": 1163,
      "픔": 1164,
      "픕": 1165,
      "피": 1166,
      "픽": 1167,
      "핀": 1168,
      "필": 1169,
      "핍": 1170,
      "핏": 1171,
      "핑": 1172,
      "하": 1173,
      "학": 1174,
      "한": 1175,
      "할": 1176,
      "함": 1177,
      "합": 1178,
      "핫": 1179,
      "항": 1180,
      "해": 1181,
      "핸": 1182,
      "햇": 1183,
      "했": 1184,
      "행": 1185,
      "햐": 1186,
      "향": 1187,
      "허": 1188,
      "헉": 1189,
      "헌": 1190,
      "헐": 1191,
      "험": 1192,
      "헛": 1193,
      "헤": 1194,
      "헥": 1195,
      "헬": 1196,
      "헷": 1197,
      "헹": 1198,
      "혀": 1199,
      "현": 1200,
      "혈": 1201,
      "혐": 1202,
      "협": 1203,
      "혔": 1204,
      "형": 1205,
      "혜": 1206,
      "호": 1207,
      "혹": 1208,
      "혼": 1209,
      "홀": 1210,
      "홈": 1211,
      "화": 1212,
      "확": 1213,
      "환": 1214,
      "활": 1215,
      "홧": 1216,
      "황": 1217,
      "회": 1218,
      "획": 1219,
      "효": 1220,
      "후": 1221,
      "훅": 1222,
      "훈": 1223,
      "훌": 1224,
      "훔": 1225,
      "훨": 1226,
      "휘": 1227,
      "휙": 1228,
      "휨": 1229,
      "휴": 1230,
      "흐": 1231,
      "흑": 1232,
      "흔": 1233,
      "흘": 1234,
      "흠": 1235,
      "흡": 1236,
      "흥": 1237,
      "희": 1238,
      "흰": 1239,
      "히": 1240,
      "힌": 1241,
      "힐": 1242,
      "힘": 1243,
      "힙": 1244,
      "##씨": 1245,
      "##에": 1246,
      "##?": 1247,
      "##화": 1248,
      "##후": 1249,
      "##럴": 1250,
      "##거": 1251,
      "##예": 1252,
      "##요": 1253,
      "##능": 1254,
      "##적": 1255,
      "##인": 1256,
      "##대": 1257,
      "##한": 1258,
      "##듯": 1259,
      "##법": 1260,
      "##도": 1261,
      "##자": 1262,
      "##리": 1263,
      "##간": 1264,
      "##이": 1265,
      "##절": 1266,
      "##려": 1267,
      "##운": 1268,
      "##가": 1269,
      "##봐": 1270,
      "##어": 1271,
      "##볼": 1272,
      "##까": 1273,
      "##극": 1274,
      "##말": 1275,
      "##엇": 1276,
      "##하": 1277,
      "##해": 1278,
      "##게": 1279,
      "##C": 1280,
      "##는": 1281,
      "##민": 1282,
      "##임": 1283,
      "##단": 1284,
      "##학": 1285,
      "##정": 1286,
      "##를": 1287,
      "##할": 1288,
      "##날": 1289,
      "##쓸": 1290,
      "##했": 1291,
      "##겠": 1292,
      "##지": 1293,
      "##뢰": 1294,
      "##입": 1295,
      "##니": 1296,
      "##다": 1297,
      "##명": 1298,
      "##었": 1299,
      "##나": 1300,
      "##러": 1301,
      "##져": 1302,
      "##보": 1303,
      "##세": 1304,
      "##외": 1305,
      "##존": 1306,
      "##서": 1307,
      "##행": 1308,
      "##의": 1309,
      "##식": 1310,
      "##모": 1311,
      "##제": 1312,
      "##별": 1313,
      "##키": 1314,
      "##장": 1315,
      "##달": 1316,
      "##복": 1317,
      "##될": 1318,
      "##면": 1319,
      "##무": 1320,
      "##우": 1321,
      "##울": 1322,
      "##타": 1323,
      "##은": 1324,
      "##시": 1325,
      "##청": 1326,
      "##들": 1327,
      "##였": 1328,
      "##으": 1329,
      "##속": 1330,
      "##되": 1331,
      "##네": 1332,
      "##와": 1333,
      "##때": 1334,
      "##아": 1335,
      "##진": 1336,
      "##겼": 1337,
      "##을": 1338,
      "##로": 1339,
      "##포": 1340,
      "##즈": 1341,
      "##기": 1342,
      "##변": 1343,
      "##야": 1344,
      "##래": 1345,
      "##상": 1346,
      "##번": 1347,
      "##곳": 1348,
      "##올": 1349,
      "##일": 1350,
      "##수": 1351,
      "##원": 1352,
      "##본": 1353,
      "##피": 1354,
      "##닙": 1355,
      "##척": 1356,
      "##짐": 1357,
      "##과": 1358,
      "##길": 1359,
      "##심": 1360,
      "##사": 1361,
      "##찮": 1362,
      "##편": 1363,
      "##같": 1364,
      "##건": 1365,
      "##점": 1366,
      "##죠": 1367,
      "##라": 1368,
      "##친": 1369,
      "##구": 1370,
      "##젠": 1371,
      "##틈": 1372,
      "##신": 1373,
      "##박": 1374,
      "##고": 1375,
      "##분": 1376,
      "##른": 1377,
      "##뚝": 1378,
      "##살": 1379,
      "##미": 1380,
      "##없": 1381,
      "##꾸": 1382,
      "##프": 1383,
      "##히": 1384,
      "##답": 1385,
      "##효": 1386,
      "##생": 1387,
      "##문": 1388,
      "##방": 1389,
      "##막": 1390,
      "##낼": 1391,
      "##르": 1392,
      "##개": 1393,
      "##팅": 1394,
      "##력": 1395,
      "##있": 1396,
      "##현": 1397,
      "##란": 1398,
      "##놔": 1399,
      "##레": 1400,
      "##통": 1401,
      "##처": 1402,
      "##럼": 1403,
      "##람": 1404,
      "##갑": 1405,
      "##잔": 1406,
      "##치": 1407,
      "##테": 1408,
      "##파": 1409,
      "##재": 1410,
      "##질": 1411,
      "##년": 1412,
      "##째": 1413,
      "##내": 1414,
      "##향": 1415,
      "##것": 1416,
      "##더": 1417,
      "##께": 1418,
      "##줘": 1419,
      "##주": 1420,
      "##전": 1421,
      "##닥": 1422,
      "##동": 1423,
      "##산": 1424,
      "##급": 1425,
      "##혀": 1426,
      "##만": 1427,
      "##드": 1428,
      "##메": 1429,
      "##월": 1430,
      "##았": 1431,
      "##증": 1432,
      "##색": 1433,
      "##준": 1434,
      "##못": 1435,
      "##된": 1436,
      "##걸": 1437,
      "##각": 1438,
      "##계": 1439,
      "##낌": 1440,
      "##따": 1441,
      "##워": 1442,
      "##린": 1443,
      "##데": 1444,
      "##눠": 1445,
      "##랑": 1446,
      "##근": 1447,
      "##떡": 1448,
      "##순": 1449,
      "##싶": 1450,
      "##겨": 1451,
      "##류": 1452,
      "##남": 1453,
      "##습": 1454,
      "##짓": 1455,
      "##체": 1456,
      "##왜": 1457,
      "##뉴": 1458,
      "##얼": 1459,
      "##비": 1460,
      "##귀": 1461,
      "##부": 1462,
      "##터": 1463,
      "##맞": 1464,
      "##족": 1465,
      "##털": 1466,
      "##집": 1467,
      "##긴": 1468,
      "##노": 1469,
      "##감": 1470,
      "##봅": 1471,
      "##온": 1472,
      "##헤": 1473,
      "##론": 1474,
      "##ㅎ": 1475,
      "##님": 1476,
      "##난": 1477,
      "##락": 1478,
      "##왔": 1479,
      "##소": 1480,
      "##맛": 1481,
      "##칠": 1482,
      "##트": 1483,
      "##디": 1484,
      "##2": 1485,
      "##났": 1486,
      "##영": 1487,
      "##선": 1488,
      "##물": 1489,
      "##잡": 1490,
      "##억": 1491,
      "##섭": 1492,
      "##불": 1493,
      "##킥": 1494,
      "##강": 1495,
      "##0": 1496,
      "##럽": 1497,
      "##차": 1498,
      "##추": 1499,
      "##담": 1500,
      "##스": 1501,
      "##애": 1502,
      "##두": 1503,
      "##떻": 1504,
      "##백": 1505,
      "##휴": 1506,
      "##렸": 1507,
      "##든": 1508,
      "##금": 1509,
      "##악": 1510,
      "##여": 1511,
      "##표": 1512,
      "##목": 1513,
      "##갈": 1514,
      "##끼": 1515,
      "##성": 1516,
      "##던": 1517,
      "##응": 1518,
      "##저": 1519,
      "##안": 1520,
      "##됩": 1521,
      "##십": 1522,
      "##음": 1523,
      "##높": 1524,
      "##굴": 1525,
      "##회": 1526,
      "##쩐": 1527,
      "##작": 1528,
      "##품": 1529,
      "##관": 1530,
      "##황": 1531,
      "##업": 1532,
      "##랬": 1533,
      "##툴": 1534,
      "##받": 1535,
      "##눈": 1536,
      "##역": 1537,
      "##당": 1538,
      "##조": 1539,
      "##햇": 1540,
      "##ㅋ": 1541,
      "##됐": 1542,
      "##혼": 1543,
      "##마": 1544,
      "##연": 1545,
      "##켜": 1546,
      "##형": 1547,
      "##경": 1548,
      "##쓰": 1549,
      "##약": 1550,
      "##엔": 1551,
      "##중": 1552,
      "##곡": 1553,
      "##쁘": 1554,
      "##옷": 1555,
      "##놀": 1556,
      "##냈": 1557,
      "##름": 1558,
      "##돋": 1559,
      "##런": 1560,
      "##쳐": 1561,
      "##실": 1562,
      "##망": 1563,
      "##뎌": 1564,
      "##줄": 1565,
      "##오": 1566,
      "##떤": 1567,
      "##닫": 1568,
      "##촌": 1569,
      "##랫": 1570,
      "##숭": 1571,
      "##종": 1572,
      "##창": 1573,
      "##둬": 1574,
      "##바": 1575,
      "##랍": 1576,
      "##위": 1577,
      "##곤": 1578,
      "##플": 1579,
      "##석": 1580,
      "##숙": 1581,
      "##댔": 1582,
      "##좋": 1583,
      "##춰": 1584,
      "##빔": 1585,
      "##졌": 1586,
      "##글": 1587,
      "##퍼": 1588,
      "##량": 1589,
      "##돼": 1590,
      "##출": 1591,
      "##1": 1592,
      "##착": 1593,
      "##참": 1594,
      "##싱": 1595,
      "##녀": 1596,
      "##렇": 1597,
      "##녁": 1598,
      "##듭": 1599,
      "##닌": 1600,
      "##벽": 1601,
      "##렵": 1602,
      "##합": 1603,
      "##좀": 1604,
      "##폭": 1605,
      "##풍": 1606,
      "##잠": 1607,
      "##셔": 1608,
      "##뿐": 1609,
      "##카": 1610,
      "##롱": 1611,
      "##독": 1612,
      "##깐": 1613,
      "##놓": 1614,
      "##꺼": 1615,
      "##봇": 1616,
      "##필": 1617,
      "##큼": 1618,
      "##련": 1619,
      "##랜": 1620,
      "##며": 1621,
      "##새": 1622,
      "##열": 1623,
      "##페": 1624,
      "##유": 1625,
      "##립": 1626,
      "##직": 1627,
      "##깨": 1628,
      "##삿": 1629,
      "##턴": 1630,
      "##딜": 1631,
      "##천": 1632,
      "##n": 1633,
      "##s": 1634,
      "##투": 1635,
      "##냐": 1636,
      "##폰": 1637,
      "##뻤": 1638,
      "##병": 1639,
      "##셨": 1640,
      "##승": 1641,
      "##발": 1642,
      "##국": 1643,
      "##끔": 1644,
      "##궈": 1645,
      "##앗": 1646,
      "##패": 1647,
      "##밤": 1648,
      "##큰": 1649,
      "##격": 1650,
      "##툰": 1651,
      "##쩔": 1652,
      "##용": 1653,
      "##료": 1654,
      "##밖": 1655,
      "##샜": 1656,
      "##꽃": 1657,
      "##매": 1658,
      "##픈": 1659,
      "##톡": 1660,
      "##숍": 1661,
      "##끈": 1662,
      "##침": 1663,
      "##넘": 1664,
      "##쪄": 1665,
      "##,": 1666,
      "##느": 1667,
      "##텼": 1668,
      "##함": 1669,
      "##텐": 1670,
      "##뱃": 1671,
      "##돈": 1672,
      "##렀": 1673,
      "##봉": 1674,
      "##.": 1675,
      "##돌": 1676,
      "##먹": 1677,
      "##록": 1678,
      "##둘": 1679,
      "##~": 1680,
      "##루": 1681,
      "##벼": 1682,
      "##렴": 1683,
      "##그": 1684,
      "##짠": 1685,
      "##닷": 1686,
      "##줬": 1687,
      "##뒹": 1688,
      "##쳤": 1689,
      "##활": 1690,
      "##뻔": 1691,
      "##배": 1692,
      "##군": 1693,
      "##교": 1694,
      "##택": 1695,
      "##낸": 1696,
      "##늘": 1697,
      "##빠": 1698,
      "##쁠": 1699,
      "##끗": 1700,
      "##똥": 1701,
      "##찌": 1702,
      "##센": 1703,
      "##머": 1704,
      "##핑": 1705,
      "##쁜": 1706,
      "##너": 1707,
      "##칭": 1708,
      "##값": 1709,
      "##몽": 1710,
      "##호": 1711,
      "##찬": 1712,
      "##콕": 1713,
      "##반": 1714,
      "##규": 1715,
      "##딛": 1716,
      "##험": 1717,
      "##탈": 1718,
      "##취": 1719,
      "##토": 1720,
      "##ㅠ": 1721,
      "##뿌": 1722,
      "##둥": 1723,
      "##북": 1724,
      "##헛": 1725,
      "##률": 1726,
      "##떠": 1727,
      "##봤": 1728,
      "##꿔": 1729,
      "##ㅜ": 1730,
      "##댓": 1731,
      "##놈": 1732,
      "##뀌": 1733,
      "##씀": 1734,
      "##초": 1735,
      "##태": 1736,
      "##;": 1737,
      "##랐": 1738,
      "##짜": 1739,
      "##밥": 1740,
      "##슴": 1741,
      "##닝": 1742,
      "##콜": 1743,
      "##딩": 1744,
      "##깝": 1745,
      "##농": 1746,
      "##잊": 1747,
      "##득": 1748,
      "##찼": 1749,
      "##혹": 1750,
      "##웨": 1751,
      "##쭤": 1752,
      "##렐": 1753,
      "##앞": 1754,
      "##술": 1755,
      "##움": 1756,
      "##버": 1757,
      "##씸": 1758,
      "##닐": 1759,
      "##뻐": 1760,
      "##슨": 1761,
      "##킨": 1762,
      "##먼": 1763,
      "##옥": 1764,
      "##껴": 1765,
      "##충": 1766,
      "##결": 1767,
      "##욕": 1768,
      "##뎠": 1769,
      "##덜": 1770,
      "##확": 1771,
      "##잖": 1772,
      "##왕": 1773,
      "##릴": 1774,
      "##푸": 1775,
      "##넹": 1776,
      "##렌": 1777,
      "##짚": 1778,
      "##찰": 1779,
      "##땠": 1780,
      "##귄": 1781,
      "##빈": 1782,
      "##룽": 1783,
      "##허": 1784,
      "##견": 1785,
      "##례": 1786,
      "##크": 1787,
      "##팩": 1788,
      "##책": 1789,
      "##엉": 1790,
      "##힘": 1791,
      "##겜": 1792,
      "##탐": 1793,
      "##많": 1794,
      "##탁": 1795,
      "##롭": 1796,
      "##공": 1797,
      "##싸": 1798,
      "##녕": 1799,
      "##맘": 1800,
      "##5": 1801,
      "##쉽": 1802,
      "##랠": 1803,
      "##림": 1804,
      "##밀": 1805,
      "##써": 1806,
      "##갖": 1807,
      "##환": 1808,
      "##밌": 1809,
      "##쁨": 1810,
      "##씬": 1811,
      "##웠": 1812,
      "##맨": 1813,
      "##념": 1814,
      "##뽕": 1815,
      "##김": 1816,
      "##샘": 1817,
      "##뮤": 1818,
      "##티": 1819,
      "##컥": 1820,
      "##케": 1821,
      "##꼼": 1822,
      "##커": 1823,
      "##홀": 1824,
      "##릭": 1825,
      "##갔": 1826,
      "##낀": 1827,
      "##눴": 1828,
      "##빴": 1829,
      "##틱": 1830,
      "##썸": 1831,
      "##픔": 1832,
      "##맥": 1833,
      "##끌": 1834,
      "##뒀": 1835,
      "##늦": 1836,
      "##텔": 1837,
      "##누": 1838,
      "##싼": 1839,
      "##접": 1840,
      "##쯤": 1841,
      "##즘": 1842,
      "##쿵": 1843,
      "##슷": 1844,
      "##템": 1845,
      "##골": 1846,
      "##!": 1847,
      "##덧": 1848,
      "##읽": 1849,
      "##씹": 1850,
      "##멍": 1851,
      "##껏": 1852,
      "##쉬": 1853,
      "##텁": 1854,
      "##둑": 1855,
      "##춤": 1856,
      "##쐬": 1857,
      "##몸": 1858,
      "##빛": 1859,
      "##앨": 1860,
      "##듣": 1861,
      "##펴": 1862,
      "##끝": 1863,
      "##언": 1864,
      "##옴": 1865,
      "##젯": 1866,
      "##몰": 1867,
      "##칫": 1868,
      "##겹": 1869,
      "##덕": 1870,
      "##쩌": 1871,
      "##퀴": 1872,
      "##B": 1873,
      "##뵈": 1874,
      "##팸": 1875,
      "##축": 1876,
      "##렜": 1877,
      "##틀": 1878,
      "##알": 1879,
      "##꼬": 1880,
      "##숨": 1881,
      "##납": 1882,
      "##룩": 1883,
      "##획": 1884,
      "##닿": 1885,
      "##양": 1886,
      "##압": 1887,
      "##권": 1888,
      "##놨": 1889,
      "##않": 1890,
      "##빡": 1891,
      "##늠": 1892,
      "##씩": 1893,
      "##쪽": 1894,
      "##풀": 1895,
      "##송": 1896,
      "##띠": 1897,
      "##빵": 1898,
      "##c": 1899,
      "##믿": 1900,
      "##죄": 1901,
      "##꼈": 1902,
      "##육": 1903,
      "##베": 1904,
      "##덤": 1905,
      "##냥": 1906,
      "##떨": 1907,
      "##펑": 1908,
      "##쏟": 1909,
      "##듬": 1910,
      "##딱": 1911,
      "##측": 1912,
      "##뜨": 1913,
      "##퇴": 1914,
      "##츄": 1915,
      "##액": 1916,
      "##죽": 1917,
      "##챔": 1918,
      "##링": 1919,
      "##켰": 1920,
      "##췄": 1921,
      "##낭": 1922,
      "##폼": 1923,
      "##밍": 1924,
      "##흘": 1925,
      "##푼": 1926,
      "##벌": 1927,
      "##뜰": 1928,
      "##깠": 1929,
      "##짝": 1930,
      "##밑": 1931,
      "##킬": 1932,
      "##뤄": 1933,
      "##첩": 1934,
      "##션": 1935,
      "##벅": 1936,
      "##팍": 1937,
      "##뿅": 1938,
      "##잼": 1939,
      "##9": 1940,
      "##괴": 1941,
      "##겁": 1942,
      "##툼": 1943,
      "##끄": 1944,
      "##꾼": 1945,
      "##설": 1946,
      "##뿍": 1947,
      "##땐": 1948,
      "##볕": 1949,
      "##찢": 1950,
      "##톱": 1951,
      "##컨": 1952,
      "##롤": 1953,
      "##떼": 1954,
      "##엘": 1955,
      "##탄": 1956,
      "##염": 1957,
      "##쇼": 1958,
      "##꿨": 1959,
      "##판": 1960,
      "##훈": 1961,
      "##썹": 1962,
      "##찍": 1963,
      "##괜": 1964,
      "##곗": 1965,
      "##낫": 1966,
      "##코": 1967,
      "##놉": 1968,
      "##쑥": 1969,
      "##벤": 1970,
      "##랙": 1971,
      "##눅": 1972,
      "##항": 1973,
      "##범": 1974,
      "##령": 1975,
      "##블": 1976,
      "##륜": 1977,
      "##랭": 1978,
      "##꿈": 1979,
      "##콩": 1980,
      "##벨": 1981,
      "##둔": 1982,
      "##뚱": 1983,
      "##욌": 1984,
      "##율": 1985,
      "##릎": 1986,
      "##잘": 1987,
      "##X": 1988,
      "##뀐": 1989,
      "##맙": 1990,
      "##평": 1991,
      "##손": 1992,
      "##객": 1993,
      "##뭐": 1994,
      "##겟": 1995,
      "##붓": 1996,
      "##멋": 1997,
      "##텨": 1998,
      "##팁": 1999,
      "##몬": 2000,
      "##쭈": 2001,
      "##쌀": 2002,
      "##컷": 2003,
      "##흥": 2004,
      "##릇": 2005,
      "##찡": 2006,
      "##쟁": 2007,
      "##딪": 2008,
      "##혔": 2009,
      "##릿": 2010,
      "##잇": 2011,
      "##젹": 2012,
      "##꽂": 2013,
      "##갯": 2014,
      "##힐": 2015,
      "##엽": 2016,
      "##왓": 2017,
      "##켠": 2018,
      "##빌": 2019,
      "##땅": 2020,
      "##흡": 2021,
      "##꿎": 2022,
      "##냄": 2023,
      "##빙": 2024,
      "##캔": 2025,
      "##컹": 2026,
      "##끊": 2027,
      "##닦": 2028,
      "##앉": 2029,
      "##징": 2030,
      "##뽀": 2031,
      "##콘": 2032,
      "##랄": 2033,
      "##꾹": 2034,
      "##철": 2035,
      "##녔": 2036,
      "##또": 2037,
      "##춘": 2038,
      "##딧": 2039,
      "##o": 2040,
      "##g": 2041,
      "##탔": 2042,
      "##릅": 2043,
      "##뜻": 2044,
      "##뒤": 2045,
      "##솔": 2046,
      "##씰": 2047,
      "##곰": 2048,
      "##탕": 2049,
      "##빨": 2050,
      "##뽑": 2051,
      "##뜩": 2052,
      "##틋": 2053,
      "##깜": 2054,
      "##폐": 2055,
      "##듦": 2056,
      "##귐": 2057,
      "##됬": 2058,
      "##슬": 2059,
      "##웃": 2060,
      "##풋": 2061,
      "##싫": 2062,
      "##싹": 2063,
      "##덩": 2064,
      "##완": 2065,
      "##툭": 2066,
      "##껄": 2067,
      "##썩": 2068,
      "##등": 2069,
      "##3": 2070,
      "##핏": 2071,
      "##특": 2072,
      "##볍": 2073,
      "##겐": 2074,
      "##똑": 2075,
      "##쩍": 2076,
      "##띰": 2077,
      "##킹": 2078,
      "##씽": 2079,
      "##묵": 2080,
      "##N": 2081,
      "##S": 2082,
      "##렛": 2083,
      "##펨": 2084,
      "##닉": 2085,
      "##4": 2086,
      "##픕": 2087,
      "##졋": 2088,
      "##삽": 2089,
      "##튜": 2090,
      "##궁": 2091,
      "##킁": 2092,
      "##넷": 2093,
      "##됨": 2094,
      "##6": 2095,
      "##봄": 2096,
      "##댈": 2097,
      "##앙": 2098,
      "##힌": 2099,
      "##브": 2100,
      "##껀": 2101,
      "##줌": 2102,
      "##쩡": 2103,
      "##쎄": 2104,
      "##땜": 2105,
      "##렘": 2106,
      "##검": 2107,
      "##밟": 2108,
      "##칩": 2109,
      "##깍": 2110,
      "##륵": 2111,
      "##뭇": 2112,
      "##렉": 2113,
      "##젔": 2114,
      "##렬": 2115,
      "##팬": 2116,
      "##꿀": 2117,
      "##덥": 2118,
      "##럿": 2119,
      "##뱉": 2120,
      "##핀": 2121,
      "##첨": 2122,
      "##낳": 2123,
      "##뻣": 2124,
      "##엣": 2125,
      "##붕": 2126,
      "##젝": 2127,
      "##낄": 2128,
      "##쌍": 2129,
      "##욜": 2130,
      "##클": 2131,
      "##퓨": 2132,
      "##랖": 2133,
      "##긍": 2134,
      "##욱": 2135,
      "##챙": 2136,
      "##웁": 2137,
      "##뀔": 2138,
      "##잌": 2139,
      "##셥": 2140,
      "##귈": 2141,
      "##찾": 2142,
      "##넌": 2143,
      "##뛰": 2144,
      "##밭": 2145,
      "##섰": 2146,
      "##채": 2147,
      "##팠": 2148,
      "##잤": 2149,
      "##팔": 2150,
      "##졸": 2151,
      "##짰": 2152,
      "##옇": 2153,
      "##볶": 2154,
      "##널": 2155,
      "##짼": 2156,
      "##촉": 2157,
      "##딨": 2158,
      "##퉜": 2159,
      "##웽": 2160,
      "##즙": 2161,
      "##렁": 2162,
      "##쏠": 2163,
      "##츠": 2164,
      "##촬": 2165,
      "##P": 2166,
      "##L": 2167,
      "##쿼": 2168,
      "##쨌": 2169,
      "##곧": 2170,
      "##콤": 2171,
      "##찹": 2172,
      "##렷": 2173,
      "##헥": 2174,
      "##쌈": 2175,
      "##옵": 2176,
      "##총": 2177,
      "##딘": 2178,
      "##텍": 2179,
      "##쥐": 2180,
      "##꽈": 2181,
      "##밸": 2182,
      "##룰": 2183,
      "##깃": 2184,
      "##룸": 2185,
      "##얄": 2186,
      "##탱": 2187,
      "##챘": 2188,
      "##덴": 2189,
      "##뱄": 2190,
      "##톤": 2191,
      "##층": 2192,
      "##흠": 2193,
      "##뇽": 2194,
      "##퉁": 2195,
      "##텻": 2196,
      "##붙": 2197,
      "##둠": 2198,
      "##궜": 2199,
      "##깅": 2200,
      "##익": 2201,
      "##긋": 2202,
      "##칼": 2203,
      "##쓴": 2204,
      "##깊": 2205,
      "##맷": 2206,
      "##켓": 2207,
      "##얘": 2208,
      "##쾌": 2209,
      "##윙": 2210,
      "##섯": 2211,
      "##램": 2212,
      "##빼": 2213,
      "##쭉": 2214,
      "##냅": 2215,
      "##혐": 2216,
      "##찐": 2217,
      "##쿠": 2218,
      "##즐": 2219,
      "##뇨": 2220,
      "##넛": 2221,
      "##맹": 2222,
      "##핍": 2223,
      "##꼭": 2224,
      "##캄": 2225,
      "##냉": 2226,
      "##쇠": 2227,
      "##협": 2228,
      "##댜": 2229,
      "##윗": 2230,
      "##-": 2231,
      "##_": 2232,
      "##D": 2233,
      "##희": 2234,
      "##댄": 2235,
      "##뻑": 2236,
      "##델": 2237,
      "##줍": 2238,
      "##칙": 2239,
      "##샤": 2240,
      "##킴": 2241,
      "##쫄": 2242,
      "##k": 2243,
      "##세요": 2244,
      "##보세요": 2245,
      "##하는": 2246,
      "##예요": 2247,
      "사람": 2248,
      "좋아": 2249,
      "##어요": 2250,
      "거예요": 2251,
      "사랑": 2252,
      "##네요": 2253,
      "##니다": 2254,
      "생각": 2255,
      "##봐요": 2256,
      "##는데": 2257,
      "마음": 2258,
      "너무": 2259,
      "##아요": 2260,
      "좋아하는": 2261,
      "##해보세요": 2262,
      "이별": 2263,
      "연락": 2264,
      "##하고": 2265,
      "헤어": 2266,
      "있을": 2267,
      "여자": 2268,
      "남자": 2269,
      "##으면": 2270,
      "힘들": 2271,
      "##친구": 2272,
      "좋은": 2273,
      "##나봐요": 2274,
      "##하지": 2275,
      "많이": 2276,
      "시간": 2277,
      "사람이": 2278,
      "##에요": 2279,
      "##으로": 2280,
      "친구": 2281,
      "##한테": 2282,
      "##에서": 2283,
      "같아요": 2284,
      "##해요": 2285,
      "##까요": 2286,
      "##겠어요": 2287,
      "있어요": 2288,
      "싶어": 2289,
      "##하면": 2290,
      "오늘": 2291,
      "같아": 2292,
      "만나": 2293,
      "##하세요": 2294,
      "##이에요": 2295,
      "##하게": 2296,
      "##겠네요": 2297,
      "##주세요": 2298,
      "자신": 2299,
      "이제": 2300,
      "##에게": 2301,
      "좋을": 2302,
      "##습니다": 2303,
      "아니": 2304,
      "##는게": 2305,
      "괜찮": 2306,
      "마세요": 2307,
      "##겠지": 2308,
      "마음이": 2309,
      "##라고": 2310,
      "연애": 2311,
      "내가": 2312,
      "##게요": 2313,
      "있는": 2314,
      "필요": 2315,
      "##친구가": 2316,
      "해보세요": 2317,
      "모르": 2318,
      "어떻": 2319,
      "##다면": 2320,
      "다른": 2321,
      "##가봐요": 2322,
      "어떻게": 2323,
      "짝남": 2324,
      "헤어진": 2325,
      "시간이": 2326,
      "##다고": 2327,
      "없어": 2328,
      "당신": 2329,
      "##해도": 2330,
      "##겠어": 2331,
      "싶다": 2332,
      "다시": 2333,
      "##겠죠": 2334,
      "##사랑": 2335,
      "혼자": 2336,
      "하는": 2337,
      "있어": 2338,
      "하고": 2339,
      "##인데": 2340,
      "결혼": 2341,
      "정말": 2342,
      "지금": 2343,
      "##들이": 2344,
      "정리": 2345,
      "수도": 2346,
      "기다": 2347,
      "중요": 2348,
      "그런": 2349,
      "##이네요": 2350,
      "##야지": 2351,
      "행복": 2352,
      "##할까": 2353,
      "조금": 2354,
      "같이": 2355,
      "##어보세요": 2356,
      "것도": 2357,
      "##렇게": 2358,
      "고민": 2359,
      "##은데": 2360,
      "아직": 2361,
      "##라요": 2362,
      "짝사랑": 2363,
      "##지만": 2364,
      "##이라": 2365,
      "자꾸": 2366,
      "준비": 2367,
      "##지도": 2368,
      "선물": 2369,
      "찾아": 2370,
      "##보다": 2371,
      "보고": 2372,
      "아무": 2373,
      "힘든": 2374,
      "저도": 2375,
      "고백": 2376,
      "없어요": 2377,
      "##이죠": 2378,
      "##야기": 2379,
      "짝녀": 2380,
      "##거예요": 2381,
      "##까지": 2382,
      "바랄": 2383,
      "##니까요": 2384,
      "그럴": 2385,
      "진짜": 2386,
      "후회": 2387,
      "먼저": 2388,
      "서로": 2389,
      "##겠다": 2390,
      "##을까": 2391,
      "바랄게요": 2392,
      "없는": 2393,
      "##해서": 2394,
      "제가": 2395,
      "돼요": 2396,
      "방법": 2397,
      "사귀": 2398,
      "이야기": 2399,
      "##해야": 2400,
      "헤어지": 2401,
      "시작": 2402,
      "헤어진지": 2403,
      "들어": 2404,
      "해야": 2405,
      "있을까": 2406,
      "그녀": 2407,
      "하나": 2408,
      "##에는": 2409,
      "계속": 2410,
      "일이": 2411,
      "##인가": 2412,
      "##이야": 2413,
      "나를": 2414,
      "받아": 2415,
      "아닌": 2416,
      "좋아요": 2417,
      "공부": 2418,
      "##볼까": 2419,
      "##해주세요": 2420,
      "감정": 2421,
      "사랑이": 2422,
      "마음을": 2423,
      "가능": 2424,
      "될까": 2425,
      "보세요": 2426,
      "##이트": 2427,
      "기분": 2428,
      "여자친구가": 2429,
      "먹고": 2430,
      "힘드": 2431,
      "##려고": 2432,
      "남자친구가": 2433,
      "만들": 2434,
      "##보는": 2435,
      "##면서": 2436,
      "##기가": 2437,
      "##랍니다": 2438,
      "여자친구": 2439,
      "드세요": 2440,
      "않아요": 2441,
      "하세요": 2442,
      "##대로": 2443,
      "##했어": 2444,
      "신경": 2445,
      "이상": 2446,
      "좋죠": 2447,
      "하루": 2448,
      "##다는": 2449,
      "##봅니다": 2450,
      "##리는": 2451,
      "##지는": 2452,
      "많은": 2453,
      "하지": 2454,
      "##니까": 2455,
      "걱정": 2456,
      "##자고": 2457,
      "##하기": 2458,
      "알아": 2459,
      "바랍니다": 2460,
      "싫어": 2461,
      "상대": 2462,
      "##나요": 2463,
      "##합니다": 2464,
      "##하는게": 2465,
      "그래": 2466,
      "##입니다": 2467,
      "사랑하는": 2468,
      "관심": 2469,
      "기억": 2470,
      "힘들어": 2471,
      "데이트": 2472,
      "해요": 2473,
      "남자친구": 2474,
      "말해보세요": 2475,
      "상처": 2476,
      "##적인": 2477,
      "생각해요": 2478,
      "언제": 2479,
      "##이랑": 2480,
      "##로운": 2481,
      "##스러": 2482,
      "맛있": 2483,
      "어떨": 2484,
      "여행": 2485,
      "좋겠어요": 2486,
      "충분": 2487,
      "무슨": 2488,
      "어떤": 2489,
      "있었": 2490,
      "##하죠": 2491,
      "##다가": 2492,
      "있으면": 2493,
      "친구가": 2494,
      "그냥": 2495,
      "대화": 2496,
      "카톡": 2497,
      "할까": 2498,
      "함께": 2499,
      "##이었": 2500,
      "사람은": 2501,
      "않는": 2502,
      "이렇게": 2503,
      "##인지": 2504,
      "나만": 2505,
      "물어": 2506,
      "안돼": 2507,
      "##부터": 2508,
      "헤어졌": 2509,
      "내일": 2510,
      "오래": 2511,
      "누구": 2512,
      "몰라요": 2513,
      "않을": 2514,
      "표현": 2515,
      "##하네": 2516,
      "힘드네": 2517,
      "머리": 2518,
      "이해": 2519,
      "여친": 2520,
      "전화": 2521,
      "##라도": 2522,
      "자신을": 2523,
      "##가는": 2524,
      "사랑은": 2525,
      "결정": 2526,
      "궁금": 2527,
      "많아": 2528,
      "운동": 2529,
      "이유": 2530,
      "하면": 2531,
      "##리고": 2532,
      "새로운": 2533,
      "어디": 2534,
      "사람을": 2535,
      "선택": 2536,
      "아프": 2537,
      "한달": 2538,
      "##기도": 2539,
      "##겠지만": 2540,
      "어떨까요": 2541,
      "돌아": 2542,
      "부담": 2543,
      "스트": 2544,
      "썸남": 2545,
      "있는데": 2546,
      "생각해보세요": 2547,
      "스트레": 2548,
      "미련": 2549,
      "안되": 2550,
      "주세요": 2551,
      "##했던": 2552,
      "생겼": 2553,
      "해도": 2554,
      "##어도": 2555,
      "##텐데": 2556,
      "나한테": 2557,
      "타는": 2558,
      "회사": 2559,
      "노력": 2560,
      "말고": 2561,
      "보내": 2562,
      "직접": 2563,
      "##해주": 2564,
      "##었어": 2565,
      "##개월": 2566,
      "아니에요": 2567,
      "가고": 2568,
      "그만": 2569,
      "다가": 2570,
      "따라": 2571,
      "만큼": 2572,
      "##거나": 2573,
      "##나봐": 2574,
      "생각나": 2575,
      "때문": 2576,
      "않아": 2577,
      "인연": 2578,
      "좋겠네요": 2579,
      "지나": 2580,
      "##았는데": 2581,
      "생각이": 2582,
      "연락이": 2583,
      "그러": 2584,
      "싶은": 2585,
      "어떡": 2586,
      "##처럼": 2587,
      "생각을": 2588,
      "만날": 2589,
      "않았": 2590,
      "이젠": 2591,
      "재미": 2592,
      "##이나": 2593,
      "##움이": 2594,
      "같은데": 2595,
      "그게": 2596,
      "소개": 2597,
      "어려": 2598,
      "항상": 2599,
      "##나봅니다": 2600,
      "##으세요": 2601,
      "이별을": 2602,
      "괜찮아": 2603,
      "신경쓰": 2604,
      "스트레스": 2605,
      "그렇게": 2606,
      "남친": 2607,
      "쉽지": 2608,
      "인생": 2609,
      "잘못": 2610,
      "저는": 2611,
      "##가요": 2612,
      "##해지": 2613,
      "##군요": 2614,
      "마음에": 2615,
      "짝남이": 2616,
      "문제": 2617,
      "아파": 2618,
      "조심": 2619,
      "##적으로": 2620,
      "같은": 2621,
      "노래": 2622,
      "바라요": 2623,
      "좋겠다": 2624,
      "처음": 2625,
      "##인가봐요": 2626,
      "##했는데": 2627,
      "##기를": 2628,
      "모르겠어": 2629,
      "느낌": 2630,
      "상황": 2631,
      "어때": 2632,
      "##거라": 2633,
      "##어나": 2634,
      "##하네요": 2635,
      "##보고": 2636,
      "##하는데": 2637,
      "때가": 2638,
      "우리": 2639,
      "##리세요": 2640,
      "##려보세요": 2641,
      "##하다": 2642,
      "나이": 2643,
      "달라": 2644,
      "만났": 2645,
      "변화": 2646,
      "축하": 2647,
      "##는지": 2648,
      "중요한": 2649,
      "찾아보세요": 2650,
      "확실": 2651,
      "##스럽": 2652,
      "사랑을": 2653,
      "가보세요": 2654,
      "결국": 2655,
      "답답": 2656,
      "위로": 2657,
      "챙겨": 2658,
      "추억": 2659,
      "화장": 2660,
      "##졌어": 2661,
      "이별은": 2662,
      "가는": 2663,
      "기대": 2664,
      "나는": 2665,
      "다음": 2666,
      "말을": 2667,
      "현실": 2668,
      "생각해": 2669,
      "괜찮아요": 2670,
      "말씀": 2671,
      "사이": 2672,
      "세상": 2673,
      "영화": 2674,
      "요즘": 2675,
      "잊어": 2676,
      "좋겠어": 2677,
      "힘내": 2678,
      "##지요": 2679,
      "충분히": 2680,
      "그렇": 2681,
      "도움이": 2682,
      "사랑한": 2683,
      "대화를": 2684,
      "물어보세요": 2685,
      "열심": 2686,
      "의미": 2687,
      "있죠": 2688,
      "##는거": 2689,
      "##지막": 2690,
      "##만에": 2691,
      "##감이": 2692,
      "여자애": 2693,
      "아직도": 2694,
      "열심히": 2695,
      "가지": 2696,
      "가져": 2697,
      "마지막": 2698,
      "않은": 2699,
      "언젠": 2700,
      "추천": 2701,
      "확인": 2702,
      "##이네": 2703,
      "##동안": 2704,
      "##았어": 2705,
      "##걸까": 2706,
      "##싶어": 2707,
      "마음의": 2708,
      "연락을": 2709,
      "좋을까": 2710,
      "말해": 2711,
      "말아요": 2712,
      "먹어": 2713,
      "싶은데": 2714,
      "아침": 2715,
      "얼른": 2716,
      "정신": 2717,
      "집에": 2718,
      "##보면": 2719,
      "##것도": 2720,
      "##이라도": 2721,
      "가슴": 2722,
      "건강": 2723,
      "관계": 2724,
      "나쁜": 2725,
      "만남": 2726,
      "부모": 2727,
      "습관": 2728,
      "어제": 2729,
      "사랑의": 2730,
      "연락해보세요": 2731,
      "시간을": 2732,
      "오늘도": 2733,
      "상대방": 2734,
      "때문에": 2735,
      "1년": 2736,
      "거라": 2737,
      "되었": 2738,
      "매일": 2739,
      "##한가봐요": 2740,
      "##으니까요": 2741,
      "##일까": 2742,
      "##워요": 2743,
      "헤어짐": 2744,
      "짝녀가": 2745,
      "가장": 2746,
      "귀찮": 2747,
      "그리": 2748,
      "다르": 2749,
      "살고": 2750,
      "어느": 2751,
      "완전": 2752,
      "이런": 2753,
      "있나봐요": 2754,
      "재회": 2755,
      "##했나봐요": 2756,
      "##사람": 2757,
      "남자애": 2758,
      "당신의": 2759,
      "조금만": 2760,
      "부모님": 2761,
      "나가": 2762,
      "떨어": 2763,
      "바람": 2764,
      "아닐": 2765,
      "제일": 2766,
      "커피": 2767,
      "해볼까": 2768,
      "핸드": 2769,
      "##자기": 2770,
      "##릴게요": 2771,
      "조금씩": 2772,
      "헤어지고": 2773,
      "대한": 2774,
      "못하": 2775,
      "알려": 2776,
      "얼마": 2777,
      "오세요": 2778,
      "진심": 2779,
      "##신이": 2780,
      "##감을": 2781,
      "사람들": 2782,
      "좋아하": 2783,
      "남자가": 2784,
      "##하면서": 2785,
      "아니라": 2786,
      "같애": 2787,
      "많았": 2788,
      "모든": 2789,
      "성공": 2790,
      "순간": 2791,
      "자연": 2792,
      "잘할": 2793,
      "##한지": 2794,
      "##리가": 2795,
      "##더니": 2796,
      "기다리": 2797,
      "그래도": 2798,
      "핸드폰": 2799,
      "갑자기": 2800,
      "맞는": 2801,
      "살아": 2802,
      "엄마": 2803,
      "연습": 2804,
      "인정": 2805,
      "주말": 2806,
      "한번": 2807,
      "##스로": 2808,
      "이별이": 2809,
      "사람이랑": 2810,
      "자신의": 2811,
      "중요해요": 2812,
      "##스러운": 2813,
      "조심하세요": 2814,
      "되는": 2815,
      "사진": 2816,
      "알았는데": 2817,
      "엄청": 2818,
      "없을": 2819,
      "잊혀": 2820,
      "합니다": 2821,
      "했는데": 2822,
      "사람들이": 2823,
      "모르는": 2824,
      "가끔": 2825,
      "모두": 2826,
      "복잡": 2827,
      "스스로": 2828,
      "얼굴": 2829,
      "없네": 2830,
      "예의": 2831,
      "예뻐": 2832,
      "왔어": 2833,
      "재밌": 2834,
      "##적이": 2835,
      "##하겠어요": 2836,
      "##지지": 2837,
      "##수록": 2838,
      "좋아할": 2839,
      "여자가": 2840,
      "필요한": 2841,
      "날씨": 2842,
      "남편": 2843,
      "상관": 2844,
      "쉬운": 2845,
      "자주": 2846,
      "지내": 2847,
      "##달라고": 2848,
      "##같은": 2849,
      "##마세요": 2850,
      "##폭풍": 2851,
      "만나고": 2852,
      "짝남한테": 2853,
      "정리가": 2854,
      "소개팅": 2855,
      "떠나": 2856,
      "마시": 2857,
      "뭘까": 2858,
      "보이": 2859,
      "보는": 2860,
      "아픈": 2861,
      "알바": 2862,
      "저랑": 2863,
      "##었는데": 2864,
      "##왔어": 2865,
      "사람한테": 2866,
      "당신이": 2867,
      "기분이": 2868,
      "눈물": 2869,
      "되나": 2870,
      "무서": 2871,
      "무시": 2872,
      "실수": 2873,
      "싶어요": 2874,
      "있다면": 2875,
      "잘하는": 2876,
      "짜증": 2877,
      "피곤": 2878,
      "후폭풍": 2879,
      "##거리": 2880,
      "##다니": 2881,
      "##기로": 2882,
      "##없이": 2883,
      "##력이": 2884,
      "생각보다": 2885,
      "연락해": 2886,
      "모르겠어요": 2887,
      "어떡해": 2888,
      "나와": 2889,
      "도와": 2890,
      "별로": 2891,
      "아픔": 2892,
      "정도": 2893,
      "##려요": 2894,
      "##가고": 2895,
      "##해질": 2896,
      "##건가": 2897,
      "##만큼": 2898,
      "##쁘게": 2899,
      "오늘은": 2900,
      "지금도": 2901,
      "기다려": 2902,
      "받아들이": 2903,
      "만들어": 2904,
      "가족": 2905,
      "걸까": 2906,
      "극복": 2907,
      "끝나": 2908,
      "모습": 2909,
      "뭐가": 2910,
      "붙잡": 2911,
      "빨리": 2912,
      "사는": 2913,
      "솔직": 2914,
      "잘하고": 2915,
      "지켜": 2916,
      "차단": 2917,
      "천천": 2918,
      "학교": 2919,
      "##해줘": 2920,
      "##지가": 2921,
      "##일째": 2922,
      "사랑에": 2923,
      "친구랑": 2924,
      "괜찮은": 2925,
      "천천히": 2926,
      "감기": 2927,
      "것이": 2928,
      "그분": 2929,
      "끝났": 2930,
      "다녀": 2931,
      "따뜻": 2932,
      "마주": 2933,
      "벌써": 2934,
      "보여": 2935,
      "설레": 2936,
      "자기": 2937,
      "점점": 2938,
      "확신이": 2939,
      "환승": 2940,
      "##시간": 2941,
      "##기까지": 2942,
      "##같아": 2943,
      "##마다": 2944,
      "맛있게": 2945,
      "인연이": 2946,
      "내려": 2947,
      "두려": 2948,
      "만난": 2949,
      "사세요": 2950,
      "살펴": 2951,
      "아이": 2952,
      "운명": 2953,
      "직장": 2954,
      "하죠": 2955,
      "하는데": 2956,
      "힘이": 2957,
      "##이면": 2958,
      "##기는": 2959,
      "##주는": 2960,
      "##드릴게요": 2961,
      "사람도": 2962,
      "자신이": 2963,
      "당신을": 2964,
      "다가가": 2965,
      "날이": 2966,
      "놓아": 2967,
      "배우": 2968,
      "봐요": 2969,
      "잠시": 2970,
      "주변": 2971,
      "첫사랑": 2972,
      "행동": 2973,
      "##거야": 2974,
      "##하나": 2975,
      "##하겠네요": 2976,
      "연락하고": 2977,
      "힘들었": 2978,
      "하나씩": 2979,
      "이유가": 2980,
      "힘내세요": 2981,
      "게임": 2982,
      "나서": 2983,
      "눈을": 2984,
      "되어": 2985,
      "되길": 2986,
      "믿어요": 2987,
      "뿐이에요": 2988,
      "성격": 2989,
      "안녕": 2990,
      "익숙": 2991,
      "일찍": 2992,
      "##있는": 2993,
      "친구들": 2994,
      "##겠지요": 2995,
      "서로에게": 2996,
      "사귀고": 2997,
      "아닌데": 2998,
      "##스러워": 2999,
      "신경쓰지": 3000,
      "언젠간": 3001,
      "많았어요": 3002,
      "!!": 3003,
      "2년": 3004,
      "나도": 3005,
      "나을": 3006,
      "놀러": 3007,
      "도전": 3008,
      "마련": 3009,
      "무엇": 3010,
      "바라": 3011,
      "받고": 3012,
      "스타": 3013,
      "슬픈": 3014,
      "않죠": 3015,
      "있나": 3016,
      "즐거": 3017,
      "지났": 3018,
      "집착": 3019,
      "해주세요": 3020,
      "##리지": 3021,
      "##이별": 3022,
      "##다보면": 3023,
      "##로워": 3024,
      "힘들다": 3025,
      "가서": 3026,
      "거죠": 3027,
      "관리": 3028,
      "나아": 3029,
      "나오": 3030,
      "느껴": 3031,
      "아는": 3032,
      "오랜": 3033,
      "이겨": 3034,
      "자존": 3035,
      "전여": 3036,
      "주무": 3037,
      "후련": 3038,
      "##에도": 3039,
      "##래도": 3040,
      "##남친": 3041,
      "힘들게": 3042,
      "만나는": 3043,
      "행복해": 3044,
      "있었나봐요": 3045,
      "거짓": 3046,
      "끝이": 3047,
      "다행": 3048,
      "말이": 3049,
      "뭐야": 3050,
      "알게": 3051,
      "여유": 3052,
      "연인": 3053,
      "용기": 3054,
      "우울": 3055,
      "원하는": 3056,
      "위해": 3057,
      "일어나": 3058,
      "잊지": 3059,
      "자체": 3060,
      "최고": 3061,
      "카페": 3062,
      "포기": 3063,
      "헷갈": 3064,
      "##이는": 3065,
      "##하길": 3066,
      "##생활": 3067,
      "좋아해": 3068,
      "생각할": 3069,
      "이별한지": 3070,
      "아무것도": 3071,
      "아무래도": 3072,
      "이상형": 3073,
      "##이었을": 3074,
      "못하겠어": 3075,
      "곳으로": 3076,
      "꿈에": 3077,
      "나중": 3078,
      "눈이": 3079,
      "되지": 3080,
      "먹으면": 3081,
      "부족": 3082,
      "비싸": 3083,
      "소중": 3084,
      "썸타": 3085,
      "없이": 3086,
      "응원": 3087,
      "이어": 3088,
      "전에": 3089,
      "했어": 3090,
      "##어야": 3091,
      "##정이": 3092,
      "##했어요": 3093,
      "##지고": 3094,
      "##사를": 3095,
      "##르고": 3096,
      "##여행": 3097,
      "##여보세요": 3098,
      "사랑했던": 3099,
      "이별후": 3100,
      "지금은": 3101,
      "보고싶": 3102,
      "여친이": 3103,
      "먹어야지": 3104,
      "귀찮아": 3105,
      "주무세요": 3106,
      "거짓말": 3107,
      "금방": 3108,
      "늦지": 3109,
      "다를": 3110,
      "데려": 3111,
      "많아요": 3112,
      "미안": 3113,
      "보면": 3114,
      "보통": 3115,
      "부러": 3116,
      "생일": 3117,
      "싶네요": 3118,
      "싸우": 3119,
      "없죠": 3120,
      "전남친": 3121,
      "죽을": 3122,
      "##한데": 3123,
      "##었나봐요": 3124,
      "##져요": 3125,
      "##더라": 3126,
      "##버렸": 3127,
      "좋아하면": 3128,
      "좋아하게": 3129,
      "친구를": 3130,
      "괜찮을까": 3131,
      "필요해": 3132,
      "필요해요": 3133,
      "사귀는": 3134,
      "그녀를": 3135,
      "않아도": 3136,
      "가져보세요": 3137,
      "예의가": 3138,
      "나중에": 3139,
      "가야": 3140,
      "건지": 3141,
      "고생": 3142,
      "대로": 3143,
      "때까지": 3144,
      "맨날": 3145,
      "미리": 3146,
      "받는": 3147,
      "부분": 3148,
      "소식": 3149,
      "애가": 3150,
      "어렵": 3151,
      "없네요": 3152,
      "우산": 3153,
      "월급": 3154,
      "일을": 3155,
      "잊는": 3156,
      "작은": 3157,
      "잠이": 3158,
      "주는": 3159,
      "중에": 3160,
      "진정": 3161,
      "충전": 3162,
      "##리를": 3163,
      "##했으면": 3164,
      "##겠습니다": 3165,
      "##들어": 3166,
      "##사친": 3167,
      "##움을": 3168,
      "이별의": 3169,
      "친구한테": 3170,
      "만나지": 3171,
      "당신은": 3172,
      "중요하지": 3173,
      "##이라면": 3174,
      "짝녀한테": 3175,
      "감정을": 3176,
      "헤어졌습니다": 3177,
      "##해주는": 3178,
      "만났어": 3179,
      "##스럽게": 3180,
      "확인해보세요": 3181,
      "남편이": 3182,
      "살펴보세요": 3183,
      "전여친": 3184,
      "가세요": 3185,
      "기회": 3186,
      "드는": 3187,
      "로맨": 3188,
      "바쁜": 3189,
      "받을": 3190,
      "방학": 3191,
      "비밀": 3192,
      "생길": 3193,
      "쉬고": 3194,
      "시험": 3195,
      "아름": 3196,
      "안해": 3197,
      "안나": 3198,
      "알고": 3199,
      "앞에": 3200,
      "약속": 3201,
      "예쁘게": 3202,
      "자책": 3203,
      "잠깐": 3204,
      "종교": 3205,
      "편이": 3206,
      "하늘": 3207,
      "해봐요": 3208,
      "흘렀": 3209,
      "##대요": 3210,
      "##이가": 3211,
      "##하려": 3212,
      "##하시": 3213,
      "##하겠죠": 3214,
      "##해야지": 3215,
      "##장이": 3216,
      "##으니": 3217,
      "##아서": 3218,
      "##건지": 3219,
      "사랑해주세요": 3220,
      "좋아하는데": 3221,
      "연락해도": 3222,
      "힘들죠": 3223,
      "고민이야": 3224,
      "관심이": 3225,
      "언제나": 3226,
      "누구나": 3227,
      "변화가": 3228,
      "확실한": 3229,
      "남자애가": 3230,
      "가기": 3231,
      "같습니다": 3232,
      "꾸준": 3233,
      "끝내": 3234,
      "돈이": 3235,
      "마셔": 3236,
      "맞춰": 3237,
      "멋진": 3238,
      "미치": 3239,
      "바로": 3240,
      "바쁘": 3241,
      "분위": 3242,
      "시원": 3243,
      "않고": 3244,
      "없다면": 3245,
      "이번": 3246,
      "장난": 3247,
      "적당": 3248,
      "즐기": 3249,
      "타고": 3250,
      "허전": 3251,
      "##리게": 3252,
      "##가세요": 3253,
      "##하니": 3254,
      "##겠네": 3255,
      "##들은": 3256,
      "##기만": 3257,
      "##야죠": 3258,
      "사랑할": 3259,
      "사랑하고": 3260,
      "생각만": 3261,
      "힘들어요": 3262,
      "짝남이랑": 3263,
      "고민이": 3264,
      "##이라는": 3265,
      "아닌지": 3266,
      "그래요": 3267,
      "맛있는": 3268,
      "궁금해": 3269,
      "재미있": 3270,
      "알려줘": 3271,
      "즐거운": 3272,
      "2주": 3273,
      "그리고": 3274,
      "당연": 3275,
      "됐어": 3276,
      "되네": 3277,
      "드라": 3278,
      "드디": 3279,
      "먹을": 3280,
      "못하는": 3281,
      "바보": 3282,
      "보지": 3283,
      "봅니다": 3284,
      "쇼핑": 3285,
      "스킨": 3286,
      "시켜": 3287,
      "어울": 3288,
      "어쩌": 3289,
      "여러": 3290,
      "이러": 3291,
      "절대": 3292,
      "존중": 3293,
      "좋겠죠": 3294,
      "중인데": 3295,
      "취미": 3296,
      "칭찬": 3297,
      "해결": 3298,
      "##가네": 3299,
      "##들을": 3300,
      "##야겠다": 3301,
      "##일이": 3302,
      "##더라고": 3303,
      "##잖아요": 3304,
      "힘들겠지만": 3305,
      "좋은데": 3306,
      "친구들이": 3307,
      "이제는": 3308,
      "있는지": 3309,
      "받아들": 3310,
      "상처받": 3311,
      "여자애가": 3312,
      "드디어": 3313,
      "가면": 3314,
      "간다": 3315,
      "거기까지": 3316,
      "경우": 3317,
      "곳이": 3318,
      "당당": 3319,
      "동거": 3320,
      "때도": 3321,
      "마요": 3322,
      "문자": 3323,
      "뭐라고": 3324,
      "뭔가": 3325,
      "뭔지": 3326,
      "미워": 3327,
      "싫다": 3328,
      "안경": 3329,
      "않길": 3330,
      "예민": 3331,
      "예쁜": 3332,
      "이성": 3333,
      "일은": 3334,
      "있습니다": 3335,
      "잊고": 3336,
      "자격": 3337,
      "조언": 3338,
      "지쳤": 3339,
      "차분": 3340,
      "하셨": 3341,
      "해서": 3342,
      "헤아": 3343,
      "##가를": 3344,
      "##해져": 3345,
      "##해지는": 3346,
      "##보는게": 3347,
      "##신가봐요": 3348,
      "##줄까": 3349,
      "사람에": 3350,
      "사랑해": 3351,
      "시간은": 3352,
      "괜찮을": 3353,
      "않는다면": 3354,
      "미련이": 3355,
      "어려워": 3356,
      "가슴이": 3357,
      "어느덧": 3358,
      "아닐까요": 3359,
      "짜증나": 3360,
      "두려워": 3361,
      "로맨틱": 3362,
      "자책하지": 3363,
      "##더라고요": 3364,
      "10": 3365,
      "5년": 3366,
      "??": 3367,
      "것을": 3368,
      "그대로": 3369,
      "기본": 3370,
      "까먹": 3371,
      "나랑": 3372,
      "되고": 3373,
      "두달": 3374,
      "못해": 3375,
      "번호": 3376,
      "보러": 3377,
      "볼까": 3378,
      "서운": 3379,
      "슬프": 3380,
      "썸녀": 3381,
      "어쩔": 3382,
      "오는": 3383,
      "취직": 3384,
      "커플": 3385,
      "타이": 3386,
      "태어": 3387,
      "해주": 3388,
      "##한게": 3389,
      "##자리": 3390,
      "##이지": 3391,
      "##가봅니다": 3392,
      "##해졌": 3393,
      "##아보세요": 3394,
      "##답니다": 3395,
      "##전히": 3396,
      "##드려요": 3397,
      "##음이": 3398,
      "##받고": 3399,
      "사랑하면": 3400,
      "생각하고": 3401,
      "마음도": 3402,
      "마음은": 3403,
      "좋아하는게": 3404,
      "헤어져": 3405,
      "방법이": 3406,
      "물어보는": 3407,
      "부담스러워": 3408,
      "안되는": 3409,
      "그러면": 3410,
      "문제가": 3411,
      "축하해요": 3412,
      "자연스러운": 3413,
      "받아들이는": 3414,
      "다행이에요": 3415,
      "타이밍": 3416,
      "갖고": 3417,
      "같네요": 3418,
      "것보다": 3419,
      "군대": 3420,
      "귀여": 3421,
      "능력이": 3422,
      "떨려": 3423,
      "말하세요": 3424,
      "뭐든": 3425,
      "배워": 3426,
      "불편": 3427,
      "사과": 3428,
      "상담": 3429,
      "선생": 3430,
      "소리": 3431,
      "용기를": 3432,
      "일주": 3433,
      "잊을": 3434,
      "자유": 3435,
      "저를": 3436,
      "적응": 3437,
      "졸업": 3438,
      "집중": 3439,
      "최선": 3440,
      "흔들": 3441,
      "##자는": 3442,
      "##리스": 3443,
      "##했다": 3444,
      "##보여": 3445,
      "##식을": 3446,
      "##때는": 3447,
      "##야할": 3448,
      "##상이에요": 3449,
      "##심해": 3450,
      "##스크": 3451,
      "##마스": 3452,
      "##연애": 3453,
      "##오세요": 3454,
      "##줬으면": 3455,
      "##버리세요": 3456,
      "사람마다": 3457,
      "힘들겠어요": 3458,
      "사람이네요": 3459,
      "기다리고": 3460,
      "준비가": 3461,
      "후회하지": 3462,
      "이상한": 3463,
      "관심을": 3464,
      "충분한": 3465,
      "헤어졌어": 3466,
      "썸남이": 3467,
      "않았으면": 3468,
      "어려운": 3469,
      "위로해": 3470,
      "화장실": 3471,
      "다음에는": 3472,
      "가지고": 3473,
      "진심으로": 3474,
      "무서워": 3475,
      "꾸준히": 3476,
      "적당히": 3477,
      "선생님": 3478,
      "가치": 3479,
      "가야지": 3480,
      "고마": 3481,
      "그건": 3482,
      "그사람": 3483,
      "끝을": 3484,
      "나온": 3485,
      "누가": 3486,
      "대학": 3487,
      "두근": 3488,
      "몰랐": 3489,
      "몸이": 3490,
      "받았어": 3491,
      "배려": 3492,
      "병원": 3493,
      "삭제": 3494,
      "생기": 3495,
      "어색": 3496,
      "연예": 3497,
      "오빠": 3498,
      "원래": 3499,
      "위험": 3500,
      "이기": 3501,
      "일어": 3502,
      "있네요": 3503,
      "있겠어요": 3504,
      "있나요": 3505,
      "있잖아요": 3506,
      "잠을": 3507,
      "잠수": 3508,
      "저에게": 3509,
      "적극": 3510,
      "제대로": 3511,
      "좋았": 3512,
      "질투": 3513,
      "집안": 3514,
      "청소": 3515,
      "출근": 3516,
      "키우": 3517,
      "하는게": 3518,
      "##한거": 3519,
      "##한다": 3520,
      "##하려고": 3521,
      "##시켜": 3522,
      "##만의": 3523,
      "##았나봐요": 3524,
      "##오네": 3525,
      "##함이": 3526,
      "사람과": 3527,
      "사람에게": 3528,
      "좋아하는지": 3529,
      "만나보세요": 3530,
      "자신에게": 3531,
      "그녀가": 3532,
      "감정이": 3533,
      "않을까요": 3534,
      "남친이": 3535,
      "후폭풍이": 3536,
      "스타일": 3537,
      "스킨십": 3538,
      "3년": 3539,
      "3개월": 3540,
      "감사": 3541,
      "경험": 3542,
      "꿈을": 3543,
      "나눠": 3544,
      "놀이": 3545,
      "눈치": 3546,
      "다이": 3547,
      "담배": 3548,
      "당황": 3549,
      "되겠네요": 3550,
      "말하는": 3551,
      "무뎌": 3552,
      "무너": 3553,
      "발표": 3554,
      "버려": 3555,
      "버텨": 3556,
      "보냈": 3557,
      "본인": 3558,
      "쉽게": 3559,
      "싫은": 3560,
      "안타": 3561,
      "안하고": 3562,
      "안들어": 3563,
      "애랑": 3564,
      "얘기": 3565,
      "어플": 3566,
      "올려": 3567,
      "일이에요": 3568,
      "좋지": 3569,
      "좋다": 3570,
      "착각": 3571,
      "편지": 3572,
      "프로": 3573,
      "프사": 3574,
      "하기": 3575,
      "해보는": 3576,
      "##인거": 3577,
      "##이요": 3578,
      "##이라고": 3579,
      "##려면": 3580,
      "##가지": 3581,
      "##하다고": 3582,
      "##었다": 3583,
      "##시는": 3584,
      "##시길": 3585,
      "##르는": 3586,
      "##내서": 3587,
      "##내고": 3588,
      "##놓고": 3589,
      "사람의": 3590,
      "좋아한": 3591,
      "만나자고": 3592,
      "자신감을": 3593,
      "있어도": 3594,
      "그런가봐요": 3595,
      "행복한": 3596,
      "보고싶어": 3597,
      "후회할": 3598,
      "서로를": 3599,
      "하나도": 3600,
      "##인가봐": 3601,
      "머리가": 3602,
      "상황을": 3603,
      "완전히": 3604,
      "성격이": 3605,
      "데려다": 3606,
      "아름다": 3607,
      "연예인": 3608,
      "같네": 3609,
      "과정": 3610,
      "귀엽": 3611,
      "기운": 3612,
      "끝은": 3613,
      "나타": 3614,
      "놀아요": 3615,
      "동생": 3616,
      "드시": 3617,
      "말도": 3618,
      "맘고": 3619,
      "먹는": 3620,
      "못하고": 3621,
      "바빠": 3622,
      "바꿔": 3623,
      "발전": 3624,
      "부탁": 3625,
      "사실": 3626,
      "살짝": 3627,
      "새벽": 3628,
      "생긴": 3629,
      "속이": 3630,
      "싶지": 3631,
      "안됐": 3632,
      "우선": 3633,
      "위한": 3634,
      "이사": 3635,
      "인사": 3636,
      "일도": 3637,
      "일상": 3638,
      "있고": 3639,
      "점심": 3640,
      "존재": 3641,
      "주고": 3642,
      "차이": 3643,
      "피부": 3644,
      "한동안": 3645,
      "해줘": 3646,
      "호감이": 3647,
      "##리면": 3648,
      "##이길": 3649,
      "##어머": 3650,
      "##했습니다": 3651,
      "##지네": 3652,
      "##었네": 3653,
      "##장을": 3654,
      "##시다": 3655,
      "##라는": 3656,
      "##라면": 3657,
      "##구나": 3658,
      "##없는": 3659,
      "##질까": 3660,
      "##워질": 3661,
      "##성이": 3662,
      "생각하세요": 3663,
      "##으면서": 3664,
      "힘들지": 3665,
      "만나세요": 3666,
      "혼자가": 3667,
      "기다릴": 3668,
      "아무리": 3669,
      "시작해보세요": 3670,
      "##인가요": 3671,
      "돌아오": 3672,
      "축하드려요": 3673,
      "말씀해주세요": 3674,
      "그리워": 3675,
      "연습을": 3676,
      "눈물이": 3677,
      "놓아주세요": 3678,
      "무엇이": 3679,
      "##리스마스": 3680,
      "맘고생": 3681,
      "SN": 3682,
      "가자고": 3683,
      "갈까": 3684,
      "걸로": 3685,
      "계획": 3686,
      "고쳐": 3687,
      "괜히": 3688,
      "괴롭": 3689,
      "그럼": 3690,
      "그랬": 3691,
      "다니": 3692,
      "되는데": 3693,
      "듣고": 3694,
      "따로": 3695,
      "떠난": 3696,
      "면접": 3697,
      "목소": 3698,
      "못한": 3699,
      "무섭": 3700,
      "바뀌": 3701,
      "받지": 3702,
      "배고": 3703,
      "버스": 3704,
      "비가": 3705,
      "살까": 3706,
      "상사": 3707,
      "속상": 3708,
      "쉬는": 3709,
      "쓰레": 3710,
      "아는데": 3711,
      "애매": 3712,
      "없다": 3713,
      "없나": 3714,
      "없애": 3715,
      "외로워": 3716,
      "우연": 3717,
      "의지": 3718,
      "이름": 3719,
      "이용": 3720,
      "자고": 3721,
      "저녁": 3722,
      "주면": 3723,
      "지우": 3724,
      "지쳐": 3725,
      "크리스마스": 3726,
      "퇴근": 3727,
      "피해": 3728,
      "학원": 3729,
      "한잔": 3730,
      "했던": 3731,
      "현상이에요": 3732,
      "##이다": 3733,
      "##봐도": 3734,
      "##어트": 3735,
      "##말고": 3736,
      "##하다면": 3737,
      "##었을": 3738,
      "##나는": 3739,
      "##력을": 3740,
      "##드세요": 3741,
      "##두세요": 3742,
      "##음을": 3743,
      "##냐고": 3744,
      "생각하는": 3745,
      "연락하면": 3746,
      "남자를": 3747,
      "##하지마세요": 3748,
      "친구로": 3749,
      "만나서": 3750,
      "좋을텐데": 3751,
      "모르겠네요": 3752,
      "이야기해보세요": 3753,
      "여자친구와": 3754,
      "이상해": 3755,
      "사랑하는데": 3756,
      "##다가도": 3757,
      "지나갈": 3758,
      "괜찮아질": 3759,
      "괜찮아졌": 3760,
      "말씀해보세요": 3761,
      "사랑한다고": 3762,
      "자연스럽게": 3763,
      "오랜만에": 3764,
      "다이어트": 3765,
      "SNS": 3766,
      "4년": 3767,
      "6개월": 3768,
      "가벼": 3769,
      "간절": 3770,
      "거절": 3771,
      "거야": 3772,
      "건가": 3773,
      "견디": 3774,
      "고치": 3775,
      "꿈이": 3776,
      "냄새": 3777,
      "누군": 3778,
      "눈에": 3779,
      "느끼": 3780,
      "대해": 3781,
      "도서": 3782,
      "돈을": 3783,
      "되면": 3784,
      "될까요": 3785,
      "많죠": 3786,
      "뭐하지": 3787,
      "미래": 3788,
      "바뀔": 3789,
      "반복": 3790,
      "불안": 3791,
      "비교": 3792,
      "사라": 3793,
      "소화": 3794,
      "쉬어": 3795,
      "쉬세요": 3796,
      "신혼": 3797,
      "심해": 3798,
      "안와": 3799,
      "안좋": 3800,
      "안해도": 3801,
      "앞으로": 3802,
      "앞에서": 3803,
      "없는데": 3804,
      "영원": 3805,
      "오해": 3806,
      "이거": 3807,
      "이혼": 3808,
      "인형": 3809,
      "있지": 3810,
      "장거리": 3811,
      "주지": 3812,
      "취업": 3813,
      "했으면": 3814,
      "호감을": 3815,
      "##리기": 3816,
      "##어서": 3817,
      "##하니까": 3818,
      "##해봐요": 3819,
      "##했을": 3820,
      "##지면": 3821,
      "##였어": 3822,
      "##을거예요": 3823,
      "##상을": 3824,
      "##일지도": 3825,
      "##만이": 3826,
      "##소한": 3827,
      "##됐어": 3828,
      "##느라": 3829,
      "좋아할까": 3830,
      "연락처": 3831,
      "연락하지": 3832,
      "사람이에요": 3833,
      "만나면": 3834,
      "필요할": 3835,
      "결혼식": 3836,
      "기다리는": 3837,
      "짝사랑하는": 3838,
      "들어드릴게요": 3839,
      "상처를": 3840,
      "내일은": 3841,
      "궁금하네요": 3842,
      "선택일": 3843,
      "부담스럽": 3844,
      "생각나는": 3845,
      "않았어요": 3846,
      "##해지면": 3847,
      "나이가": 3848,
      "만났는데": 3849,
      "확실히": 3850,
      "추억이": 3851,
      "날씨가": 3852,
      "붙잡고": 3853,
      "지켜보세요": 3854,
      "마주치": 3855,
      "여유를": 3856,
      "소중한": 3857,
      "분위기": 3858,
      "어쩌지": 3859,
      "일주일": 3860,
      "도서관": 3861,
      "가까": 3862,
      "갑작": 3863,
      "개인": 3864,
      "거울": 3865,
      "결과": 3866,
      "기간": 3867,
      "기념": 3868,
      "깔끔": 3869,
      "꿈에서": 3870,
      "나의": 3871,
      "내는": 3872,
      "느려": 3873,
      "달라고": 3874,
      "대단": 3875,
      "되죠": 3876,
      "때는": 3877,
      "때네요": 3878,
      "마스크": 3879,
      "멋있": 3880,
      "못할": 3881,
      "미친": 3882,
      "벗어나": 3883,
      "불러": 3884,
      "비슷": 3885,
      "사귈": 3886,
      "슬퍼": 3887,
      "썸이": 3888,
      "않네": 3889,
      "않으면": 3890,
      "야근": 3891,
      "역시": 3892,
      "옆에": 3893,
      "완벽": 3894,
      "왔다": 3895,
      "왔는데": 3896,
      "있으니까요": 3897,
      "잡고": 3898,
      "전해보세요": 3899,
      "조급": 3900,
      "졸려": 3901,
      "집에서": 3902,
      "차별": 3903,
      "치과": 3904,
      "크게": 3905,
      "타는데": 3906,
      "편하게": 3907,
      "하다보면": 3908,
      "했습니다": 3909,
      "호감": 3910,
      "##거려": 3911,
      "##요일": 3912,
      "##인듯": 3913,
      "##이고": 3914,
      "##하셨": 3915,
      "##할지": 3916,
      "##었던": 3917,
      "##세먼": 3918,
      "##으시": 3919,
      "##으려고": 3920,
      "##상이": 3921,
      "##심이": 3922,
      "##주지": 3923,
      "##밖에": 3924,
      "##줬어": 3925,
      "좋아하고": 3926,
      "사랑해서": 3927,
      "연락하는": 3928,
      "연애는": 3929,
      "필요하죠": 3930,
      "고민하고": 3931,
      "아무도": 3932,
      "저도요": 3933,
      "이야기네요": 3934,
      "시작이": 3935,
      "그녀의": 3936,
      "가능할": 3937,
      "##면서도": 3938,
      "여자친구의": 3939,
      "걱정되": 3940,
      "걱정돼": 3941,
      "알아보세요": 3942,
      "남자친구의": 3943,
      "이해해주세요": 3944,
      "어디서": 3945,
      "썸남한테": 3946,
      "노력해보세요": 3947,
      "생각나네": 3948,
      "어떡하지": 3949,
      "상황이": 3950,
      "어때요": 3951,
      "잊어버리세요": 3952,
      "얼마나": 3953,
      "엄마가": 3954,
      "예뻐요": 3955,
      "##적이든": 3956,
      "무서운": 3957,
      "친구들과": 3958,
      "헷갈리게": 3959,
      "흘렀네요": 3960,
      "지쳤나봐요": 3961,
      "헤어져야": 3962,
      "집안일": 3963,
      "쓰레기": 3964,
      "3주": 3965,
      "ㅠㅠ": 3966,
      "거지": 3967,
      "견뎌": 3968,
      "고통": 3969,
      "공허": 3970,
      "권태": 3971,
      "그동안": 3972,
      "긍정": 3973,
      "기울": 3974,
      "깨달": 3975,
      "꿨어": 3976,
      "나올": 3977,
      "남의": 3978,
      "남을": 3979,
      "남았": 3980,
      "남사친": 3981,
      "놀아": 3982,
      "놀고": 3983,
      "동물": 3984,
      "라면": 3985,
      "마무": 3986,
      "만드": 3987,
      "말할": 3988,
      "먹을까": 3989,
      "멀어": 3990,
      "몰라": 3991,
      "무덤": 3992,
      "문득": 3993,
      "미세먼": 3994,
      "버리세요": 3995,
      "보일": 3996,
      "부럽": 3997,
      "분명": 3998,
      "사야": 3999,
      "사고": 4000,
      "사회": 4001,
      "사귄": 4002,
      "샀어": 4003,
      "상태": 4004,
      "생활": 4005,
      "선톡": 4006,
      "시계": 4007,
      "실망": 4008,
      "실감이": 4009,
      "심호": 4010,
      "썸인지": 4011,
      "쓰는": 4012,
      "아까": 4013,
      "않게": 4014,
      "않으니까요": 4015,
      "알았": 4016,
      "야경": 4017,
      "어서": 4018,
      "어장": 4019,
      "없다고": 4020,
      "여기까지": 4021,
      "여사친": 4022,
      "외로": 4023,
      "용기가": 4024,
      "원망": 4025,
      "유지": 4026,
      "은근": 4027,
      "이럴": 4028,
      "이건": 4029,
      "이루": 4030,
      "인간": 4031,
      "있는게": 4032,
      "있지만": 4033,
      "잘해줘": 4034,
      "저한테": 4035,
      "전부": 4036,
      "정확": 4037,
      "중간": 4038,
      "줘도": 4039,
      "지워": 4040,
      "차가": 4041,
      "추워": 4042,
      "친한": 4043,
      "택시": 4044,
      "텐데": 4045,
      "판단": 4046,
      "편할": 4047,
      "평소": 4048,
      "할텐데": 4049,
      "해야지": 4050,
      "혹시": 4051,
      "화가": 4052,
      "희망": 4053,
      "##한다면": 4054,
      "##려도": 4055,
      "##해볼까": 4056,
      "##니가": 4057,
      "##었어요": 4058,
      "##러가": 4059,
      "##러워": 4060,
      "##될까": 4061,
      "##으니까": 4062,
      "##기간": 4063,
      "##같이": 4064,
      "##방법": 4065,
      "##주고": 4066,
      "##준비": 4067,
      "##싶다": 4068,
      "##남자": 4069,
      "##오는": 4070,
      "##립니다": 4071,
      "##먹고": 4072,
      "##머리": 4073,
      "사람으로": 4074,
      "좋아해도": 4075,
      "사랑하지": 4076,
      "생각하지": 4077,
      "남자들은": 4078,
      "만나는게": 4079,
      "아니라고": 4080,
      "연애를": 4081,
      "필요는": 4082,
      "당신도": 4083,
      "기다려보세요": 4084,
      "행복할": 4085,
      "행복하게": 4086,
      "찾아올": 4087,
      "짝녀랑": 4088,
      "후회가": 4089,
      "서로의": 4090,
      "이야기를": 4091,
      "만들어보세요": 4092,
      "여자친구랑": 4093,
      "그래서": 4094,
      "상처가": 4095,
      "언제쯤": 4096,
      "여행을": 4097,
      "헤어졌는데": 4098,
      "결정을": 4099,
      "결정이었을": 4100,
      "이유를": 4101,
      "생겼어": 4102,
      "회사에서": 4103,
      "지나갔": 4104,
      "인생은": 4105,
      "변화를": 4106,
      "잊어야": 4107,
      "가지세요": 4108,
      "아침에": 4109,
      "상대방을": 4110,
      "잊혀지": 4111,
      "지내고": 4112,
      "무시하세요": 4113,
      "썸타는": 4114,
      "즐기세요": 4115,
      "받아들여": 4116,
      "당당하게": 4117,
      "안타깝": 4118,
      "기념일": 4119,
      "무덤덤": 4120,
      "심호흡": 4121,
      "가요": 4122,
      "거니": 4123,
      "거겠죠": 4124,
      "계절": 4125,
      "공통": 4126,
      "그것": 4127,
      "길이": 4128,
      "깊은": 4129,
      "끝난": 4130,
      "나은": 4131,
      "나왔": 4132,
      "나왔어": 4133,
      "놓고": 4134,
      "다들": 4135,
      "다양": 4136,
      "더워": 4137,
      "동안": 4138,
      "됐으면": 4139,
      "되기도": 4140,
      "됩니다": 4141,
      "두고": 4142,
      "때를": 4143,
      "때론": 4144,
      "똑같은": 4145,
      "마다": 4146,
      "막말": 4147,
      "만든": 4148,
      "많은데": 4149,
      "말투": 4150,
      "말이에요": 4151,
      "먹었": 4152,
      "멈추": 4153,
      "반대": 4154,
      "봐도": 4155,
      "소원": 4156,
      "소문": 4157,
      "수가": 4158,
      "수록": 4159,
      "스키": 4160,
      "시어머": 4161,
      "신고": 4162,
      "쐬고": 4163,
      "아예": 4164,
      "안전": 4165,
      "안하는": 4166,
      "알면서도": 4167,
      "애한테": 4168,
      "어린": 4169,
      "없으면": 4170,
      "울적": 4171,
      "음악": 4172,
      "이게": 4173,
      "있길": 4174,
      "있겠지": 4175,
      "있겠죠": 4176,
      "자세": 4177,
      "조절": 4178,
      "좋지만": 4179,
      "중국": 4180,
      "지난": 4181,
      "진급": 4182,
      "짧은": 4183,
      "채워": 4184,
      "축구": 4185,
      "취향": 4186,
      "클럽": 4187,
      "통보": 4188,
      "편한": 4189,
      "평생": 4190,
      "피할": 4191,
      "하게": 4192,
      "하면서": 4193,
      "현재": 4194,
      "현금": 4195,
      "##거를": 4196,
      "##리네": 4197,
      "##해줄": 4198,
      "##했네": 4199,
      "##지로": 4200,
      "##나게": 4201,
      "##되는": 4202,
      "##일까요": 4203,
      "##점을": 4204,
      "##디션": 4205,
      "##스타": 4206,
      "##두고": 4207,
      "##렸어": 4208,
      "##듭니다": 4209,
      "##ㅠㅠ": 4210,
      "##웨딩": 4211,
      "##릴까": 4212,
      "생각하": 4213,
      "연락은": 4214,
      "있을거예요": 4215,
      "자신에": 4216,
      "아니면": 4217,
      "모르고": 4218,
      "없어서": 4219,
      "지금처럼": 4220,
      "정리하는게": 4221,
      "짝사랑이": 4222,
      "준비해보세요": 4223,
      "선물이": 4224,
      "방법이에요": 4225,
      "헤어지자고": 4226,
      "그녀는": 4227,
      "감정에": 4228,
      "가능성이": 4229,
      "상대를": 4230,
      "힘들어서": 4231,
      "충분해요": 4232,
      "안돼요": 4233,
      "운동을": 4234,
      "선택을": 4235,
      "아프네": 4236,
      "한달이": 4237,
      "생겼는데": 4238,
      "##해주고": 4239,
      "달라지는": 4240,
      "위로가": 4241,
      "사랑한다면": 4242,
      "여자애한테": 4243,
      "언젠가": 4244,
      "상대방이": 4245,
      "떨어졌어": 4246,
      "사람들에게": 4247,
      "좋아하던": 4248,
      "아니라면": 4249,
      "만난지": 4250,
      "힘들었을": 4251,
      "이겨낼": 4252,
      "자존감이": 4253,
      "용기내서": 4254,
      "최고죠": 4255,
      "응원합니다": 4256,
      "미안해": 4257,
      "부러워": 4258,
      "부러워요": 4259,
      "##버렸어": 4260,
      "진정한": 4261,
      "방학이": 4262,
      "드라마": 4263,
      "이성으로": 4264,
      "가치관": 4265,
      "적극적으로": 4266,
      "안됐는데": 4267,
      "한동안은": 4268,
      "부담스럽지": 4269,
      "2달": 4270,
      "6년": 4271,
      "각자": 4272,
      "갔다": 4273,
      "거의": 4274,
      "걸릴": 4275,
      "것은": 4276,
      "결심": 4277,
      "골라": 4278,
      "곳에": 4279,
      "곳에서": 4280,
      "과일": 4281,
      "교회": 4282,
      "근처": 4283,
      "글을": 4284,
      "긴장": 4285,
      "끝까지": 4286,
      "나면": 4287,
      "나쁘": 4288,
      "남겨": 4289,
      "내세요": 4290,
      "냉장": 4291,
      "늦게": 4292,
      "단단": 4293,
      "달달": 4294,
      "당장": 4295,
      "두번": 4296,
      "둘이": 4297,
      "드네": 4298,
      "만족": 4299,
      "말까": 4300,
      "말은": 4301,
      "맥주": 4302,
      "모아": 4303,
      "무리": 4304,
      "뭐하고": 4305,
      "믿음이": 4306,
      "바꾸": 4307,
      "바꿀": 4308,
      "밖에": 4309,
      "변덕": 4310,
      "분이": 4311,
      "불행": 4312,
      "사용": 4313,
      "사소한": 4314,
      "산책": 4315,
      "새로": 4316,
      "설렘": 4317,
      "셀프": 4318,
      "시기": 4319,
      "신청": 4320,
      "싶네": 4321,
      "썸인데": 4322,
      "쓰고": 4323,
      "쓸데": 4324,
      "아빠": 4325,
      "알면": 4326,
      "없나봐요": 4327,
      "여기": 4328,
      "예쁘": 4329,
      "오면": 4330,
      "온전히": 4331,
      "올라": 4332,
      "왜이": 4333,
      "외국": 4334,
      "움직": 4335,
      "인기가": 4336,
      "일이네요": 4337,
      "있네": 4338,
      "있다고": 4339,
      "자리": 4340,
      "잘해": 4341,
      "잘생": 4342,
      "적어보세요": 4343,
      "전공": 4344,
      "전환": 4345,
      "제발": 4346,
      "제자리": 4347,
      "좋겠지": 4348,
      "좋겠지만": 4349,
      "진실": 4350,
      "집이": 4351,
      "집들이": 4352,
      "초대": 4353,
      "최악": 4354,
      "태도": 4355,
      "파이": 4356,
      "페북": 4357,
      "피하세요": 4358,
      "하네": 4359,
      "화를": 4360,
      "휴가": 4361,
      "##한가": 4362,
      "##간의": 4363,
      "##이란": 4364,
      "##가면": 4365,
      "##하러": 4366,
      "##하루": 4367,
      "##하거나": 4368,
      "##할때": 4369,
      "##지를": 4370,
      "##울까": 4371,
      "##시면": 4372,
      "##였나봐요": 4373,
      "##아지": 4374,
      "##겼어": 4375,
      "##을지도": 4376,
      "##수도": 4377,
      "##없어": 4378,
      "##통보": 4379,
      "##더라도": 4380,
      "##전에": 4381,
      "##전환": 4382,
      "##만으로": 4383,
      "##데요": 4384,
      "##싶은데": 4385,
      "##부를": 4386,
      "##줄게요": 4387,
      "##ns": 4388,
      "##셨나봐요": 4389,
      "##배가": 4390,
      "##웠어": 4391,
      "좋아해요": 4392,
      "사랑으로": 4393,
      "생각에": 4394,
      "생각한": 4395,
      "생각은": 4396,
      "생각이에요": 4397,
      "마음으로": 4398,
      "이별통보": 4399,
      "여자를": 4400,
      "남자는": 4401,
      "힘들겠네요": 4402,
      "힘들겠지": 4403,
      "##하지만": 4404,
      "아니야": 4405,
      "필요하겠네요": 4406,
      "정리할": 4407,
      "중요하죠": 4408,
      "선물을": 4409,
      "고백해보세요": 4410,
      "고백해도": 4411,
      "공부는": 4412,
      "기분전환": 4413,
      "하루하루": 4414,
      "남자친구와": 4415,
      "##이었으면": 4416,
      "물어봐": 4417,
      "물어보": 4418,
      "표현해": 4419,
      "아프네요": 4420,
      "썸남이랑": 4421,
      "느낌이": 4422,
      "나이는": 4423,
      "사이가": 4424,
      "그렇지": 4425,
      "그렇지만": 4426,
      "관계를": 4427,
      "습관이에요": 4428,
      "부모님이": 4429,
      "떨어져": 4430,
      "알려주세요": 4431,
      "진심을": 4432,
      "상관없": 4433,
      "모습이": 4434,
      "따뜻한": 4435,
      "환승이별": 4436,
      "힘들었겠어요": 4437,
      "지났네": 4438,
      "기회가": 4439,
      "시원한": 4440,
      "차분히": 4441,
      "하셨네요": 4442,
      "최선의": 4443,
      "아름다운": 4444,
      "무엇이든": 4445,
      "마무리": 4446,
      "부럽네요": 4447,
      "냉장고": 4448,
      "사용해보세요": 4449,
      "파이팅": 4450,
      "30": 4451,
      "7년": 4452,
      "8년": 4453,
      "sns": 4454,
      "간접": 4455,
      "걸어보세요": 4456,
      "겨울": 4457,
      "고맙": 4458,
      "공무": 4459,
      "공시": 4460,
      "과거": 4461,
      "과식": 4462,
      "교양": 4463,
      "글로": 4464,
      "기술": 4465,
      "나에게": 4466,
      "남아": 4467,
      "낫죠": 4468,
      "내요": 4469,
      "내보세요": 4470,
      "넘어": 4471,
      "다되": 4472,
      "달콤": 4473,
      "도시": 4474,
      "돌려보세요": 4475,
      "됐네": 4476,
      "됐는데": 4477,
      "떨리": 4478,
      "라고": 4479,
      "마실": 4480,
      "많을": 4481,
      "말아": 4482,
      "맘에": 4483,
      "맘이": 4484,
      "맛난": 4485,
      "매력": 4486,
      "머릿": 4487,
      "메뉴": 4488,
      "면도": 4489,
      "목표": 4490,
      "물리": 4491,
      "뭐라도": 4492,
      "믿어보세요": 4493,
      "밀당": 4494,
      "바쁘게": 4495,
      "반지": 4496,
      "받았": 4497,
      "벚꽃": 4498,
      "변명": 4499,
      "보니": 4500,
      "보기": 4501,
      "보험": 4502,
      "부자": 4503,
      "부딪": 4504,
      "빠르": 4505,
      "선이": 4506,
      "소비": 4507,
      "시기가": 4508,
      "심심": 4509,
      "싶습니다": 4510,
      "썸의": 4511,
      "아껴": 4512,
      "아쉬": 4513,
      "않는데": 4514,
      "않겠지만": 4515,
      "앞머리": 4516,
      "애정": 4517,
      "어찌": 4518,
      "억지로": 4519,
      "없겠네요": 4520,
      "여전히": 4521,
      "오지": 4522,
      "오네": 4523,
      "오랫": 4524,
      "외롭": 4525,
      "용서": 4526,
      "용돈": 4527,
      "우세요": 4528,
      "울어도": 4529,
      "의사를": 4530,
      "이불": 4531,
      "이뤄": 4532,
      "인기": 4533,
      "있게": 4534,
      "있다는": 4535,
      "있으니": 4536,
      "잊으세요": 4537,
      "잘했어요": 4538,
      "절약": 4539,
      "죽고": 4540,
      "중독": 4541,
      "지칠": 4542,
      "참고": 4543,
      "청첩": 4544,
      "파혼": 4545,
      "편안": 4546,
      "풀릴": 4547,
      "하나봐요": 4548,
      "한다": 4549,
      "했나봐요": 4550,
      "행운": 4551,
      "향수": 4552,
      "헬스": 4553,
      "회식": 4554,
      "휴대": 4555,
      "휴식": 4556,
      "##거같아": 4557,
      "##인이": 4558,
      "##듯이": 4559,
      "##도록": 4560,
      "##이니": 4561,
      "##가서": 4562,
      "##가락": 4563,
      "##하던": 4564,
      "##하자고": 4565,
      "##하다가": 4566,
      "##할게요": 4567,
      "##했겠어요": 4568,
      "##나면": 4569,
      "##제를": 4570,
      "##장면": 4571,
      "##장에서": 4572,
      "##우면": 4573,
      "##시겠어요": 4574,
      "##진다": 4575,
      "##포즈": 4576,
      "##래요": 4577,
      "##된다고": 4578,
      "##순위": 4579,
      "##부로": 4580,
      "##갈까": 4581,
      "##혼자": 4582,
      "##오면": 4583,
      "##셔보세요": 4584,
      "##유증": 4585,
      "##냐에": 4586,
      "##..": 4587,
      "##먹기": 4588,
      "##규직": 4589,
      "##갔어": 4590,
      "##하는지": 4591,
      "좋아해주는": 4592,
      "사랑했": 4593,
      "생각하면": 4594,
      "이별에는": 4595,
      "여자랑": 4596,
      "여자한테": 4597,
      "여자들은": 4598,
      "남자랑": 4599,
      "시간도": 4600,
      "친구의": 4601,
      "만나기로": 4602,
      "자신만": 4603,
      "연애가": 4604,
      "필요하다면": 4605,
      "혼자서": 4606,
      "혼자만": 4607,
      "있어서": 4608,
      "지금이라도": 4609,
      "##이라니": 4610,
      "준비를": 4611,
      "준비하는": 4612,
      "선물은": 4613,
      "찾아가": 4614,
      "아무렇": 4615,
      "힘든가봅니다": 4616,
      "고백했는데": 4617,
      "사귀기": 4618,
      "##해야할까": 4619,
      "들어와": 4620,
      "만들어요": 4621,
      "걱정하지": 4622,
      "##하기는": 4623,
      "남자친구랑": 4624,
      "표현이": 4625,
      "전화를": 4626,
      "아프다": 4627,
      "스트레칭": 4628,
      "보내고": 4629,
      "그만큼": 4630,
      "인생이": 4631,
      "노래방": 4632,
      "달라지": 4633,
      "세상에": 4634,
      "건강에": 4635,
      "관계가": 4636,
      "다르겠지만": 4637,
      "나가세요": 4638,
      "맞는걸까": 4639,
      "살아야": 4640,
      "스스로에게": 4641,
      "보이고": 4642,
      "피곤해": 4643,
      "극복할": 4644,
      "모습을": 4645,
      "솔직하게": 4646,
      "다녀오세요": 4647,
      "따뜻하게": 4648,
      "보고싶다": 4649,
      "바쁜가봐요": 4650,
      "드라이": 4651,
      "친구들이랑": 4652,
      "자격이": 4653,
      "태어난": 4654,
      "귀여워": 4655,
      "병원에": 4656,
      "나눠보세요": 4657,
      "새벽에": 4658,
      "점심시간": 4659,
      "배고파": 4660,
      "누군가를": 4661,
      "공무원": 4662,
      "도시락": 4663,
      "휴대폰": 4664,
      "~~": 4665,
      "가도": 4666,
      "가사": 4667,
      "가는데": 4668,
      "감성": 4669,
      "개강": 4670,
      "거면": 4671,
      "거리를": 4672,
      "경쟁": 4673,
      "곁에": 4674,
      "과정이": 4675,
      "그대": 4676,
      "그는": 4677,
      "기원": 4678,
      "길어": 4679,
      "깨끗": 4680,
      "꽃다": 4681,
      "나보다": 4682,
      "나을까": 4683,
      "나혼자": 4684,
      "남기": 4685,
      "내리": 4686,
      "너를": 4687,
      "너에게": 4688,
      "노후": 4689,
      "놀랐": 4690,
      "늦은": 4691,
      "답장": 4692,
      "대출": 4693,
      "데는": 4694,
      "도움을": 4695,
      "되는지": 4696,
      "드셔보세요": 4697,
      "들어보세요": 4698,
      "떠오": 4699,
      "말하지": 4700,
      "맛집": 4701,
      "맞추": 4702,
      "맞았나봐요": 4703,
      "매달": 4704,
      "멋지": 4705,
      "명절": 4706,
      "모른": 4707,
      "몰래": 4708,
      "못잊": 4709,
      "못해요": 4710,
      "무거": 4711,
      "반가": 4712,
      "받은": 4713,
      "받으면": 4714,
      "발렌": 4715,
      "밝혀": 4716,
      "버릴": 4717,
      "별거": 4718,
      "보다": 4719,
      "봄이": 4720,
      "빠를": 4721,
      "빼빼": 4722,
      "사업": 4723,
      "살기": 4724,
      "삶을": 4725,
      "생겨": 4726,
      "샤워": 4727,
      "성장": 4728,
      "속에": 4729,
      "수다": 4730,
      "술을": 4731,
      "술마": 4732,
      "쉬어도": 4733,
      "심경": 4734,
      "싱숭": 4735,
      "써보세요": 4736,
      "썸은": 4737,
      "썸을": 4738,
      "않나봐요": 4739,
      "않을까": 4740,
      "알다가도": 4741,
      "애들": 4742,
      "어머": 4743,
      "업무": 4744,
      "없지": 4745,
      "없을까": 4746,
      "에휴": 4747,
      "여름": 4748,
      "염색": 4749,
      "왔네": 4750,
      "왔으면": 4751,
      "외모": 4752,
      "외로운": 4753,
      "우리는": 4754,
      "유부": 4755,
      "은연": 4756,
      "의외": 4757,
      "의사": 4758,
      "이미": 4759,
      "이어나": 4760,
      "인내": 4761,
      "일하는": 4762,
      "입을": 4763,
      "있지요": 4764,
      "있더라고요": 4765,
      "잘되": 4766,
      "장소": 4767,
      "좋으면": 4768,
      "중인": 4769,
      "지는": 4770,
      "지치": 4771,
      "차라": 4772,
      "참는": 4773,
      "참아": 4774,
      "콩깍": 4775,
      "통해": 4776,
      "투자": 4777,
      "핑계": 4778,
      "하다": 4779,
      "하던": 4780,
      "해보": 4781,
      "해주는": 4782,
      "회원": 4783,
      "흐르": 4784,
      "힘듭니다": 4785,
      "##거죠": 4786,
      "##이예요": 4787,
      "##려나": 4788,
      "##려구": 4789,
      "##가봐": 4790,
      "##가는데": 4791,
      "##어두": 4792,
      "##까봐": 4793,
      "##하대": 4794,
      "##하긴": 4795,
      "##하겠습니다": 4796,
      "##하느라": 4797,
      "##정도": 4798,
      "##었으면": 4799,
      "##나서": 4800,
      "##나고": 4801,
      "##보니": 4802,
      "##보내": 4803,
      "##식이": 4804,
      "##시군요": 4805,
      "##으신가봐요": 4806,
      "##되면": 4807,
      "##을거라": 4808,
      "##기세요": 4809,
      "##번호": 4810,
      "##라이": 4811,
      "##분이": 4812,
      "##생숭": 4813,
      "##르세요": 4814,
      "##갑니다": 4815,
      "##치지": 4816,
      "##테리": 4817,
      "##내는": 4818,
      "##내세요": 4819,
      "##주려": 4820,
      "##따라": 4821,
      "##린다": 4822,
      "##데이": 4823,
      "##순간": 4824,
      "##겨보세요": 4825,
      "##터리": 4826,
      "##왔는데": 4827,
      "##든지": 4828,
      "##여자": 4829,
      "##받아": 4830,
      "##졌으면": 4831,
      "##셨네요": 4832,
      "##함을": 4833,
      "##하는거": 4834,
      "좋아했던": 4835,
      "마음대로": 4836,
      "이별에": 4837,
      "이별도": 4838,
      "헤어질": 4839,
      "있을까요": 4840,
      "있을지도": 4841,
      "남자들": 4842,
      "##하지는": 4843,
      "이제야": 4844,
      "아니니까요": 4845,
      "연애에": 4846,
      "결혼은": 4847,
      "결혼하면": 4848,
      "정리를": 4849,
      "정리하는": 4850,
      "행복은": 4851,
      "행복을": 4852,
      "조금이라도": 4853,
      "고민임": 4854,
      "짝사랑은": 4855,
      "고백을": 4856,
      "헤어지지": 4857,
      "헤어지면": 4858,
      "해야할까": 4859,
      "그녀에게": 4860,
      "##인가봅니다": 4861,
      "감정의": 4862,
      "가능해요": 4863,
      "여자친구에게": 4864,
      "##하기도": 4865,
      "알아차": 4866,
      "상대에게": 4867,
      "있었으면": 4868,
      "##이었길": 4869,
      "헤어졌네": 4870,
      "표현을": 4871,
      "표현해보세요": 4872,
      "이해가": 4873,
      "이유는": 4874,
      "생겼네": 4875,
      "회사는": 4876,
      "노력하는": 4877,
      "보내는": 4878,
      "않아서": 4879,
      "재미가": 4880,
      "어려워요": 4881,
      "스트레스가": 4882,
      "인생을": 4883,
      "달라진": 4884,
      "답답한": 4885,
      "답답해": 4886,
      "위로봇": 4887,
      "기대세요": 4888,
      "다음부터": 4889,
      "현실을": 4890,
      "현실적인": 4891,
      "마지막으로": 4892,
      "정신차": 4893,
      "습관을": 4894,
      "되었습니다": 4895,
      "다르겠죠": 4896,
      "기다리면": 4897,
      "주말에": 4898,
      "주말이": 4899,
      "사진을": 4900,
      "가끔은": 4901,
      "복잡한": 4902,
      "복잡하겠어요": 4903,
      "마시고": 4904,
      "보이지": 4905,
      "도와줘": 4906,
      "솔직한": 4907,
      "내려놓": 4908,
      "직장에서": 4909,
      "다가가보세요": 4910,
      "배우는": 4911,
      "주변에": 4912,
      "익숙해지": 4913,
      "마련이에요": 4914,
      "마련이죠": 4915,
      "지났네요": 4916,
      "자체가": 4917,
      "고생했어요": 4918,
      "부분이": 4919,
      "바쁘거나": 4920,
      "어울리는": 4921,
      "이러지": 4922,
      "헤아리는": 4923,
      "로맨틱한": 4924,
      "로맨틱하네요": 4925,
      "슬프네요": 4926,
      "타이밍이": 4927,
      "흔들리지": 4928,
      "두근거리": 4929,
      "일어났": 4930,
      "감사합니다": 4931,
      "본인의": 4932,
      "프로포즈": 4933,
      "부탁해보세요": 4934,
      "완벽한": 4935,
      "시어머니가": 4936,
      "현재를": 4937,
      "골라보세요": 4938,
      "오랫동안": 4939,
      "꽃다발": 4940,
      "발렌타": 4941,
      "빼빼로": 4942,
      "싱숭생숭": 4943,
      "차라리": 4944,
      "5개월": 4945,
      "가만": 4946,
      "간단": 4947,
      "감고": 4948,
      "강아지": 4949,
      "같지": 4950,
      "걸리": 4951,
      "걸어": 4952,
      "구멍": 4953,
      "귀가": 4954,
      "그립": 4955,
      "기준": 4956,
      "기숙": 4957,
      "길러": 4958,
      "깨요": 4959,
      "나지": 4960,
      "남은": 4961,
      "남에게": 4962,
      "너도": 4963,
      "느낄": 4964,
      "늘어요": 4965,
      "다리": 4966,
      "다정": 4967,
      "다닐": 4968,
      "단계": 4969,
      "답이": 4970,
      "당했어": 4971,
      "대해서": 4972,
      "되돌": 4973,
      "드릴게요": 4974,
      "들고": 4975,
      "들었어": 4976,
      "딸기": 4977,
      "똑똑": 4978,
      "로또": 4979,
      "막히": 4980,
      "많지": 4981,
      "말이네요": 4982,
      "말해주세요": 4983,
      "맛나게": 4984,
      "매너": 4985,
      "먹어보세요": 4986,
      "멀리": 4987,
      "메모": 4988,
      "모자": 4989,
      "무색": 4990,
      "문신": 4991,
      "뭐라": 4992,
      "뭐할까": 4993,
      "바다": 4994,
      "반응": 4995,
      "받으": 4996,
      "보낼": 4997,
      "봉사": 4998,
      "봤어": 4999,
      "비정": 5000,
      "비난": 5001,
      "비참": 5002,
      "빌려": 5003,
      "사면": 5004,
      "사야지": 5005,
      "사정이": 5006,
      "삼겹": 5007,
      "상상": 5008,
      "새해": 5009,
      "성별": 5010,
      "성향": 5011,
      "센스": 5012,
      "속도": 5013,
      "솔로": 5014,
      "수는": 5015,
      "수면": 5016,
      "순수": 5017,
      "술이": 5018,
      "시키": 5019,
      "시선": 5020,
      "신뢰": 5021,
      "신중": 5022,
      "신나는": 5023,
      "실내": 5024,
      "심리": 5025,
      "싶다고": 5026,
      "싸워": 5027,
      "썸인가": 5028,
      "쓰지": 5029,
      "아플": 5030,
      "악몽": 5031,
      "애교": 5032,
      "어이": 5033,
      "에너": 5034,
      "여우": 5035,
      "연속": 5036,
      "왔습니다": 5037,
      "왤케": 5038,
      "운전": 5039,
      "웃을": 5040,
      "웬수": 5041,
      "위해서": 5042,
      "은퇴": 5043,
      "음식을": 5044,
      "의심": 5045,
      "의욕": 5046,
      "이직": 5047,
      "인턴": 5048,
      "일년": 5049,
      "일만": 5050,
      "읽어보세요": 5051,
      "입어": 5052,
      "잇몸": 5053,
      "있기": 5054,
      "있나봅니다": 5055,
      "자괴": 5056,
      "잘지": 5057,
      "잡아": 5058,
      "잤어": 5059,
      "적금": 5060,
      "정상": 5061,
      "좋았는데": 5062,
      "주기": 5063,
      "중입니다": 5064,
      "줘보세요": 5065,
      "지도": 5066,
      "지진": 5067,
      "지갑": 5068,
      "참견": 5069,
      "찾는": 5070,
      "찾기를": 5071,
      "천재": 5072,
      "체육": 5073,
      "쳐다": 5074,
      "충격": 5075,
      "취해보세요": 5076,
      "치료": 5077,
      "카드": 5078,
      "컨디션": 5079,
      "큰일": 5080,
      "통화": 5081,
      "특별": 5082,
      "파도": 5083,
      "하시": 5084,
      "하자고": 5085,
      "학생": 5086,
      "한거": 5087,
      "한숨": 5088,
      "해외": 5089,
      "해봤": 5090,
      "허무": 5091,
      "헛헛": 5092,
      "후에": 5093,
      "후가": 5094,
      "흐르고": 5095,
      "##이스": 5096,
      "##이세요": 5097,
      "##려서": 5098,
      "##어주세요": 5099,
      "##하라고": 5100,
      "##하나봐": 5101,
      "##해하지": 5102,
      "##정보": 5103,
      "##정을": 5104,
      "##지기": 5105,
      "##었길": 5106,
      "##었네요": 5107,
      "##달째": 5108,
      "##시원": 5109,
      "##겼는데": 5110,
      "##을텐데": 5111,
      "##야할까": 5112,
      "##점에서": 5113,
      "##분들": 5114,
      "##답을": 5115,
      "##있어": 5116,
      "##통수": 5117,
      "##치가": 5118,
      "##치는": 5119,
      "##주면": 5120,
      "##만은": 5121,
      "##드리고": 5122,
      "##걸로": 5123,
      "##각이": 5124,
      "##습관": 5125,
      "##부여": 5126,
      "##봅시다": 5127,
      "##난다": 5128,
      "##0일": 5129,
      "##럽게": 5130,
      "##스는": 5131,
      "##렸나봐요": 5132,
      "##셔요": 5133,
      "##줬는데": 5134,
      "##활동": 5135,
      "##센터": 5136,
      "##공평": 5137,
      "사람인가봐요": 5138,
      "사랑도": 5139,
      "사랑하": 5140,
      "사랑과": 5141,
      "사랑이네요": 5142,
      "사랑했나봐요": 5143,
      "생각했는데": 5144,
      "생각했나봐요": 5145,
      "좋아하는거": 5146,
      "##하고싶어": 5147,
      "오늘이": 5148,
      "오늘따라": 5149,
      "같아서": 5150,
      "만나도": 5151,
      "자신감": 5152,
      "##에게나": 5153,
      "아니죠": 5154,
      "아니지만": 5155,
      "연애로": 5156,
      "모르게": 5157,
      "없어도": 5158,
      "혼자도": 5159,
      "하는건": 5160,
      "하고싶": 5161,
      "결혼할": 5162,
      "결혼해도": 5163,
      "행복해지": 5164,
      "고백할": 5165,
      "고백하는": 5166,
      "고백하면": 5167,
      "짝녀에게": 5168,
      "후회는": 5169,
      "##해야할": 5170,
      "##해야겠지": 5171,
      "헤어지자": 5172,
      "시작해": 5173,
      "해야겠다": 5174,
      "해야할지": 5175,
      "받아보세요": 5176,
      "공부해서": 5177,
      "만들고": 5178,
      "여자친구한테": 5179,
      "하루도": 5180,
      "##다는건": 5181,
      "걱정이": 5182,
      "알아보고": 5183,
      "싫어하는": 5184,
      "관심사를": 5185,
      "기억이": 5186,
      "데이트를": 5187,
      "어떨까": 5188,
      "여행도": 5189,
      "나만의": 5190,
      "물어보는게": 5191,
      "누구든": 5192,
      "머리랑": 5193,
      "전화가": 5194,
      "궁금해요": 5195,
      "많아서": 5196,
      "어디까지": 5197,
      "아프지": 5198,
      "돌아올": 5199,
      "안되네": 5200,
      "생겼으면": 5201,
      "회사와": 5202,
      "노력하겠습니다": 5203,
      "보내주세요": 5204,
      "그러고": 5205,
      "잘못인": 5206,
      "잘못된": 5207,
      "느낌이야": 5208,
      "챙겨드세요": 5209,
      "현실의": 5210,
      "사이에": 5211,
      "세상은": 5212,
      "세상에서": 5213,
      "영화관": 5214,
      "그렇다면": 5215,
      "의미부여": 5216,
      "추천해요": 5217,
      "말해볼까": 5218,
      "아침이": 5219,
      "그리운": 5220,
      "다르겠지요": 5221,
      "사람들은": 5222,
      "좋아하나": 5223,
      "좋아하나봐요": 5224,
      "모든걸": 5225,
      "성공할": 5226,
      "기다리지": 5227,
      "기다리는게": 5228,
      "마시면": 5229,
      "실수를": 5230,
      "가족이": 5231,
      "끝났어": 5232,
      "따뜻할": 5233,
      "아이돌": 5234,
      "놀러가고": 5235,
      "관리하세요": 5236,
      "나아질": 5237,
      "나아졌": 5238,
      "여유가": 5239,
      "부족한": 5240,
      "##더라구": 5241,
      "##버렸네": 5242,
      "소식이네요": 5243,
      "기회를": 5244,
      "종교가": 5245,
      "하늘을": 5246,
      "##하시군요": 5247,
      "마셔야지": 5248,
      "이번에는": 5249,
      "생각만해도": 5250,
      "2주가": 5251,
      "거기까지인가봐요": 5252,
      "자격증": 5253,
      "까먹었다": 5254,
      "두달이": 5255,
      "불편해": 5256,
      "생기면": 5257,
      "잠수이별": 5258,
      "눈치가": 5259,
      "나타날": 5260,
      "우선순위": 5261,
      "그럼요": 5262,
      "목소리를": 5263,
      "우연히": 5264,
      "괜찮아졌길": 5265,
      "가벼운": 5266,
      "느끼는": 5267,
      "소화제": 5268,
      "긍정적인": 5269,
      "만드는": 5270,
      "미세먼지": 5271,
      "아까워": 5272,
      "유지하는": 5273,
      "이루어": 5274,
      "나쁘지": 5275,
      "단단히": 5276,
      "달콤한": 5277,
      "머릿속": 5278,
      "청첩장": 5279,
      "아무렇지도": 5280,
      "회원정보": 5281,
      "기숙사": 5282,
      "삼겹살": 5283,
      "15": 5284,
      "간사": 5285,
      "강렬": 5286,
      "같다고": 5287,
      "거요": 5288,
      "거랑": 5289,
      "건조": 5290,
      "검색": 5291,
      "것처럼": 5292,
      "겨우": 5293,
      "고칠": 5294,
      "공개": 5295,
      "그를": 5296,
      "그저": 5297,
      "기도": 5298,
      "깨닫": 5299,
      "꿈은": 5300,
      "끝에": 5301,
      "끝인": 5302,
      "끝도": 5303,
      "나네": 5304,
      "난방": 5305,
      "남는": 5306,
      "남지": 5307,
      "남들이": 5308,
      "낭만": 5309,
      "냉정": 5310,
      "너는": 5311,
      "노는": 5312,
      "노트": 5313,
      "놀죠": 5314,
      "니가": 5315,
      "단둘": 5316,
      "달려": 5317,
      "답장이": 5318,
      "대리": 5319,
      "덜할": 5320,
      "덤덤": 5321,
      "동성": 5322,
      "동료": 5323,
      "동호": 5324,
      "됐어요": 5325,
      "되는게": 5326,
      "될지도": 5327,
      "될거예요": 5328,
      "뒤에서": 5329,
      "든든": 5330,
      "들이": 5331,
      "듯합니다": 5332,
      "때로": 5333,
      "떠났": 5334,
      "뛰어": 5335,
      "마셨": 5336,
      "마침": 5337,
      "막혀": 5338,
      "많으면": 5339,
      "말로": 5340,
      "말하고": 5341,
      "말라고": 5342,
      "말해도": 5343,
      "맛이": 5344,
      "맞을까": 5345,
      "맞는지": 5346,
      "맞을거예요": 5347,
      "매주": 5348,
      "멋져요": 5349,
      "멍청": 5350,
      "못했": 5351,
      "무기": 5352,
      "발목": 5353,
      "버티": 5354,
      "변하는": 5355,
      "보게": 5356,
      "보는게": 5357,
      "봐서": 5358,
      "부드": 5359,
      "불공평": 5360,
      "비싼": 5361,
      "빠져": 5362,
      "사내": 5363,
      "사겨": 5364,
      "사는게": 5365,
      "살이": 5366,
      "살지": 5367,
      "살아요": 5368,
      "상의": 5369,
      "새출": 5370,
      "생리": 5371,
      "서툴": 5372,
      "섬유": 5373,
      "성숙": 5374,
      "세워": 5375,
      "셀카": 5376,
      "소리가": 5377,
      "속에서": 5378,
      "술만": 5379,
      "신기": 5380,
      "썸에서": 5381,
      "아기": 5382,
      "아깝": 5383,
      "아쉽": 5384,
      "알기": 5385,
      "앞두고": 5386,
      "애를": 5387,
      "약이": 5388,
      "약을": 5389,
      "어필": 5390,
      "언니": 5391,
      "여드": 5392,
      "올해": 5393,
      "와서": 5394,
      "위기": 5395,
      "유학": 5396,
      "유효": 5397,
      "인스타": 5398,
      "일들이": 5399,
      "일이죠": 5400,
      "일부터": 5401,
      "입지": 5402,
      "입고": 5403,
      "있다": 5404,
      "있겠네요": 5405,
      "잡으세요": 5406,
      "적게": 5407,
      "전혀": 5408,
      "정의": 5409,
      "정류": 5410,
      "정해보세요": 5411,
      "제게": 5412,
      "제주": 5413,
      "조건": 5414,
      "종일": 5415,
      "좋으시": 5416,
      "주식": 5417,
      "줄어": 5418,
      "줄까": 5419,
      "즐겁": 5420,
      "증거를": 5421,
      "지하": 5422,
      "지울": 5423,
      "지냈": 5424,
      "착한": 5425,
      "참지": 5426,
      "참아보세요": 5427,
      "책을": 5428,
      "철벽": 5429,
      "초콜": 5430,
      "최근": 5431,
      "축복": 5432,
      "출퇴": 5433,
      "침대": 5434,
      "코스": 5435,
      "키가": 5436,
      "택배": 5437,
      "트라": 5438,
      "패턴": 5439,
      "포근": 5440,
      "풀어": 5441,
      "풀렸": 5442,
      "풀어보세요": 5443,
      "피크": 5444,
      "하네요": 5445,
      "하지만": 5446,
      "하려고": 5447,
      "했나": 5448,
      "했어요": 5449,
      "호의": 5450,
      "확신": 5451,
      "회복": 5452,
      "후유증": 5453,
      "흔적": 5454,
      "흘러": 5455,
      "흥미": 5456,
      "##적령": 5457,
      "##적이야": 5458,
      "##인다": 5459,
      "##인인데": 5460,
      "##대한": 5461,
      "##자를": 5462,
      "##리러": 5463,
      "##간다": 5464,
      "##이래": 5465,
      "##이니까요": 5466,
      "##가도": 5467,
      "##가길": 5468,
      "##하니까요": 5469,
      "##하다는": 5470,
      "##해진": 5471,
      "##할거라": 5472,
      "##했지만": 5473,
      "##했더니": 5474,
      "##지길": 5475,
      "##나나": 5476,
      "##보아요": 5477,
      "##모습": 5478,
      "##제가": 5479,
      "##키는": 5480,
      "##장에": 5481,
      "##복이": 5482,
      "##우스": 5483,
      "##우마": 5484,
      "##들지": 5485,
      "##였을": 5486,
      "##였는데": 5487,
      "##되지": 5488,
      "##되길": 5489,
      "##을때": 5490,
      "##야하나": 5491,
      "##일차": 5492,
      "##수있": 5493,
      "##길이": 5494,
      "##같지": 5495,
      "##란게": 5496,
      "##치고": 5497,
      "##만한": 5498,
      "##았던": 5499,
      "##랑이": 5500,
      "##비가": 5501,
      "##터가": 5502,
      "##소음": 5503,
      "##담을": 5504,
      "##스피": 5505,
      "##갈거예요": 5506,
      "##쓰는": 5507,
      "##종일": 5508,
      "##셔야": 5509,
      "##침이": 5510,
      "##쳤어": 5511,
      "##너무": 5512,
      "##양이": 5513,
      "사람인데": 5514,
      "좋아했는데": 5515,
      "사랑에는": 5516,
      "생각날": 5517,
      "생각해도": 5518,
      "생각할까": 5519,
      "마음과": 5520,
      "이별하고": 5521,
      "있을지": 5522,
      "여자는": 5523,
      "여자와": 5524,
      "여자들이": 5525,
      "남자한테": 5526,
      "힘들지요": 5527,
      "사람이니까요": 5528,
      "사람이라면": 5529,
      "친구도": 5530,
      "친구라고": 5531,
      "##에서도": 5532,
      "이제라도": 5533,
      "좋을까요": 5534,
      "아니고": 5535,
      "아니네요": 5536,
      "연애하고": 5537,
      "필요하겠어요": 5538,
      "필요했을": 5539,
      "모르는게": 5540,
      "혼자만의": 5541,
      "##인데이": 5542,
      "결혼적령": 5543,
      "정말로": 5544,
      "지금보다": 5545,
      "정리될": 5546,
      "행복해질": 5547,
      "아직은": 5548,
      "준비하고": 5549,
      "선물로": 5550,
      "고백하고": 5551,
      "그럴까": 5552,
      "그럴만": 5553,
      "이야기해도": 5554,
      "##해야죠": 5555,
      "시작하세요": 5556,
      "해야죠": 5557,
      "그녀와": 5558,
      "하나라도": 5559,
      "가능해": 5560,
      "가능합니다": 5561,
      "신경이": 5562,
      "신경을": 5563,
      "하루를": 5564,
      "하루에도": 5565,
      "하지마세요": 5566,
      "상대가": 5567,
      "기억을": 5568,
      "힘들어하지": 5569,
      "언제까지": 5570,
      "있었나요": 5571,
      "물어봐요": 5572,
      "내일도": 5573,
      "오래된": 5574,
      "누구에게나": 5575,
      "표현하는": 5576,
      "이해해": 5577,
      "전화하는": 5578,
      "결정은": 5579,
      "부담스러운": 5580,
      "미련은": 5581,
      "안되는데": 5582,
      "안되겠지": 5583,
      "노력하면": 5584,
      "직접적이든": 5585,
      "그러게요": 5586,
      "않았나봐요": 5587,
      "처음에": 5588,
      "우리가": 5589,
      "축하합니다": 5590,
      "답답하네": 5591,
      "화장하는": 5592,
      "다음에": 5593,
      "생각해봐요": 5594,
      "말씀하세요": 5595,
      "사이에서": 5596,
      "영화보": 5597,
      "힘내지": 5598,
      "그렇죠": 5599,
      "확인해": 5600,
      "말해줘": 5601,
      "만남이었길": 5602,
      "헤어짐을": 5603,
      "아닐까": 5604,
      "모든게": 5605,
      "성공하길": 5606,
      "순간이": 5607,
      "엄마한테": 5608,
      "연습이": 5609,
      "잊혀질": 5610,
      "지내는": 5611,
      "떠나고": 5612,
      "떠나보세요": 5613,
      "무시하는": 5614,
      "별로라고": 5615,
      "아픔의": 5616,
      "아픔을": 5617,
      "정도는": 5618,
      "기다려주세요": 5619,
      "받아들이기": 5620,
      "끝나고": 5621,
      "그분이": 5622,
      "끝났네": 5623,
      "보여요": 5624,
      "보여주세요": 5625,
      "환승은": 5626,
      "운명이": 5627,
      "배우자": 5628,
      "바라는": 5629,
      "바라지": 5630,
      "느껴져": 5631,
      "우울해": 5632,
      "자체로": 5633,
      "카페에서": 5634,
      "어렵네": 5635,
      "아름답": 5636,
      "##하시네요": 5637,
      "시원하게": 5638,
      "당연하죠": 5639,
      "취미생활": 5640,
      "상처받지": 5641,
      "거기까지였나봐요": 5642,
      "헤아리지": 5643,
      "번호를": 5644,
      "태어났": 5645,
      "해주고": 5646,
      "상담을": 5647,
      "##보여요": 5648,
      "고마워": 5649,
      "키우고": 5650,
      "경험이": 5651,
      "버텨보세요": 5652,
      "계획을": 5653,
      "그랬나봐요": 5654,
      "속상해": 5655,
      "없애는": 5656,
      "비교하지": 5657,
      "신혼여행": 5658,
      "연락처를": 5659,
      "미친듯이": 5660,
      "사회생활": 5661,
      "차가워": 5662,
      "결정이었을텐데": 5663,
      "자세히": 5664,
      "중국어": 5665,
      "달달한": 5666,
      "아빠가": 5667,
      "기분전환을": 5668,
      "30분": 5669,
      "간접적이든": 5670,
      "억지로라도": 5671,
      "모른척": 5672,
      "밝혀보세요": 5673,
      "빠를수록": 5674,
      "위로봇입니다": 5675,
      "다음부터는": 5676,
      "발렌타인데이": 5677,
      "가만히": 5678,
      "봉사활동": 5679,
      "주기적으로": 5680,
      "노트북": 5681,
      "동료가": 5682,
      "동호회": 5683,
      "마침표": 5684,
      "무기력": 5685,
      "새출발": 5686,
      "여드름": 5687,
      "유효기간": 5688,
      "제주도": 5689,
      "지하철": 5690,
      "초콜릿": 5691,
      "출퇴근": 5692,
      "트라우마": 5693,
      "피크닉": 5694,
      "후유증이": 5695,
      "1주": 5696,
      "4개월": 5697,
      "ㅎㅎ": 5698,
      "가려": 5699,
      "가을": 5700,
      "가짐": 5701,
      "가득": 5702,
      "가늠": 5703,
      "갈때": 5704,
      "감히": 5705,
      "감당": 5706,
      "갔어": 5707,
      "갔는데": 5708,
      "강습": 5709,
      "갖지": 5710,
      "거둘": 5711,
      "건가요": 5712,
      "걸까요": 5713,
      "것들": 5714,
      "것들이": 5715,
      "고장": 5716,
      "고기": 5717,
      "고고": 5718,
      "곰곰": 5719,
      "공감": 5720,
      "관련": 5721,
      "괴로워": 5722,
      "군침이": 5723,
      "귀를": 5724,
      "금연": 5725,
      "기프": 5726,
      "길에서": 5727,
      "깊게": 5728,
      "깜빡": 5729,
      "꾸며": 5730,
      "끝날": 5731,
      "끝냈": 5732,
      "나빠": 5733,
      "나누": 5734,
      "낫겠지": 5735,
      "낭비": 5736,
      "넘었네": 5737,
      "놀다": 5738,
      "누굴": 5739,
      "눈썹": 5740,
      "느낀": 5741,
      "늙어": 5742,
      "능력을": 5743,
      "늦어": 5744,
      "단순": 5745,
      "단호": 5746,
      "대우": 5747,
      "대답": 5748,
      "대체": 5749,
      "대중": 5750,
      "더러워": 5751,
      "도대": 5752,
      "도망": 5753,
      "도네요": 5754,
      "동감": 5755,
      "되겠지": 5756,
      "득템": 5757,
      "듣는데": 5758,
      "들리": 5759,
      "들을": 5760,
      "들여보세요": 5761,
      "따듯": 5762,
      "때려": 5763,
      "떠보는": 5764,
      "뜻대로": 5765,
      "로봇": 5766,
      "막차": 5767,
      "많다": 5768,
      "많네": 5769,
      "말한": 5770,
      "말해주": 5771,
      "망가": 5772,
      "망했어": 5773,
      "맞지": 5774,
      "맞춤": 5775,
      "매번": 5776,
      "머리는": 5777,
      "먹지": 5778,
      "먹었는데": 5779,
      "며칠": 5780,
      "몇일": 5781,
      "모으": 5782,
      "모아서": 5783,
      "못하면": 5784,
      "못했나봐요": 5785,
      "무작": 5786,
      "무릎": 5787,
      "뭐하": 5788,
      "미끄": 5789,
      "바디": 5790,
      "밤에": 5791,
      "베풀": 5792,
      "변해": 5793,
      "변하지": 5794,
      "보름": 5795,
      "보아요": 5796,
      "보면서": 5797,
      "부지": 5798,
      "부부": 5799,
      "분들": 5800,
      "분노": 5801,
      "불면": 5802,
      "불타": 5803,
      "붙여보세요": 5804,
      "비행": 5805,
      "빌려보세요": 5806,
      "빠른": 5807,
      "빼고": 5808,
      "사수": 5809,
      "사보세요": 5810,
      "살면": 5811,
      "살면서": 5812,
      "삶의": 5813,
      "새학": 5814,
      "서류": 5815,
      "선배가": 5816,
      "성적": 5817,
      "성형": 5818,
      "성덕": 5819,
      "소주": 5820,
      "소유": 5821,
      "소액": 5822,
      "소심해": 5823,
      "속은": 5824,
      "수학": 5825,
      "수영": 5826,
      "수염": 5827,
      "술먹고": 5828,
      "쉬어야": 5829,
      "쉽진": 5830,
      "슈퍼": 5831,
      "스테": 5832,
      "스터": 5833,
      "스팸": 5834,
      "슬픔": 5835,
      "실례": 5836,
      "싫다고": 5837,
      "심어": 5838,
      "심한가봐요": 5839,
      "심하겠네요": 5840,
      "싸움": 5841,
      "쌩얼": 5842,
      "썸일": 5843,
      "썸만": 5844,
      "썼어": 5845,
      "씻고": 5846,
      "아주": 5847,
      "아님": 5848,
      "아물": 5849,
      "아련": 5850,
      "안에": 5851,
      "안가": 5852,
      "않겠어요": 5853,
      "않지만": 5854,
      "알뜰": 5855,
      "알았어": 5856,
      "애석": 5857,
      "애틋": 5858,
      "양해": 5859,
      "얘기를": 5860,
      "어떠": 5861,
      "어젯": 5862,
      "어둠": 5863,
      "없는게": 5864,
      "없겠지": 5865,
      "없지만": 5866,
      "연휴": 5867,
      "예전": 5868,
      "오히": 5869,
      "오락": 5870,
      "오토": 5871,
      "온다": 5872,
      "올까": 5873,
      "옷이": 5874,
      "왕따": 5875,
      "요구": 5876,
      "요금": 5877,
      "욕심": 5878,
      "우린": 5879,
      "운을": 5880,
      "웃어": 5881,
      "웃어보세요": 5882,
      "월요일": 5883,
      "육아": 5884,
      "음식": 5885,
      "의견": 5886,
      "이것": 5887,
      "이쁜": 5888,
      "이뻐": 5889,
      "이벤": 5890,
      "인공": 5891,
      "인상이": 5892,
      "일에": 5893,
      "일단": 5894,
      "잃어": 5895,
      "입이": 5896,
      "자는": 5897,
      "자면": 5898,
      "자취": 5899,
      "자기도": 5900,
      "잘해야": 5901,
      "잘해주": 5902,
      "잠재": 5903,
      "잡는": 5904,
      "전세": 5905,
      "전역": 5906,
      "점이": 5907,
      "점은": 5908,
      "접어두": 5909,
      "정규직": 5910,
      "조차": 5911,
      "조카": 5912,
      "조용": 5913,
      "좋게": 5914,
      "좋고": 5915,
      "좋습니다": 5916,
      "주름": 5917,
      "줄여보세요": 5918,
      "중고": 5919,
      "중2": 5920,
      "증오": 5921,
      "지겨": 5922,
      "진지": 5923,
      "짜장면": 5924,
      "짧지": 5925,
      "찌질": 5926,
      "찜질": 5927,
      "차갑": 5928,
      "차근": 5929,
      "차례": 5930,
      "차리세요": 5931,
      "차이가": 5932,
      "창업": 5933,
      "책임": 5934,
      "첫인": 5935,
      "청해보세요": 5936,
      "초기": 5937,
      "최대한": 5938,
      "추운": 5939,
      "추석": 5940,
      "치고": 5941,
      "치열": 5942,
      "치유": 5943,
      "치맥": 5944,
      "친절": 5945,
      "키워": 5946,
      "타기": 5947,
      "타던": 5948,
      "타다가": 5949,
      "탈출": 5950,
      "탈퇴": 5951,
      "태어나": 5952,
      "터놓고": 5953,
      "티가": 5954,
      "티를": 5955,
      "파먹기": 5956,
      "평가": 5957,
      "평온": 5958,
      "표시": 5959,
      "푸는": 5960,
      "필름": 5961,
      "하든": 5962,
      "하거나": 5963,
      "학점": 5964,
      "한강": 5965,
      "합격": 5966,
      "해낼": 5967,
      "했다": 5968,
      "허리": 5969,
      "형편": 5970,
      "혼란": 5971,
      "혼술": 5972,
      "화내": 5973,
      "화이트": 5974,
      "휴식을": 5975,
      "희생": 5976,
      "힘껏": 5977,
      "##화가": 5978,
      "##거지": 5979,
      "##거같": 5980,
      "##적이죠": 5981,
      "##인건가": 5982,
      "##대회": 5983,
      "##한잔": 5984,
      "##도는": 5985,
      "##이크": 5986,
      "##이겠죠": 5987,
      "##봐야지": 5988,
      "##하자": 5989,
      "##하더니": 5990,
      "##할거야": 5991,
      "##했길": 5992,
      "##했나봐": 5993,
      "##했나봅니다": 5994,
      "##겠음": 5995,
      "##겠는데": 5996,
      "##지죠": 5997,
      "##지말고": 5998,
      "##다른": 5999,
      "##었겠네요": 6000,
      "##었습니다": 6001,
      "##었나봐": 6002,
      "##나네": 6003,
      "##세포": 6004,
      "##의하세요": 6005,
      "##우니까": 6006,
      "##청소": 6007,
      "##들에게": 6008,
      "##였던": 6009,
      "##였으면": 6010,
      "##으려면": 6011,
      "##되는데": 6012,
      "##되겠네요": 6013,
      "##와요": 6014,
      "##와서": 6015,
      "##로리": 6016,
      "##기업": 6017,
      "##야겠지": 6018,
      "##야하는데": 6019,
      "##상담": 6020,
      "##수를": 6021,
      "##수증": 6022,
      "##심을": 6023,
      "##심으로": 6024,
      "##건데": 6025,
      "##라서": 6026,
      "##통을": 6027,
      "##치기": 6028,
      "##것같아": 6029,
      "##만나": 6030,
      "##드려보세요": 6031,
      "##았습니다": 6032,
      "##왔습니다": 6033,
      "##트가": 6034,
      "##트업": 6035,
      "##트콘": 6036,
      "##났어": 6037,
      "##영수증": 6038,
      "##선물": 6039,
      "##차근": 6040,
      "##표현": 6041,
      "##끼리": 6042,
      "##저리": 6043,
      "##됩니다": 6044,
      "##관리": 6045,
      "##관계": 6046,
      "##조심": 6047,
      "##마요": 6048,
      "##형이": 6049,
      "##런하시네요": 6050,
      "##쳐보세요": 6051,
      "##바이": 6052,
      "##바퀴": 6053,
      "##졌네": 6054,
      "##졌는데": 6055,
      "##돼서": 6056,
      "##카드": 6057,
      "##셨군요": 6058,
      "##매일": 6059,
      "##돌아": 6060,
      "##교통을": 6061,
      "##ㅜㅜ": 6062,
      "##버리": 6063,
      "##버려": 6064,
      "##잖아": 6065,
      "사람만": 6066,
      "좋아질": 6067,
      "좋아하지": 6068,
      "사랑하기": 6069,
      "사랑받고": 6070,
      "너무나": 6071,
      "이별했습니다": 6072,
      "연락해서": 6073,
      "힘들고": 6074,
      "힘들지도": 6075,
      "힘들거예요": 6076,
      "시간에": 6077,
      "시간표": 6078,
      "만나러": 6079,
      "만나길": 6080,
      "자신과": 6081,
      "아니랍니다": 6082,
      "괜찮다면": 6083,
      "괜찮지만": 6084,
      "마음이라도": 6085,
      "있는거": 6086,
      "필요한가봐요": 6087,
      "시간이겠네요": 6088,
      "당신에게": 6089,
      "있어야": 6090,
      "정리해보세요": 6091,
      "중요할": 6092,
      "행복할까": 6093,
      "행복하길": 6094,
      "##할까봐": 6095,
      "고민하게": 6096,
      "준비중": 6097,
      "준비하세요": 6098,
      "찾아오": 6099,
      "힘든데": 6100,
      "그럴지도": 6101,
      "서로가": 6102,
      "방법을": 6103,
      "사귀면": 6104,
      "사귀어도": 6105,
      "이야기해": 6106,
      "헤어지세요": 6107,
      "헤어지는게": 6108,
      "시작해도": 6109,
      "들어가": 6110,
      "받아보는": 6111,
      "아닌거": 6112,
      "아닌가봐요": 6113,
      "공부하기": 6114,
      "감정은": 6115,
      "가능할까": 6116,
      "기분은": 6117,
      "힘드신가봐요": 6118,
      "만들려고": 6119,
      "하루에": 6120,
      "하루가": 6121,
      "하루종일": 6122,
      "많은가봐요": 6123,
      "걱정은": 6124,
      "싫어하지": 6125,
      "남자친구한테": 6126,
      "상처는": 6127,
      "언제든": 6128,
      "##스러울": 6129,
      "맛있을": 6130,
      "맛있어요": 6131,
      "여행가": 6132,
      "대화가": 6133,
      "물어보고": 6134,
      "누구도": 6135,
      "않을거예요": 6136,
      "이해할": 6137,
      "결정할": 6138,
      "궁금할": 6139,
      "운동으로": 6140,
      "어디로": 6141,
      "아프고": 6142,
      "돌아가고": 6143,
      "나한테만": 6144,
      "회사에": 6145,
      "회사에는": 6146,
      "노력하고": 6147,
      "그만하고": 6148,
      "다가가는": 6149,
      "생각나고": 6150,
      "지나간": 6151,
      "그러는": 6152,
      "소개시켜": 6153,
      "신경쓰는": 6154,
      "문제는": 6155,
      "문제로": 6156,
      "노래를": 6157,
      "처음에는": 6158,
      "처음부터": 6159,
      "추억은": 6160,
      "추억으로": 6161,
      "기대가": 6162,
      "사이인데": 6163,
      "세상에는": 6164,
      "사랑한다는": 6165,
      "의미가": 6166,
      "의미를": 6167,
      "의미있는": 6168,
      "추천합니다": 6169,
      "추천해줘": 6170,
      "말해봐요": 6171,
      "건강이": 6172,
      "만남이": 6173,
      "만남과": 6174,
      "습관이네요": 6175,
      "상대방도": 6176,
      "1년이": 6177,
      "되었나봐요": 6178,
      "매일매일": 6179,
      "재회를": 6180,
      "나가기": 6181,
      "커피향": 6182,
      "얼마든지": 6183,
      "진심이": 6184,
      "아니라는": 6185,
      "성공을": 6186,
      "연습해보세요": 6187,
      "인정받고": 6188,
      "얼굴이": 6189,
      "##적이고": 6190,
      "좋아할거예요": 6191,
      "보이는": 6192,
      "보이스피": 6193,
      "실수할": 6194,
      "실수하지": 6195,
      "피곤한가봐요": 6196,
      "도와주": 6197,
      "별로야": 6198,
      "학교에서": 6199,
      "그분의": 6200,
      "끝났으면": 6201,
      "##시간이": 6202,
      "아이스크": 6203,
      "배우면": 6204,
      "행동이": 6205,
      "안녕히": 6206,
      "안녕하세요": 6207,
      "익숙해질": 6208,
      "나을지도": 6209,
      "도전해": 6210,
      "무엇을": 6211,
      "스타트업": 6212,
      "집착해": 6213,
      "집착하는": 6214,
      "자존감": 6215,
      "포기하는": 6216,
      "##생활이": 6217,
      "응원해요": 6218,
      "싸우면": 6219,
      "싸우면서": 6220,
      "전남친이": 6221,
      "소식이": 6222,
      "월급이": 6223,
      "잊는다는": 6224,
      "진정으로": 6225,
      "충전하세요": 6226,
      "비밀번호": 6227,
      "약속을": 6228,
      "##하려는": 6229,
      "바쁘면": 6230,
      "사랑할수록": 6231,
      "재미있어요": 6232,
      "당연히": 6233,
      "경우도": 6234,
      "경우가": 6235,
      "안경테": 6236,
      "예민한가봐요": 6237,
      "차분하게": 6238,
      "10년": 6239,
      "집중이": 6240,
      "집중하세요": 6241,
      "최선을": 6242,
      "선생님이": 6243,
      "두근거": 6244,
      "이기적인": 6245,
      "일어날": 6246,
      "올려달라고": 6247,
      "좋아한다고": 6248,
      "귀엽게": 6249,
      "드시고": 6250,
      "피부가": 6251,
      "고쳐쓰는": 6252,
      "괴롭게": 6253,
      "이용해주세요": 6254,
      "퇴근길": 6255,
      "학원을": 6256,
      "견디고": 6257,
      "미래에": 6258,
      "영원한": 6259,
      "선택일거라": 6260,
      "거울을": 6261,
      "기간이": 6262,
      "벗어나세요": 6263,
      "치과에": 6264,
      "걱정되겠네요": 6265,
      "집안일을": 6266,
      "공허함이": 6267,
      "권태기": 6268,
      "남사친이": 6269,
      "놀아줘": 6270,
      "택시비": 6271,
      "##방법을": 6272,
      "지나갔길": 6273,
      "안타깝네요": 6274,
      "심호흡해보세요": 6275,
      "계절이": 6276,
      "다양하게": 6277,
      "말투가": 6278,
      "신고하세요": 6279,
      "현금영수증": 6280,
      "각자의": 6281,
      "두번째": 6282,
      "셀프웨딩": 6283,
      "휴가가": 6284,
      "상관없어요": 6285,
      "고맙다": 6286,
      "부딪혔": 6287,
      "애정표현": 6288,
      "혼자서도": 6289,
      "스트레칭을": 6290,
      "달라지는게": 6291,
      "드라이브": 6292,
      "가사가": 6293,
      "깨끗하게": 6294,
      "멋지게": 6295,
      "무거워": 6296,
      "심경의": 6297,
      "의외로": 6298,
      "두근거리겠어요": 6299,
      "센스있는": 6300,
      "의욕이": 6301,
      "자괴감": 6302,
      "체육대회": 6303,
      "특별한": 6304,
      "부드럽게": 6305,
      "생리통": 6306,
      "정류장에서": 6307,
      "최근에": 6308,
      "흥미를": 6309,
      "가짐에": 6310,
      "곰곰히": 6311,
      "기프트콘": 6312,
      "꾸며보세요": 6313,
      "대중교통을": 6314,
      "도대체": 6315,
      "무작정": 6316,
      "부지런하시네요": 6317,
      "불면증": 6318,
      "비행기": 6319,
      "새학기": 6320,
      "스터디": 6321,
      "양해를": 6322,
      "어젯밤": 6323,
      "오히려": 6324,
      "오락가락": 6325,
      "오토바이": 6326,
      "지겨워": 6327,
      "찜질방": 6328,
      "차근차근": 6329,
      "첫인상": 6330,
      "화이트데이": 6331,
      "보이스피싱": 6332,
      "아이스크림": 6333,
      ".?": 6334,
      "...": 6335,
      "1달": 6336,
      "20": 6337,
      "3달": 6338,
      "3일째": 6339,
      "9년": 6340,
      "가라": 6341,
      "가스": 6342,
      "가볍": 6343,
      "간식": 6344,
      "감수": 6345,
      "감싸": 6346,
      "갚아": 6347,
      "개념": 6348,
      "거는": 6349,
      "거라고": 6350,
      "거르세요": 6351,
      "걸려": 6352,
      "걸린": 6353,
      "것만": 6354,
      "것입니다": 6355,
      "것들을": 6356,
      "격려": 6357,
      "경제": 6358,
      "곳을": 6359,
      "괜한": 6360,
      "괴로": 6361,
      "구속": 6362,
      "구분": 6363,
      "구해보세요": 6364,
      "그가": 6365,
      "긁었어": 6366,
      "금수": 6367,
      "기댈": 6368,
      "길게": 6369,
      "길은": 6370,
      "김치": 6371,
      "꺼내": 6372,
      "꼼꼼": 6373,
      "꿈같": 6374,
      "끄는": 6375,
      "끓여": 6376,
      "끝일": 6377,
      "끝낼": 6378,
      "끝인가": 6379,
      "나날": 6380,
      "나약": 6381,
      "나갔어": 6382,
      "낚시": 6383,
      "남길": 6384,
      "남았나봐요": 6385,
      "내게": 6386,
      "내기": 6387,
      "내내": 6388,
      "너한테": 6389,
      "높아": 6390,
      "눈은": 6391,
      "눈에서": 6392,
      "능력": 6393,
      "늦는": 6394,
      "늦잠": 6395,
      "다짐": 6396,
      "다툼": 6397,
      "단톡": 6398,
      "담긴": 6399,
      "답은": 6400,
      "당분": 6401,
      "대해보세요": 6402,
      "더욱": 6403,
      "돈은": 6404,
      "되기": 6405,
      "되는거": 6406,
      "두셨네요": 6407,
      "뒤숭": 6408,
      "뒤통수": 6409,
      "뒷담": 6410,
      "드리고": 6411,
      "듣기": 6412,
      "들려": 6413,
      "들까": 6414,
      "들면": 6415,
      "들으면": 6416,
      "등을": 6417,
      "등산": 6418,
      "때예요": 6419,
      "떨쳐": 6420,
      "똑같아": 6421,
      "랜선": 6422,
      "리폼": 6423,
      "만에": 6424,
      "말했어": 6425,
      "맘을": 6426,
      "망했다": 6427,
      "맞나": 6428,
      "맞아요": 6429,
      "맞는거": 6430,
      "맡겨보세요": 6431,
      "매력이": 6432,
      "먹은": 6433,
      "먹으": 6434,
      "먹자고": 6435,
      "먹었어": 6436,
      "먼지": 6437,
      "먼지가": 6438,
      "면허": 6439,
      "명품": 6440,
      "모임": 6441,
      "모를": 6442,
      "모쏠": 6443,
      "목이": 6444,
      "몸에": 6445,
      "몸무": 6446,
      "못난": 6447,
      "못참": 6448,
      "못해서": 6449,
      "못하는게": 6450,
      "못했던": 6451,
      "무한": 6452,
      "무의": 6453,
      "무관": 6454,
      "물건": 6455,
      "뭐임": 6456,
      "뭐하는": 6457,
      "미화": 6458,
      "미칠": 6459,
      "미용": 6460,
      "믿으세요": 6461,
      "믿음을": 6462,
      "바지": 6463,
      "바늘": 6464,
      "바르고": 6465,
      "밖에서": 6466,
      "반갑": 6467,
      "반년": 6468,
      "받기": 6469,
      "방문": 6470,
      "배울": 6471,
      "버리": 6472,
      "번씩": 6473,
      "벌고": 6474,
      "베터리": 6475,
      "벽에": 6476,
      "변한": 6477,
      "보단": 6478,
      "보며": 6479,
      "보이네요": 6480,
      "보자고": 6481,
      "복전": 6482,
      "볼게요": 6483,
      "봄은": 6484,
      "봤는데": 6485,
      "부디": 6486,
      "부여": 6487,
      "불금": 6488,
      "비하": 6489,
      "빌어요": 6490,
      "빠졌": 6491,
      "빠지는": 6492,
      "빨래": 6493,
      "뻔했어": 6494,
      "뽑기": 6495,
      "사냐": 6496,
      "사탕": 6497,
      "살찐": 6498,
      "살다보면": 6499,
      "상메": 6500,
      "서툰": 6501,
      "선에서": 6502,
      "설명": 6503,
      "설렜": 6504,
      "세월": 6505,
      "소모": 6506,
      "손에": 6507,
      "손해": 6508,
      "손톱": 6509,
      "수상": 6510,
      "수준": 6511,
      "수업": 6512,
      "술은": 6513,
      "숨막": 6514,
      "슬쩍": 6515,
      "시도": 6516,
      "시골": 6517,
      "식단": 6518,
      "신발": 6519,
      "심장이": 6520,
      "싸웠": 6521,
      "썸인": 6522,
      "쓸쓸": 6523,
      "씁쓸": 6524,
      "아마": 6525,
      "아팠": 6526,
      "안주": 6527,
      "안하지": 6528,
      "않는게": 6529,
      "알지": 6530,
      "알콩": 6531,
      "애기": 6532,
      "양말": 6533,
      "어리": 6534,
      "어른": 6535,
      "어렸": 6536,
      "어깨": 6537,
      "어리게": 6538,
      "없겠지요": 6539,
      "염탐": 6540,
      "옆에서": 6541,
      "예감": 6542,
      "올랐": 6543,
      "옷을": 6544,
      "와닿": 6545,
      "왔나봐요": 6546,
      "왜그": 6547,
      "요리": 6548,
      "웃겨": 6549,
      "유행": 6550,
      "유난": 6551,
      "은행": 6552,
      "이모": 6553,
      "이틀": 6554,
      "일반": 6555,
      "읽씹": 6556,
      "입에": 6557,
      "입어도": 6558,
      "있음": 6559,
      "있으니까": 6560,
      "있으신가봐요": 6561,
      "잊으려고": 6562,
      "자도": 6563,
      "작아": 6564,
      "잔인": 6565,
      "잘자": 6566,
      "잘살": 6567,
      "잘해주세요": 6568,
      "잘하는게": 6569,
      "잘해주는": 6570,
      "쟁취": 6571,
      "적이": 6572,
      "적어": 6573,
      "전해": 6574,
      "전기": 6575,
      "제안": 6576,
      "좋으": 6577,
      "좋지요": 6578,
      "주차": 6579,
      "주택": 6580,
      "주면서": 6581,
      "주제를": 6582,
      "지키": 6583,
      "지낼": 6584,
      "지저": 6585,
      "지루": 6586,
      "지옥": 6587,
      "지르고": 6588,
      "진행": 6589,
      "질문": 6590,
      "질질": 6591,
      "짐을": 6592,
      "집앞": 6593,
      "짧게": 6594,
      "찍고": 6595,
      "차이는": 6596,
      "착잡": 6597,
      "참을": 6598,
      "참석": 6599,
      "처럼": 6600,
      "첫눈": 6601,
      "추스": 6602,
      "축의": 6603,
      "층간": 6604,
      "치워": 6605,
      "치매": 6606,
      "친해지": 6607,
      "친해질": 6608,
      "컴퓨": 6609,
      "코가": 6610,
      "타다": 6611,
      "털어": 6612,
      "특징": 6613,
      "틀린": 6614,
      "티내": 6615,
      "편의": 6616,
      "편하고": 6617,
      "편하겠죠": 6618,
      "포장": 6619,
      "표정": 6620,
      "프라이": 6621,
      "피자": 6622,
      "하러": 6623,
      "하다가": 6624,
      "하기도": 6625,
      "하우스": 6626,
      "한가": 6627,
      "한계": 6628,
      "한창": 6629,
      "한국": 6630,
      "한켠": 6631,
      "한다는": 6632,
      "한순간": 6633,
      "할줄": 6634,
      "함부로": 6635,
      "해줄": 6636,
      "해보고": 6637,
      "호칭": 6638,
      "휴가를": 6639,
      "흑역": 6640,
      "##거겠죠": 6641,
      "##능에": 6642,
      "##적이네요": 6643,
      "##인걸까": 6644,
      "##한번": 6645,
      "##한건가": 6646,
      "##리하세요": 6647,
      "##하실": 6648,
      "##하겠지": 6649,
      "##하신가봐요": 6650,
      "##해졌어": 6651,
      "##게임": 6652,
      "##정적인": 6653,
      "##했네요": 6654,
      "##겠다고": 6655,
      "##지세요": 6656,
      "##지겠네요": 6657,
      "##다리": 6658,
      "##었나요": 6659,
      "##었으니까요": 6660,
      "##러보세요": 6661,
      "##서야": 6662,
      "##식에": 6663,
      "##식하는": 6664,
      "##달콩": 6665,
      "##우는": 6666,
      "##우니": 6667,
      "##시겠네요": 6668,
      "##였나": 6669,
      "##으려": 6670,
      "##으며": 6671,
      "##되기": 6672,
      "##와의": 6673,
      "##을때는": 6674,
      "##기지": 6675,
      "##심한": 6676,
      "##사에": 6677,
      "##라는게": 6678,
      "##신가요": 6679,
      "##고가": 6680,
      "##살이": 6681,
      "##생인데": 6682,
      "##르네": 6683,
      "##력은": 6684,
      "##있지": 6685,
      "##있나": 6686,
      "##있음": 6687,
      "##레스": 6688,
      "##질이": 6689,
      "##줘야": 6690,
      "##주가": 6691,
      "##동산": 6692,
      "##드가": 6693,
      "##드시": 6694,
      "##드립니다": 6695,
      "##았네": 6696,
      "##았으면": 6697,
      "##증을": 6698,
      "##걸요": 6699,
      "##데이트": 6700,
      "##터리가": 6701,
      "##집니다": 6702,
      "##노래": 6703,
      "##ㅎㅎ": 6704,
      "##왔네": 6705,
      "##트를": 6706,
      "##담해보세요": 6707,
      "##두절": 6708,
      "##받았어": 6709,
      "##조절": 6710,
      "##조차": 6711,
      "##연제": 6712,
      "##냈어요": 6713,
      "##오를": 6714,
      "##셔야죠": 6715,
      "##뿐이에요": 6716,
      "##카락": 6717,
      "##련만": 6718,
      "##유연제": 6719,
      "##냐구": 6720,
      "##셨나": 6721,
      "##셨겠어요": 6722,
      "##느냐에": 6723,
      "##봤어": 6724,
      "##버시": 6725,
      "##롭게": 6726,
      "##김에": 6727,
      "##갔네": 6728,
      "##릅니다": 6729,
      "##힌다": 6730,
      "좋아했으면": 6731,
      "사랑해요": 6732,
      "생각으로": 6733,
      "생각해서": 6734,
      "마음정": 6735,
      "마음만": 6736,
      "마음인가봐요": 6737,
      "이별준비": 6738,
      "연락할": 6739,
      "연락오": 6740,
      "연락했는데": 6741,
      "연락두절": 6742,
      "있을게요": 6743,
      "여자도": 6744,
      "남자도": 6745,
      "친구는": 6746,
      "친구네": 6747,
      "친구와": 6748,
      "오늘부터": 6749,
      "만나요": 6750,
      "만나자": 6751,
      "만나는데": 6752,
      "자신으로": 6753,
      "좋을지": 6754,
      "아니었을": 6755,
      "연애의": 6756,
      "연애하는": 6757,
      "연애하면": 6758,
      "연애하는데": 6759,
      "모르겠네": 6760,
      "어떻게해": 6761,
      "어떻게든": 6762,
      "짝남에게": 6763,
      "싶다는": 6764,
      "혼자인": 6765,
      "하는지": 6766,
      "##인데요": 6767,
      "결혼해야": 6768,
      "결혼하는데": 6769,
      "정리하고": 6770,
      "기다렸": 6771,
      "기다림": 6772,
      "짝사랑을": 6773,
      "##이라서": 6774,
      "찾아온": 6775,
      "##보다는": 6776,
      "아무말": 6777,
      "힘든거": 6778,
      "힘든가봐요": 6779,
      "고백은": 6780,
      "후회를": 6781,
      "후회해도": 6782,
      "후회하기": 6783,
      "없는거": 6784,
      "사귀던": 6785,
      "##해야겠다": 6786,
      "헤어지는": 6787,
      "헤어지기": 6788,
      "시작이죠": 6789,
      "시작하기": 6790,
      "들어도": 6791,
      "들어서": 6792,
      "들어올": 6793,
      "들어줄": 6794,
      "들어주세요": 6795,
      "들어왔어": 6796,
      "해야할": 6797,
      "해야돼": 6798,
      "받아야": 6799,
      "아닌가요": 6800,
      "공부할": 6801,
      "가능하면": 6802,
      "가능하겠죠": 6803,
      "여자친구를": 6804,
      "신경써": 6805,
      "걱정할": 6806,
      "걱정된다고": 6807,
      "싫어도": 6808,
      "기억의": 6809,
      "기억에서": 6810,
      "남자친구를": 6811,
      "남자친구에게": 6812,
      "상처도": 6813,
      "여행은": 6814,
      "있었을": 6815,
      "있었는데": 6816,
      "대화로": 6817,
      "대화하는": 6818,
      "카톡이": 6819,
      "카톡을": 6820,
      "카톡으로": 6821,
      "함께한": 6822,
      "함께할": 6823,
      "##이었나봐요": 6824,
      "##이었나봅니다": 6825,
      "물어보면": 6826,
      "누구랑": 6827,
      "머리카락": 6828,
      "전화해보세요": 6829,
      "어디든": 6830,
      "선택할": 6831,
      "선택이길": 6832,
      "한달하고": 6833,
      "돌아가": 6834,
      "미련도": 6835,
      "생겼네요": 6836,
      "보내지": 6837,
      "다가오": 6838,
      "때문일": 6839,
      "인연은": 6840,
      "지나면": 6841,
      "그러게": 6842,
      "재미없어": 6843,
      "어려울": 6844,
      "신경쓰여": 6845,
      "인생이죠": 6846,
      "잘못이": 6847,
      "잘못을": 6848,
      "##해지세요": 6849,
      "상황이네요": 6850,
      "우리집": 6851,
      "중요한데": 6852,
      "추억에": 6853,
      "화장품": 6854,
      "기대를": 6855,
      "기대하지": 6856,
      "현실과": 6857,
      "세상이": 6858,
      "요즘은": 6859,
      "언젠가는": 6860,
      "먹어야겠다": 6861,
      "만남에": 6862,
      "습관이": 6863,
      "어제와": 6864,
      "상대방에": 6865,
      "상대방에게": 6866,
      "1년째": 6867,
      "헤어짐이": 6868,
      "그리울": 6869,
      "그리움": 6870,
      "다르죠": 6871,
      "재회는": 6872,
      "남자애한테": 6873,
      "나가야": 6874,
      "나가볼까": 6875,
      "성공하고": 6876,
      "순간이네요": 6877,
      "순간이었을": 6878,
      "살아가": 6879,
      "인정하고": 6880,
      "인정해주세요": 6881,
      "이별이란": 6882,
      "없을거예요": 6883,
      "잊혀지지": 6884,
      "재밌어": 6885,
      "재밌는": 6886,
      "재밌다": 6887,
      "필요한게": 6888,
      "지내길": 6889,
      "짜증날": 6890,
      "후폭풍은": 6891,
      "연락해볼까": 6892,
      "아픔이": 6893,
      "아픔은": 6894,
      "정도로": 6895,
      "만들어서": 6896,
      "마주쳐보세요": 6897,
      "두려움을": 6898,
      "운명적인": 6899,
      "주변에서": 6900,
      "첫사랑이": 6901,
      "힘들었죠": 6902,
      "게임을": 6903,
      "도전하는": 6904,
      "관리하는": 6905,
      "이겨내세요": 6906,
      "자존감을": 6907,
      "연인은": 6908,
      "연인으로": 6909,
      "일어나는": 6910,
      "일어나서": 6911,
      "좋아해줬으면": 6912,
      "이상형이": 6913,
      "이상형은": 6914,
      "먹으면서": 6915,
      "보고싶네": 6916,
      "생일이네": 6917,
      "싸우는": 6918,
      "가야겠죠": 6919,
      "어렵죠": 6920,
      "끝내고": 6921,
      "마셔도": 6922,
      "맞춰보세요": 6923,
      "미치겠어": 6924,
      "미치겠습니다": 6925,
      "미치겠네": 6926,
      "즐기면서": 6927,
      "재미있게": 6928,
      "당연한": 6929,
      "받아들일": 6930,
      "미워하지": 6931,
      "예민한": 6932,
      "두려워하지": 6933,
      "그대로의": 6934,
      "기본이": 6935,
      "서운해": 6936,
      "슬프게": 6937,
      "어쩔수": 6938,
      "부담스러워하지": 6939,
      "사과하세요": 6940,
      "자유로워": 6941,
      "적응해야": 6942,
      "고마운": 6943,
      "삭제하세요": 6944,
      "오빠가": 6945,
      "좋았으면": 6946,
      "놀이동산": 6947,
      "당황했겠어요": 6948,
      "버텨요": 6949,
      "보냈어": 6950,
      "프로필": 6951,
      "좋아한다는": 6952,
      "아름다워요": 6953,
      "과정이에요": 6954,
      "드시면": 6955,
      "바빠도": 6956,
      "바빠서": 6957,
      "바꿔보세요": 6958,
      "존재를": 6959,
      "목소리": 6960,
      "바뀌게": 6961,
      "배고프": 6962,
      "상사가": 6963,
      "아는데도": 6964,
      "애매하네요": 6965,
      "이름이": 6966,
      "지우고": 6967,
      "퇴근하고": 6968,
      "피해를": 6969,
      "좋을텐데요": 6970,
      "거절의": 6971,
      "고치고": 6972,
      "사라질": 6973,
      "안좋은": 6974,
      "마주치는": 6975,
      "가까운": 6976,
      "차별해": 6977,
      "쓰레기야": 6978,
      "권태기가": 6979,
      "미세먼지가": 6980,
      "선톡을": 6981,
      "시계는": 6982,
      "여사친이": 6983,
      "정확하게": 6984,
      "평소에": 6985,
      "잊혀지기도": 6986,
      "심호흡을": 6987,
      "소원을": 6988,
      "가치관이": 6989,
      "바꿀까": 6990,
      "외국인인데": 6991,
      "마실까": 6992,
      "물리적": 6993,
      "행운을": 6994,
      "필요하다면요": 6995,
      "기원합니다": 6996,
      "떠오르는": 6997,
      "맞추세요": 6998,
      "유부남": 6999,
      "이어나가": 7000,
      "콩깍지가": 7001,
      "##테리어": 7002,
      "달라진게": 7003,
      "걸리겠지만": 7004,
      "반응이": 7005,
      "비난하지": 7006,
      "속도를": 7007,
      "신중하게": 7008,
      "큰일이네요": 7009,
      "한숨만": 7010,
      "해외여행": 7011,
      "하고싶었던": 7012,
      "나아졌길": 7013,
      "강렬한": 7014,
      "단둘이": 7015,
      "달려있": 7016,
      "사겨도": 7017,
      "서툴러": 7018,
      "섬유유연제": 7019,
      "어필해보세요": 7020,
      "주식으로": 7021,
      "줄어들": 7022,
      "낭비하지": 7023,
      "맞춤법": 7024,
      "미끄러": 7025,
      "서류에서": 7026,
      "수학여행": 7027,
      "잃어버렸어": 7028,
      "차갑게": 7029,
      "....": 7030,
      "금수저": 7031,
      "당분간": 7032,
      "뒤숭숭": 7033,
      "뒷담화": 7034,
      "몸무게": 7035,
      "못참고": 7036,
      "알콩달콩": 7037,
      "유난히": 7038,
      "좋으련만": 7039,
      "지저분": 7040,
      "축의금": 7041,
      "층간소음": 7042,
      "프라이버시": 7043,
      "흑역사": 7044
    },
    "merges": [
      [
        "##세",
        "##요"
      ],
      [
        "##보",
        "##세요"
      ],
      [
        "##하",
        "##는"
      ],
      [
        "##예",
        "##요"
      ],
      [
        "사",
        "##람"
      ],
      [
        "좋",
        "##아"
      ],
      [
        "##어",
        "##요"
      ],
      [
        "거",
        "##예요"
      ],
      [
        "사",
        "##랑"
      ],
      [
        "##네",
        "##요"
      ],
      [
        "##니",
        "##다"
      ],
      [
        "생",
        "##각"
      ],
      [
        "##봐",
        "##요"
      ],
      [
        "##는",
        "##데"
      ],
      [
        "마",
        "##음"
      ],
      [
        "너",
        "##무"
      ],
      [
        "##아",
        "##요"
      ],
      [
        "좋아",
        "##하는"
      ],
      [
        "##해",
        "##보세요"
      ],
      [
        "이",
        "##별"
      ],
      [
        "연",
        "##락"
      ],
      [
        "##하",
        "##고"
      ],
      [
        "헤",
        "##어"
      ],
      [
        "있",
        "##을"
      ],
      [
        "여",
        "##자"
      ],
      [
        "남",
        "##자"
      ],
      [
        "##으",
        "##면"
      ],
      [
        "힘",
        "##들"
      ],
      [
        "##친",
        "##구"
      ],
      [
        "좋",
        "##은"
      ],
      [
        "##나",
        "##봐요"
      ],
      [
        "##하",
        "##지"
      ],
      [
        "많",
        "##이"
      ],
      [
        "시",
        "##간"
      ],
      [
        "사람",
        "##이"
      ],
      [
        "##에",
        "##요"
      ],
      [
        "##으",
        "##로"
      ],
      [
        "친",
        "##구"
      ],
      [
        "##한",
        "##테"
      ],
      [
        "##에",
        "##서"
      ],
      [
        "같",
        "##아요"
      ],
      [
        "##해",
        "##요"
      ],
      [
        "##까",
        "##요"
      ],
      [
        "##겠",
        "##어요"
      ],
      [
        "있",
        "##어요"
      ],
      [
        "싶",
        "##어"
      ],
      [
        "##하",
        "##면"
      ],
      [
        "오",
        "##늘"
      ],
      [
        "같",
        "##아"
      ],
      [
        "만",
        "##나"
      ],
      [
        "##하",
        "##세요"
      ],
      [
        "##이",
        "##에요"
      ],
      [
        "##하",
        "##게"
      ],
      [
        "##겠",
        "##네요"
      ],
      [
        "##주",
        "##세요"
      ],
      [
        "자",
        "##신"
      ],
      [
        "이",
        "##제"
      ],
      [
        "##에",
        "##게"
      ],
      [
        "좋",
        "##을"
      ],
      [
        "##습",
        "##니다"
      ],
      [
        "아",
        "##니"
      ],
      [
        "##는",
        "##게"
      ],
      [
        "괜",
        "##찮"
      ],
      [
        "마",
        "##세요"
      ],
      [
        "##겠",
        "##지"
      ],
      [
        "마음",
        "##이"
      ],
      [
        "##라",
        "##고"
      ],
      [
        "연",
        "##애"
      ],
      [
        "내",
        "##가"
      ],
      [
        "##게",
        "##요"
      ],
      [
        "있",
        "##는"
      ],
      [
        "필",
        "##요"
      ],
      [
        "##친구",
        "##가"
      ],
      [
        "해",
        "##보세요"
      ],
      [
        "모",
        "##르"
      ],
      [
        "어",
        "##떻"
      ],
      [
        "##다",
        "##면"
      ],
      [
        "다",
        "##른"
      ],
      [
        "##가",
        "##봐요"
      ],
      [
        "어떻",
        "##게"
      ],
      [
        "짝",
        "##남"
      ],
      [
        "헤어",
        "##진"
      ],
      [
        "시간",
        "##이"
      ],
      [
        "##다",
        "##고"
      ],
      [
        "없",
        "##어"
      ],
      [
        "당",
        "##신"
      ],
      [
        "##해",
        "##도"
      ],
      [
        "##겠",
        "##어"
      ],
      [
        "싶",
        "##다"
      ],
      [
        "다",
        "##시"
      ],
      [
        "##겠",
        "##죠"
      ],
      [
        "##사",
        "##랑"
      ],
      [
        "혼",
        "##자"
      ],
      [
        "하",
        "##는"
      ],
      [
        "있",
        "##어"
      ],
      [
        "하",
        "##고"
      ],
      [
        "##인",
        "##데"
      ],
      [
        "결",
        "##혼"
      ],
      [
        "정",
        "##말"
      ],
      [
        "지",
        "##금"
      ],
      [
        "##들",
        "##이"
      ],
      [
        "정",
        "##리"
      ],
      [
        "수",
        "##도"
      ],
      [
        "기",
        "##다"
      ],
      [
        "중",
        "##요"
      ],
      [
        "그",
        "##런"
      ],
      [
        "##이",
        "##네요"
      ],
      [
        "##야",
        "##지"
      ],
      [
        "행",
        "##복"
      ],
      [
        "##할",
        "##까"
      ],
      [
        "조",
        "##금"
      ],
      [
        "같",
        "##이"
      ],
      [
        "##어",
        "##보세요"
      ],
      [
        "것",
        "##도"
      ],
      [
        "##렇",
        "##게"
      ],
      [
        "고",
        "##민"
      ],
      [
        "##은",
        "##데"
      ],
      [
        "아",
        "##직"
      ],
      [
        "##라",
        "##요"
      ],
      [
        "짝",
        "##사랑"
      ],
      [
        "##지",
        "##만"
      ],
      [
        "##이",
        "##라"
      ],
      [
        "자",
        "##꾸"
      ],
      [
        "준",
        "##비"
      ],
      [
        "##지",
        "##도"
      ],
      [
        "선",
        "##물"
      ],
      [
        "찾",
        "##아"
      ],
      [
        "##보",
        "##다"
      ],
      [
        "보",
        "##고"
      ],
      [
        "아",
        "##무"
      ],
      [
        "힘",
        "##든"
      ],
      [
        "저",
        "##도"
      ],
      [
        "고",
        "##백"
      ],
      [
        "없",
        "##어요"
      ],
      [
        "##이",
        "##죠"
      ],
      [
        "##야",
        "##기"
      ],
      [
        "짝",
        "##녀"
      ],
      [
        "##거",
        "##예요"
      ],
      [
        "##까",
        "##지"
      ],
      [
        "바",
        "##랄"
      ],
      [
        "##니",
        "##까요"
      ],
      [
        "그",
        "##럴"
      ],
      [
        "진",
        "##짜"
      ],
      [
        "후",
        "##회"
      ],
      [
        "먼",
        "##저"
      ],
      [
        "서",
        "##로"
      ],
      [
        "##겠",
        "##다"
      ],
      [
        "##을",
        "##까"
      ],
      [
        "바랄",
        "##게요"
      ],
      [
        "없",
        "##는"
      ],
      [
        "##해",
        "##서"
      ],
      [
        "제",
        "##가"
      ],
      [
        "돼",
        "##요"
      ],
      [
        "방",
        "##법"
      ],
      [
        "사",
        "##귀"
      ],
      [
        "이",
        "##야기"
      ],
      [
        "##해",
        "##야"
      ],
      [
        "헤어",
        "##지"
      ],
      [
        "시",
        "##작"
      ],
      [
        "헤어진",
        "##지"
      ],
      [
        "들",
        "##어"
      ],
      [
        "해",
        "##야"
      ],
      [
        "있을",
        "##까"
      ],
      [
        "그",
        "##녀"
      ],
      [
        "하",
        "##나"
      ],
      [
        "##에",
        "##는"
      ],
      [
        "계",
        "##속"
      ],
      [
        "일",
        "##이"
      ],
      [
        "##인",
        "##가"
      ],
      [
        "##이",
        "##야"
      ],
      [
        "나",
        "##를"
      ],
      [
        "받",
        "##아"
      ],
      [
        "아",
        "##닌"
      ],
      [
        "좋아",
        "##요"
      ],
      [
        "공",
        "##부"
      ],
      [
        "##볼",
        "##까"
      ],
      [
        "##해",
        "##주세요"
      ],
      [
        "감",
        "##정"
      ],
      [
        "사랑",
        "##이"
      ],
      [
        "마음",
        "##을"
      ],
      [
        "가",
        "##능"
      ],
      [
        "될",
        "##까"
      ],
      [
        "보",
        "##세요"
      ],
      [
        "##이",
        "##트"
      ],
      [
        "기",
        "##분"
      ],
      [
        "여자",
        "##친구가"
      ],
      [
        "먹",
        "##고"
      ],
      [
        "힘",
        "##드"
      ],
      [
        "##려",
        "##고"
      ],
      [
        "남자",
        "##친구가"
      ],
      [
        "만",
        "##들"
      ],
      [
        "##보",
        "##는"
      ],
      [
        "##면",
        "##서"
      ],
      [
        "##기",
        "##가"
      ],
      [
        "##랍",
        "##니다"
      ],
      [
        "여자",
        "##친구"
      ],
      [
        "드",
        "##세요"
      ],
      [
        "않",
        "##아요"
      ],
      [
        "하",
        "##세요"
      ],
      [
        "##대",
        "##로"
      ],
      [
        "##했",
        "##어"
      ],
      [
        "신",
        "##경"
      ],
      [
        "이",
        "##상"
      ],
      [
        "좋",
        "##죠"
      ],
      [
        "하",
        "##루"
      ],
      [
        "##다",
        "##는"
      ],
      [
        "##봅",
        "##니다"
      ],
      [
        "##리",
        "##는"
      ],
      [
        "##지",
        "##는"
      ],
      [
        "많",
        "##은"
      ],
      [
        "하",
        "##지"
      ],
      [
        "##니",
        "##까"
      ],
      [
        "걱",
        "##정"
      ],
      [
        "##자",
        "##고"
      ],
      [
        "##하",
        "##기"
      ],
      [
        "알",
        "##아"
      ],
      [
        "바",
        "##랍니다"
      ],
      [
        "싫",
        "##어"
      ],
      [
        "상",
        "##대"
      ],
      [
        "##나",
        "##요"
      ],
      [
        "##합",
        "##니다"
      ],
      [
        "##하는",
        "##게"
      ],
      [
        "그",
        "##래"
      ],
      [
        "##입",
        "##니다"
      ],
      [
        "사랑",
        "##하는"
      ],
      [
        "관",
        "##심"
      ],
      [
        "기",
        "##억"
      ],
      [
        "힘들",
        "##어"
      ],
      [
        "데",
        "##이트"
      ],
      [
        "해",
        "##요"
      ],
      [
        "남자",
        "##친구"
      ],
      [
        "말",
        "##해보세요"
      ],
      [
        "상",
        "##처"
      ],
      [
        "##적",
        "##인"
      ],
      [
        "생각",
        "##해요"
      ],
      [
        "언",
        "##제"
      ],
      [
        "##이",
        "##랑"
      ],
      [
        "##로",
        "##운"
      ],
      [
        "##스",
        "##러"
      ],
      [
        "맛",
        "##있"
      ],
      [
        "어",
        "##떨"
      ],
      [
        "여",
        "##행"
      ],
      [
        "좋",
        "##겠어요"
      ],
      [
        "충",
        "##분"
      ],
      [
        "무",
        "##슨"
      ],
      [
        "어",
        "##떤"
      ],
      [
        "있",
        "##었"
      ],
      [
        "##하",
        "##죠"
      ],
      [
        "##다",
        "##가"
      ],
      [
        "있",
        "##으면"
      ],
      [
        "친구",
        "##가"
      ],
      [
        "그",
        "##냥"
      ],
      [
        "대",
        "##화"
      ],
      [
        "카",
        "##톡"
      ],
      [
        "할",
        "##까"
      ],
      [
        "함",
        "##께"
      ],
      [
        "##이",
        "##었"
      ],
      [
        "사람",
        "##은"
      ],
      [
        "않",
        "##는"
      ],
      [
        "이",
        "##렇게"
      ],
      [
        "##인",
        "##지"
      ],
      [
        "나",
        "##만"
      ],
      [
        "물",
        "##어"
      ],
      [
        "안",
        "##돼"
      ],
      [
        "##부",
        "##터"
      ],
      [
        "헤어",
        "##졌"
      ],
      [
        "내",
        "##일"
      ],
      [
        "오",
        "##래"
      ],
      [
        "누",
        "##구"
      ],
      [
        "몰",
        "##라요"
      ],
      [
        "않",
        "##을"
      ],
      [
        "표",
        "##현"
      ],
      [
        "##하",
        "##네"
      ],
      [
        "힘드",
        "##네"
      ],
      [
        "머",
        "##리"
      ],
      [
        "이",
        "##해"
      ],
      [
        "여",
        "##친"
      ],
      [
        "전",
        "##화"
      ],
      [
        "##라",
        "##도"
      ],
      [
        "자신",
        "##을"
      ],
      [
        "##가",
        "##는"
      ],
      [
        "사랑",
        "##은"
      ],
      [
        "결",
        "##정"
      ],
      [
        "궁",
        "##금"
      ],
      [
        "많",
        "##아"
      ],
      [
        "운",
        "##동"
      ],
      [
        "이",
        "##유"
      ],
      [
        "하",
        "##면"
      ],
      [
        "##리",
        "##고"
      ],
      [
        "새",
        "##로운"
      ],
      [
        "어",
        "##디"
      ],
      [
        "사람",
        "##을"
      ],
      [
        "선",
        "##택"
      ],
      [
        "아",
        "##프"
      ],
      [
        "한",
        "##달"
      ],
      [
        "##기",
        "##도"
      ],
      [
        "##겠지",
        "##만"
      ],
      [
        "어떨",
        "##까요"
      ],
      [
        "돌",
        "##아"
      ],
      [
        "부",
        "##담"
      ],
      [
        "스",
        "##트"
      ],
      [
        "썸",
        "##남"
      ],
      [
        "있",
        "##는데"
      ],
      [
        "생각",
        "##해보세요"
      ],
      [
        "스트",
        "##레"
      ],
      [
        "미",
        "##련"
      ],
      [
        "안",
        "##되"
      ],
      [
        "주",
        "##세요"
      ],
      [
        "##했",
        "##던"
      ],
      [
        "생",
        "##겼"
      ],
      [
        "해",
        "##도"
      ],
      [
        "##어",
        "##도"
      ],
      [
        "##텐",
        "##데"
      ],
      [
        "나",
        "##한테"
      ],
      [
        "타",
        "##는"
      ],
      [
        "회",
        "##사"
      ],
      [
        "노",
        "##력"
      ],
      [
        "말",
        "##고"
      ],
      [
        "보",
        "##내"
      ],
      [
        "직",
        "##접"
      ],
      [
        "##해",
        "##주"
      ],
      [
        "##었",
        "##어"
      ],
      [
        "##개",
        "##월"
      ],
      [
        "아니",
        "##에요"
      ],
      [
        "가",
        "##고"
      ],
      [
        "그",
        "##만"
      ],
      [
        "다",
        "##가"
      ],
      [
        "따",
        "##라"
      ],
      [
        "만",
        "##큼"
      ],
      [
        "##거",
        "##나"
      ],
      [
        "##나",
        "##봐"
      ],
      [
        "생각",
        "##나"
      ],
      [
        "때",
        "##문"
      ],
      [
        "않",
        "##아"
      ],
      [
        "인",
        "##연"
      ],
      [
        "좋",
        "##겠네요"
      ],
      [
        "지",
        "##나"
      ],
      [
        "##았",
        "##는데"
      ],
      [
        "생각",
        "##이"
      ],
      [
        "연락",
        "##이"
      ],
      [
        "그",
        "##러"
      ],
      [
        "싶",
        "##은"
      ],
      [
        "어",
        "##떡"
      ],
      [
        "##처",
        "##럼"
      ],
      [
        "생각",
        "##을"
      ],
      [
        "만",
        "##날"
      ],
      [
        "않",
        "##았"
      ],
      [
        "이",
        "##젠"
      ],
      [
        "재",
        "##미"
      ],
      [
        "##이",
        "##나"
      ],
      [
        "##움",
        "##이"
      ],
      [
        "같",
        "##은데"
      ],
      [
        "그",
        "##게"
      ],
      [
        "소",
        "##개"
      ],
      [
        "어",
        "##려"
      ],
      [
        "항",
        "##상"
      ],
      [
        "##나",
        "##봅니다"
      ],
      [
        "##으",
        "##세요"
      ],
      [
        "이별",
        "##을"
      ],
      [
        "괜찮",
        "##아"
      ],
      [
        "신경",
        "##쓰"
      ],
      [
        "스트레",
        "##스"
      ],
      [
        "그",
        "##렇게"
      ],
      [
        "남",
        "##친"
      ],
      [
        "쉽",
        "##지"
      ],
      [
        "인",
        "##생"
      ],
      [
        "잘",
        "##못"
      ],
      [
        "저",
        "##는"
      ],
      [
        "##가",
        "##요"
      ],
      [
        "##해",
        "##지"
      ],
      [
        "##군",
        "##요"
      ],
      [
        "마음",
        "##에"
      ],
      [
        "짝남",
        "##이"
      ],
      [
        "문",
        "##제"
      ],
      [
        "아",
        "##파"
      ],
      [
        "조",
        "##심"
      ],
      [
        "##적",
        "##으로"
      ],
      [
        "같",
        "##은"
      ],
      [
        "노",
        "##래"
      ],
      [
        "바",
        "##라요"
      ],
      [
        "좋",
        "##겠다"
      ],
      [
        "처",
        "##음"
      ],
      [
        "##인",
        "##가봐요"
      ],
      [
        "##했",
        "##는데"
      ],
      [
        "##기",
        "##를"
      ],
      [
        "모르",
        "##겠어"
      ],
      [
        "느",
        "##낌"
      ],
      [
        "상",
        "##황"
      ],
      [
        "어",
        "##때"
      ],
      [
        "##거",
        "##라"
      ],
      [
        "##어",
        "##나"
      ],
      [
        "##하",
        "##네요"
      ],
      [
        "##보",
        "##고"
      ],
      [
        "##하는",
        "##데"
      ],
      [
        "때",
        "##가"
      ],
      [
        "우",
        "##리"
      ],
      [
        "##리",
        "##세요"
      ],
      [
        "##려",
        "##보세요"
      ],
      [
        "##하",
        "##다"
      ],
      [
        "나",
        "##이"
      ],
      [
        "달",
        "##라"
      ],
      [
        "만",
        "##났"
      ],
      [
        "변",
        "##화"
      ],
      [
        "축",
        "##하"
      ],
      [
        "##는",
        "##지"
      ],
      [
        "중요",
        "##한"
      ],
      [
        "찾아",
        "##보세요"
      ],
      [
        "확",
        "##실"
      ],
      [
        "##스",
        "##럽"
      ],
      [
        "사랑",
        "##을"
      ],
      [
        "가",
        "##보세요"
      ],
      [
        "결",
        "##국"
      ],
      [
        "답",
        "##답"
      ],
      [
        "위",
        "##로"
      ],
      [
        "챙",
        "##겨"
      ],
      [
        "추",
        "##억"
      ],
      [
        "화",
        "##장"
      ],
      [
        "##졌",
        "##어"
      ],
      [
        "이별",
        "##은"
      ],
      [
        "가",
        "##는"
      ],
      [
        "기",
        "##대"
      ],
      [
        "나",
        "##는"
      ],
      [
        "다",
        "##음"
      ],
      [
        "말",
        "##을"
      ],
      [
        "현",
        "##실"
      ],
      [
        "생각",
        "##해"
      ],
      [
        "괜찮",
        "##아요"
      ],
      [
        "말",
        "##씀"
      ],
      [
        "사",
        "##이"
      ],
      [
        "세",
        "##상"
      ],
      [
        "영",
        "##화"
      ],
      [
        "요",
        "##즘"
      ],
      [
        "잊",
        "##어"
      ],
      [
        "좋",
        "##겠어"
      ],
      [
        "힘",
        "##내"
      ],
      [
        "##지",
        "##요"
      ],
      [
        "충분",
        "##히"
      ],
      [
        "그",
        "##렇"
      ],
      [
        "도",
        "##움이"
      ],
      [
        "사랑",
        "##한"
      ],
      [
        "대화",
        "##를"
      ],
      [
        "물",
        "##어보세요"
      ],
      [
        "열",
        "##심"
      ],
      [
        "의",
        "##미"
      ],
      [
        "있",
        "##죠"
      ],
      [
        "##는",
        "##거"
      ],
      [
        "##지",
        "##막"
      ],
      [
        "##만",
        "##에"
      ],
      [
        "##감",
        "##이"
      ],
      [
        "여자",
        "##애"
      ],
      [
        "아직",
        "##도"
      ],
      [
        "열심",
        "##히"
      ],
      [
        "가",
        "##지"
      ],
      [
        "가",
        "##져"
      ],
      [
        "마",
        "##지막"
      ],
      [
        "않",
        "##은"
      ],
      [
        "언",
        "##젠"
      ],
      [
        "추",
        "##천"
      ],
      [
        "확",
        "##인"
      ],
      [
        "##이",
        "##네"
      ],
      [
        "##동",
        "##안"
      ],
      [
        "##았",
        "##어"
      ],
      [
        "##걸",
        "##까"
      ],
      [
        "##싶",
        "##어"
      ],
      [
        "마음",
        "##의"
      ],
      [
        "연락",
        "##을"
      ],
      [
        "좋을",
        "##까"
      ],
      [
        "말",
        "##해"
      ],
      [
        "말",
        "##아요"
      ],
      [
        "먹",
        "##어"
      ],
      [
        "싶",
        "##은데"
      ],
      [
        "아",
        "##침"
      ],
      [
        "얼",
        "##른"
      ],
      [
        "정",
        "##신"
      ],
      [
        "집",
        "##에"
      ],
      [
        "##보",
        "##면"
      ],
      [
        "##것",
        "##도"
      ],
      [
        "##이라",
        "##도"
      ],
      [
        "가",
        "##슴"
      ],
      [
        "건",
        "##강"
      ],
      [
        "관",
        "##계"
      ],
      [
        "나",
        "##쁜"
      ],
      [
        "만",
        "##남"
      ],
      [
        "부",
        "##모"
      ],
      [
        "습",
        "##관"
      ],
      [
        "어",
        "##제"
      ],
      [
        "사랑",
        "##의"
      ],
      [
        "연락",
        "##해보세요"
      ],
      [
        "시간",
        "##을"
      ],
      [
        "오늘",
        "##도"
      ],
      [
        "상대",
        "##방"
      ],
      [
        "때문",
        "##에"
      ],
      [
        "1",
        "##년"
      ],
      [
        "거",
        "##라"
      ],
      [
        "되",
        "##었"
      ],
      [
        "매",
        "##일"
      ],
      [
        "##한",
        "##가봐요"
      ],
      [
        "##으",
        "##니까요"
      ],
      [
        "##일",
        "##까"
      ],
      [
        "##워",
        "##요"
      ],
      [
        "헤어",
        "##짐"
      ],
      [
        "짝녀",
        "##가"
      ],
      [
        "가",
        "##장"
      ],
      [
        "귀",
        "##찮"
      ],
      [
        "그",
        "##리"
      ],
      [
        "다",
        "##르"
      ],
      [
        "살",
        "##고"
      ],
      [
        "어",
        "##느"
      ],
      [
        "완",
        "##전"
      ],
      [
        "이",
        "##런"
      ],
      [
        "있",
        "##나봐요"
      ],
      [
        "재",
        "##회"
      ],
      [
        "##했",
        "##나봐요"
      ],
      [
        "##사",
        "##람"
      ],
      [
        "남자",
        "##애"
      ],
      [
        "당신",
        "##의"
      ],
      [
        "조금",
        "##만"
      ],
      [
        "부모",
        "##님"
      ],
      [
        "나",
        "##가"
      ],
      [
        "떨",
        "##어"
      ],
      [
        "바",
        "##람"
      ],
      [
        "아",
        "##닐"
      ],
      [
        "제",
        "##일"
      ],
      [
        "커",
        "##피"
      ],
      [
        "해",
        "##볼까"
      ],
      [
        "핸",
        "##드"
      ],
      [
        "##자",
        "##기"
      ],
      [
        "##릴",
        "##게요"
      ],
      [
        "조금",
        "##씩"
      ],
      [
        "헤어지",
        "##고"
      ],
      [
        "대",
        "##한"
      ],
      [
        "못",
        "##하"
      ],
      [
        "알",
        "##려"
      ],
      [
        "얼",
        "##마"
      ],
      [
        "오",
        "##세요"
      ],
      [
        "진",
        "##심"
      ],
      [
        "##신",
        "##이"
      ],
      [
        "##감",
        "##을"
      ],
      [
        "사람",
        "##들"
      ],
      [
        "좋아",
        "##하"
      ],
      [
        "남자",
        "##가"
      ],
      [
        "##하면",
        "##서"
      ],
      [
        "아니",
        "##라"
      ],
      [
        "같",
        "##애"
      ],
      [
        "많",
        "##았"
      ],
      [
        "모",
        "##든"
      ],
      [
        "성",
        "##공"
      ],
      [
        "순",
        "##간"
      ],
      [
        "자",
        "##연"
      ],
      [
        "잘",
        "##할"
      ],
      [
        "##한",
        "##지"
      ],
      [
        "##리",
        "##가"
      ],
      [
        "##더",
        "##니"
      ],
      [
        "기다",
        "##리"
      ],
      [
        "그래",
        "##도"
      ],
      [
        "핸드",
        "##폰"
      ],
      [
        "갑",
        "##자기"
      ],
      [
        "맞",
        "##는"
      ],
      [
        "살",
        "##아"
      ],
      [
        "엄",
        "##마"
      ],
      [
        "연",
        "##습"
      ],
      [
        "인",
        "##정"
      ],
      [
        "주",
        "##말"
      ],
      [
        "한",
        "##번"
      ],
      [
        "##스",
        "##로"
      ],
      [
        "이별",
        "##이"
      ],
      [
        "사람이",
        "##랑"
      ],
      [
        "자신",
        "##의"
      ],
      [
        "중요",
        "##해요"
      ],
      [
        "##스러",
        "##운"
      ],
      [
        "조심",
        "##하세요"
      ],
      [
        "되",
        "##는"
      ],
      [
        "사",
        "##진"
      ],
      [
        "알",
        "##았는데"
      ],
      [
        "엄",
        "##청"
      ],
      [
        "없",
        "##을"
      ],
      [
        "잊",
        "##혀"
      ],
      [
        "합",
        "##니다"
      ],
      [
        "했",
        "##는데"
      ],
      [
        "사람",
        "##들이"
      ],
      [
        "모르",
        "##는"
      ],
      [
        "가",
        "##끔"
      ],
      [
        "모",
        "##두"
      ],
      [
        "복",
        "##잡"
      ],
      [
        "스",
        "##스로"
      ],
      [
        "얼",
        "##굴"
      ],
      [
        "없",
        "##네"
      ],
      [
        "예",
        "##의"
      ],
      [
        "예",
        "##뻐"
      ],
      [
        "왔",
        "##어"
      ],
      [
        "재",
        "##밌"
      ],
      [
        "##적",
        "##이"
      ],
      [
        "##하",
        "##겠어요"
      ],
      [
        "##지",
        "##지"
      ],
      [
        "##수",
        "##록"
      ],
      [
        "좋아",
        "##할"
      ],
      [
        "여자",
        "##가"
      ],
      [
        "필요",
        "##한"
      ],
      [
        "날",
        "##씨"
      ],
      [
        "남",
        "##편"
      ],
      [
        "상",
        "##관"
      ],
      [
        "쉬",
        "##운"
      ],
      [
        "자",
        "##주"
      ],
      [
        "지",
        "##내"
      ],
      [
        "##달",
        "##라고"
      ],
      [
        "##같",
        "##은"
      ],
      [
        "##마",
        "##세요"
      ],
      [
        "##폭",
        "##풍"
      ],
      [
        "만나",
        "##고"
      ],
      [
        "짝남",
        "##한테"
      ],
      [
        "정리",
        "##가"
      ],
      [
        "소개",
        "##팅"
      ],
      [
        "떠",
        "##나"
      ],
      [
        "마",
        "##시"
      ],
      [
        "뭘",
        "##까"
      ],
      [
        "보",
        "##이"
      ],
      [
        "보",
        "##는"
      ],
      [
        "아",
        "##픈"
      ],
      [
        "알",
        "##바"
      ],
      [
        "저",
        "##랑"
      ],
      [
        "##었",
        "##는데"
      ],
      [
        "##왔",
        "##어"
      ],
      [
        "사람",
        "##한테"
      ],
      [
        "당신",
        "##이"
      ],
      [
        "기분",
        "##이"
      ],
      [
        "눈",
        "##물"
      ],
      [
        "되",
        "##나"
      ],
      [
        "무",
        "##서"
      ],
      [
        "무",
        "##시"
      ],
      [
        "실",
        "##수"
      ],
      [
        "싶",
        "##어요"
      ],
      [
        "있",
        "##다면"
      ],
      [
        "잘",
        "##하는"
      ],
      [
        "짜",
        "##증"
      ],
      [
        "피",
        "##곤"
      ],
      [
        "후",
        "##폭풍"
      ],
      [
        "##거",
        "##리"
      ],
      [
        "##다",
        "##니"
      ],
      [
        "##기",
        "##로"
      ],
      [
        "##없",
        "##이"
      ],
      [
        "##력",
        "##이"
      ],
      [
        "생각",
        "##보다"
      ],
      [
        "연락",
        "##해"
      ],
      [
        "모르",
        "##겠어요"
      ],
      [
        "어떡",
        "##해"
      ],
      [
        "나",
        "##와"
      ],
      [
        "도",
        "##와"
      ],
      [
        "별",
        "##로"
      ],
      [
        "아",
        "##픔"
      ],
      [
        "정",
        "##도"
      ],
      [
        "##려",
        "##요"
      ],
      [
        "##가",
        "##고"
      ],
      [
        "##해",
        "##질"
      ],
      [
        "##건",
        "##가"
      ],
      [
        "##만",
        "##큼"
      ],
      [
        "##쁘",
        "##게"
      ],
      [
        "오늘",
        "##은"
      ],
      [
        "지금",
        "##도"
      ],
      [
        "기다",
        "##려"
      ],
      [
        "받아",
        "##들이"
      ],
      [
        "만들",
        "##어"
      ],
      [
        "가",
        "##족"
      ],
      [
        "걸",
        "##까"
      ],
      [
        "극",
        "##복"
      ],
      [
        "끝",
        "##나"
      ],
      [
        "모",
        "##습"
      ],
      [
        "뭐",
        "##가"
      ],
      [
        "붙",
        "##잡"
      ],
      [
        "빨",
        "##리"
      ],
      [
        "사",
        "##는"
      ],
      [
        "솔",
        "##직"
      ],
      [
        "잘",
        "##하고"
      ],
      [
        "지",
        "##켜"
      ],
      [
        "차",
        "##단"
      ],
      [
        "천",
        "##천"
      ],
      [
        "학",
        "##교"
      ],
      [
        "##해",
        "##줘"
      ],
      [
        "##지",
        "##가"
      ],
      [
        "##일",
        "##째"
      ],
      [
        "사랑",
        "##에"
      ],
      [
        "친구",
        "##랑"
      ],
      [
        "괜찮",
        "##은"
      ],
      [
        "천천",
        "##히"
      ],
      [
        "감",
        "##기"
      ],
      [
        "것",
        "##이"
      ],
      [
        "그",
        "##분"
      ],
      [
        "끝",
        "##났"
      ],
      [
        "다",
        "##녀"
      ],
      [
        "따",
        "##뜻"
      ],
      [
        "마",
        "##주"
      ],
      [
        "벌",
        "##써"
      ],
      [
        "보",
        "##여"
      ],
      [
        "설",
        "##레"
      ],
      [
        "자",
        "##기"
      ],
      [
        "점",
        "##점"
      ],
      [
        "확",
        "##신이"
      ],
      [
        "환",
        "##승"
      ],
      [
        "##시",
        "##간"
      ],
      [
        "##기",
        "##까지"
      ],
      [
        "##같",
        "##아"
      ],
      [
        "##마",
        "##다"
      ],
      [
        "맛있",
        "##게"
      ],
      [
        "인연",
        "##이"
      ],
      [
        "내",
        "##려"
      ],
      [
        "두",
        "##려"
      ],
      [
        "만",
        "##난"
      ],
      [
        "사",
        "##세요"
      ],
      [
        "살",
        "##펴"
      ],
      [
        "아",
        "##이"
      ],
      [
        "운",
        "##명"
      ],
      [
        "직",
        "##장"
      ],
      [
        "하",
        "##죠"
      ],
      [
        "하",
        "##는데"
      ],
      [
        "힘",
        "##이"
      ],
      [
        "##이",
        "##면"
      ],
      [
        "##기",
        "##는"
      ],
      [
        "##주",
        "##는"
      ],
      [
        "##드",
        "##릴게요"
      ],
      [
        "사람",
        "##도"
      ],
      [
        "자신",
        "##이"
      ],
      [
        "당신",
        "##을"
      ],
      [
        "다가",
        "##가"
      ],
      [
        "날",
        "##이"
      ],
      [
        "놓",
        "##아"
      ],
      [
        "배",
        "##우"
      ],
      [
        "봐",
        "##요"
      ],
      [
        "잠",
        "##시"
      ],
      [
        "주",
        "##변"
      ],
      [
        "첫",
        "##사랑"
      ],
      [
        "행",
        "##동"
      ],
      [
        "##거",
        "##야"
      ],
      [
        "##하",
        "##나"
      ],
      [
        "##하",
        "##겠네요"
      ],
      [
        "연락",
        "##하고"
      ],
      [
        "힘들",
        "##었"
      ],
      [
        "하나",
        "##씩"
      ],
      [
        "이유",
        "##가"
      ],
      [
        "힘내",
        "##세요"
      ],
      [
        "게",
        "##임"
      ],
      [
        "나",
        "##서"
      ],
      [
        "눈",
        "##을"
      ],
      [
        "되",
        "##어"
      ],
      [
        "되",
        "##길"
      ],
      [
        "믿",
        "##어요"
      ],
      [
        "뿐",
        "##이에요"
      ],
      [
        "성",
        "##격"
      ],
      [
        "안",
        "##녕"
      ],
      [
        "익",
        "##숙"
      ],
      [
        "일",
        "##찍"
      ],
      [
        "##있",
        "##는"
      ],
      [
        "친구",
        "##들"
      ],
      [
        "##겠지",
        "##요"
      ],
      [
        "서로",
        "##에게"
      ],
      [
        "사귀",
        "##고"
      ],
      [
        "아닌",
        "##데"
      ],
      [
        "##스러",
        "##워"
      ],
      [
        "신경쓰",
        "##지"
      ],
      [
        "언젠",
        "##간"
      ],
      [
        "많았",
        "##어요"
      ],
      [
        "!",
        "##!"
      ],
      [
        "2",
        "##년"
      ],
      [
        "나",
        "##도"
      ],
      [
        "나",
        "##을"
      ],
      [
        "놀",
        "##러"
      ],
      [
        "도",
        "##전"
      ],
      [
        "마",
        "##련"
      ],
      [
        "무",
        "##엇"
      ],
      [
        "바",
        "##라"
      ],
      [
        "받",
        "##고"
      ],
      [
        "스",
        "##타"
      ],
      [
        "슬",
        "##픈"
      ],
      [
        "않",
        "##죠"
      ],
      [
        "있",
        "##나"
      ],
      [
        "즐",
        "##거"
      ],
      [
        "지",
        "##났"
      ],
      [
        "집",
        "##착"
      ],
      [
        "해",
        "##주세요"
      ],
      [
        "##리",
        "##지"
      ],
      [
        "##이",
        "##별"
      ],
      [
        "##다",
        "##보면"
      ],
      [
        "##로",
        "##워"
      ],
      [
        "힘들",
        "##다"
      ],
      [
        "가",
        "##서"
      ],
      [
        "거",
        "##죠"
      ],
      [
        "관",
        "##리"
      ],
      [
        "나",
        "##아"
      ],
      [
        "나",
        "##오"
      ],
      [
        "느",
        "##껴"
      ],
      [
        "아",
        "##는"
      ],
      [
        "오",
        "##랜"
      ],
      [
        "이",
        "##겨"
      ],
      [
        "자",
        "##존"
      ],
      [
        "전",
        "##여"
      ],
      [
        "주",
        "##무"
      ],
      [
        "후",
        "##련"
      ],
      [
        "##에",
        "##도"
      ],
      [
        "##래",
        "##도"
      ],
      [
        "##남",
        "##친"
      ],
      [
        "힘들",
        "##게"
      ],
      [
        "만나",
        "##는"
      ],
      [
        "행복",
        "##해"
      ],
      [
        "있었",
        "##나봐요"
      ],
      [
        "거",
        "##짓"
      ],
      [
        "끝",
        "##이"
      ],
      [
        "다",
        "##행"
      ],
      [
        "말",
        "##이"
      ],
      [
        "뭐",
        "##야"
      ],
      [
        "알",
        "##게"
      ],
      [
        "여",
        "##유"
      ],
      [
        "연",
        "##인"
      ],
      [
        "용",
        "##기"
      ],
      [
        "우",
        "##울"
      ],
      [
        "원",
        "##하는"
      ],
      [
        "위",
        "##해"
      ],
      [
        "일",
        "##어나"
      ],
      [
        "잊",
        "##지"
      ],
      [
        "자",
        "##체"
      ],
      [
        "최",
        "##고"
      ],
      [
        "카",
        "##페"
      ],
      [
        "포",
        "##기"
      ],
      [
        "헷",
        "##갈"
      ],
      [
        "##이",
        "##는"
      ],
      [
        "##하",
        "##길"
      ],
      [
        "##생",
        "##활"
      ],
      [
        "좋아",
        "##해"
      ],
      [
        "생각",
        "##할"
      ],
      [
        "이별",
        "##한지"
      ],
      [
        "아무",
        "##것도"
      ],
      [
        "아무",
        "##래도"
      ],
      [
        "이상",
        "##형"
      ],
      [
        "##이었",
        "##을"
      ],
      [
        "못하",
        "##겠어"
      ],
      [
        "곳",
        "##으로"
      ],
      [
        "꿈",
        "##에"
      ],
      [
        "나",
        "##중"
      ],
      [
        "눈",
        "##이"
      ],
      [
        "되",
        "##지"
      ],
      [
        "먹",
        "##으면"
      ],
      [
        "부",
        "##족"
      ],
      [
        "비",
        "##싸"
      ],
      [
        "소",
        "##중"
      ],
      [
        "썸",
        "##타"
      ],
      [
        "없",
        "##이"
      ],
      [
        "응",
        "##원"
      ],
      [
        "이",
        "##어"
      ],
      [
        "전",
        "##에"
      ],
      [
        "했",
        "##어"
      ],
      [
        "##어",
        "##야"
      ],
      [
        "##정",
        "##이"
      ],
      [
        "##했",
        "##어요"
      ],
      [
        "##지",
        "##고"
      ],
      [
        "##사",
        "##를"
      ],
      [
        "##르",
        "##고"
      ],
      [
        "##여",
        "##행"
      ],
      [
        "##여",
        "##보세요"
      ],
      [
        "사랑",
        "##했던"
      ],
      [
        "이별",
        "##후"
      ],
      [
        "지금",
        "##은"
      ],
      [
        "보고",
        "##싶"
      ],
      [
        "여친",
        "##이"
      ],
      [
        "먹어",
        "##야지"
      ],
      [
        "귀찮",
        "##아"
      ],
      [
        "주무",
        "##세요"
      ],
      [
        "거짓",
        "##말"
      ],
      [
        "금",
        "##방"
      ],
      [
        "늦",
        "##지"
      ],
      [
        "다",
        "##를"
      ],
      [
        "데",
        "##려"
      ],
      [
        "많",
        "##아요"
      ],
      [
        "미",
        "##안"
      ],
      [
        "보",
        "##면"
      ],
      [
        "보",
        "##통"
      ],
      [
        "부",
        "##러"
      ],
      [
        "생",
        "##일"
      ],
      [
        "싶",
        "##네요"
      ],
      [
        "싸",
        "##우"
      ],
      [
        "없",
        "##죠"
      ],
      [
        "전",
        "##남친"
      ],
      [
        "죽",
        "##을"
      ],
      [
        "##한",
        "##데"
      ],
      [
        "##었",
        "##나봐요"
      ],
      [
        "##져",
        "##요"
      ],
      [
        "##더",
        "##라"
      ],
      [
        "##버",
        "##렸"
      ],
      [
        "좋아",
        "##하면"
      ],
      [
        "좋아",
        "##하게"
      ],
      [
        "친구",
        "##를"
      ],
      [
        "괜찮",
        "##을까"
      ],
      [
        "필요",
        "##해"
      ],
      [
        "필요",
        "##해요"
      ],
      [
        "사귀",
        "##는"
      ],
      [
        "그녀",
        "##를"
      ],
      [
        "않아",
        "##도"
      ],
      [
        "가져",
        "##보세요"
      ],
      [
        "예의",
        "##가"
      ],
      [
        "나중",
        "##에"
      ],
      [
        "가",
        "##야"
      ],
      [
        "건",
        "##지"
      ],
      [
        "고",
        "##생"
      ],
      [
        "대",
        "##로"
      ],
      [
        "때",
        "##까지"
      ],
      [
        "맨",
        "##날"
      ],
      [
        "미",
        "##리"
      ],
      [
        "받",
        "##는"
      ],
      [
        "부",
        "##분"
      ],
      [
        "소",
        "##식"
      ],
      [
        "애",
        "##가"
      ],
      [
        "어",
        "##렵"
      ],
      [
        "없",
        "##네요"
      ],
      [
        "우",
        "##산"
      ],
      [
        "월",
        "##급"
      ],
      [
        "일",
        "##을"
      ],
      [
        "잊",
        "##는"
      ],
      [
        "작",
        "##은"
      ],
      [
        "잠",
        "##이"
      ],
      [
        "주",
        "##는"
      ],
      [
        "중",
        "##에"
      ],
      [
        "진",
        "##정"
      ],
      [
        "충",
        "##전"
      ],
      [
        "##리",
        "##를"
      ],
      [
        "##했",
        "##으면"
      ],
      [
        "##겠",
        "##습니다"
      ],
      [
        "##들",
        "##어"
      ],
      [
        "##사",
        "##친"
      ],
      [
        "##움",
        "##을"
      ],
      [
        "이별",
        "##의"
      ],
      [
        "친구",
        "##한테"
      ],
      [
        "만나",
        "##지"
      ],
      [
        "당신",
        "##은"
      ],
      [
        "중요",
        "##하지"
      ],
      [
        "##이라",
        "##면"
      ],
      [
        "짝녀",
        "##한테"
      ],
      [
        "감정",
        "##을"
      ],
      [
        "헤어졌",
        "##습니다"
      ],
      [
        "##해주",
        "##는"
      ],
      [
        "만났",
        "##어"
      ],
      [
        "##스럽",
        "##게"
      ],
      [
        "확인",
        "##해보세요"
      ],
      [
        "남편",
        "##이"
      ],
      [
        "살펴",
        "##보세요"
      ],
      [
        "전여",
        "##친"
      ],
      [
        "가",
        "##세요"
      ],
      [
        "기",
        "##회"
      ],
      [
        "드",
        "##는"
      ],
      [
        "로",
        "##맨"
      ],
      [
        "바",
        "##쁜"
      ],
      [
        "받",
        "##을"
      ],
      [
        "방",
        "##학"
      ],
      [
        "비",
        "##밀"
      ],
      [
        "생",
        "##길"
      ],
      [
        "쉬",
        "##고"
      ],
      [
        "시",
        "##험"
      ],
      [
        "아",
        "##름"
      ],
      [
        "안",
        "##해"
      ],
      [
        "안",
        "##나"
      ],
      [
        "알",
        "##고"
      ],
      [
        "앞",
        "##에"
      ],
      [
        "약",
        "##속"
      ],
      [
        "예",
        "##쁘게"
      ],
      [
        "자",
        "##책"
      ],
      [
        "잠",
        "##깐"
      ],
      [
        "종",
        "##교"
      ],
      [
        "편",
        "##이"
      ],
      [
        "하",
        "##늘"
      ],
      [
        "해",
        "##봐요"
      ],
      [
        "흘",
        "##렀"
      ],
      [
        "##대",
        "##요"
      ],
      [
        "##이",
        "##가"
      ],
      [
        "##하",
        "##려"
      ],
      [
        "##하",
        "##시"
      ],
      [
        "##하",
        "##겠죠"
      ],
      [
        "##해",
        "##야지"
      ],
      [
        "##장",
        "##이"
      ],
      [
        "##으",
        "##니"
      ],
      [
        "##아",
        "##서"
      ],
      [
        "##건",
        "##지"
      ],
      [
        "사랑",
        "##해주세요"
      ],
      [
        "좋아하는",
        "##데"
      ],
      [
        "연락",
        "##해도"
      ],
      [
        "힘들",
        "##죠"
      ],
      [
        "고민",
        "##이야"
      ],
      [
        "관심",
        "##이"
      ],
      [
        "언제",
        "##나"
      ],
      [
        "누구",
        "##나"
      ],
      [
        "변화",
        "##가"
      ],
      [
        "확실",
        "##한"
      ],
      [
        "남자애",
        "##가"
      ],
      [
        "가",
        "##기"
      ],
      [
        "같",
        "##습니다"
      ],
      [
        "꾸",
        "##준"
      ],
      [
        "끝",
        "##내"
      ],
      [
        "돈",
        "##이"
      ],
      [
        "마",
        "##셔"
      ],
      [
        "맞",
        "##춰"
      ],
      [
        "멋",
        "##진"
      ],
      [
        "미",
        "##치"
      ],
      [
        "바",
        "##로"
      ],
      [
        "바",
        "##쁘"
      ],
      [
        "분",
        "##위"
      ],
      [
        "시",
        "##원"
      ],
      [
        "않",
        "##고"
      ],
      [
        "없",
        "##다면"
      ],
      [
        "이",
        "##번"
      ],
      [
        "장",
        "##난"
      ],
      [
        "적",
        "##당"
      ],
      [
        "즐",
        "##기"
      ],
      [
        "타",
        "##고"
      ],
      [
        "허",
        "##전"
      ],
      [
        "##리",
        "##게"
      ],
      [
        "##가",
        "##세요"
      ],
      [
        "##하",
        "##니"
      ],
      [
        "##겠",
        "##네"
      ],
      [
        "##들",
        "##은"
      ],
      [
        "##기",
        "##만"
      ],
      [
        "##야",
        "##죠"
      ],
      [
        "사랑",
        "##할"
      ],
      [
        "사랑",
        "##하고"
      ],
      [
        "생각",
        "##만"
      ],
      [
        "힘들",
        "##어요"
      ],
      [
        "짝남",
        "##이랑"
      ],
      [
        "고민",
        "##이"
      ],
      [
        "##이라",
        "##는"
      ],
      [
        "아닌",
        "##지"
      ],
      [
        "그래",
        "##요"
      ],
      [
        "맛있",
        "##는"
      ],
      [
        "궁금",
        "##해"
      ],
      [
        "재미",
        "##있"
      ],
      [
        "알려",
        "##줘"
      ],
      [
        "즐거",
        "##운"
      ],
      [
        "2",
        "##주"
      ],
      [
        "그",
        "##리고"
      ],
      [
        "당",
        "##연"
      ],
      [
        "됐",
        "##어"
      ],
      [
        "되",
        "##네"
      ],
      [
        "드",
        "##라"
      ],
      [
        "드",
        "##디"
      ],
      [
        "먹",
        "##을"
      ],
      [
        "못",
        "##하는"
      ],
      [
        "바",
        "##보"
      ],
      [
        "보",
        "##지"
      ],
      [
        "봅",
        "##니다"
      ],
      [
        "쇼",
        "##핑"
      ],
      [
        "스",
        "##킨"
      ],
      [
        "시",
        "##켜"
      ],
      [
        "어",
        "##울"
      ],
      [
        "어",
        "##쩌"
      ],
      [
        "여",
        "##러"
      ],
      [
        "이",
        "##러"
      ],
      [
        "절",
        "##대"
      ],
      [
        "존",
        "##중"
      ],
      [
        "좋",
        "##겠죠"
      ],
      [
        "중",
        "##인데"
      ],
      [
        "취",
        "##미"
      ],
      [
        "칭",
        "##찬"
      ],
      [
        "해",
        "##결"
      ],
      [
        "##가",
        "##네"
      ],
      [
        "##들",
        "##을"
      ],
      [
        "##야",
        "##겠다"
      ],
      [
        "##일",
        "##이"
      ],
      [
        "##더",
        "##라고"
      ],
      [
        "##잖",
        "##아요"
      ],
      [
        "힘들",
        "##겠지만"
      ],
      [
        "좋은",
        "##데"
      ],
      [
        "친구",
        "##들이"
      ],
      [
        "이제",
        "##는"
      ],
      [
        "있는",
        "##지"
      ],
      [
        "받아",
        "##들"
      ],
      [
        "상처",
        "##받"
      ],
      [
        "여자애",
        "##가"
      ],
      [
        "드디",
        "##어"
      ],
      [
        "가",
        "##면"
      ],
      [
        "간",
        "##다"
      ],
      [
        "거",
        "##기까지"
      ],
      [
        "경",
        "##우"
      ],
      [
        "곳",
        "##이"
      ],
      [
        "당",
        "##당"
      ],
      [
        "동",
        "##거"
      ],
      [
        "때",
        "##도"
      ],
      [
        "마",
        "##요"
      ],
      [
        "문",
        "##자"
      ],
      [
        "뭐",
        "##라고"
      ],
      [
        "뭔",
        "##가"
      ],
      [
        "뭔",
        "##지"
      ],
      [
        "미",
        "##워"
      ],
      [
        "싫",
        "##다"
      ],
      [
        "안",
        "##경"
      ],
      [
        "않",
        "##길"
      ],
      [
        "예",
        "##민"
      ],
      [
        "예",
        "##쁜"
      ],
      [
        "이",
        "##성"
      ],
      [
        "일",
        "##은"
      ],
      [
        "있",
        "##습니다"
      ],
      [
        "잊",
        "##고"
      ],
      [
        "자",
        "##격"
      ],
      [
        "조",
        "##언"
      ],
      [
        "지",
        "##쳤"
      ],
      [
        "차",
        "##분"
      ],
      [
        "하",
        "##셨"
      ],
      [
        "해",
        "##서"
      ],
      [
        "헤",
        "##아"
      ],
      [
        "##가",
        "##를"
      ],
      [
        "##해",
        "##져"
      ],
      [
        "##해",
        "##지는"
      ],
      [
        "##보",
        "##는게"
      ],
      [
        "##신",
        "##가봐요"
      ],
      [
        "##줄",
        "##까"
      ],
      [
        "사람",
        "##에"
      ],
      [
        "사랑",
        "##해"
      ],
      [
        "시간",
        "##은"
      ],
      [
        "괜찮",
        "##을"
      ],
      [
        "않는",
        "##다면"
      ],
      [
        "미련",
        "##이"
      ],
      [
        "어려",
        "##워"
      ],
      [
        "가슴",
        "##이"
      ],
      [
        "어느",
        "##덧"
      ],
      [
        "아닐",
        "##까요"
      ],
      [
        "짜증",
        "##나"
      ],
      [
        "두려",
        "##워"
      ],
      [
        "로맨",
        "##틱"
      ],
      [
        "자책",
        "##하지"
      ],
      [
        "##더라고",
        "##요"
      ],
      [
        "1",
        "##0"
      ],
      [
        "5",
        "##년"
      ],
      [
        "?",
        "##?"
      ],
      [
        "것",
        "##을"
      ],
      [
        "그",
        "##대로"
      ],
      [
        "기",
        "##본"
      ],
      [
        "까",
        "##먹"
      ],
      [
        "나",
        "##랑"
      ],
      [
        "되",
        "##고"
      ],
      [
        "두",
        "##달"
      ],
      [
        "못",
        "##해"
      ],
      [
        "번",
        "##호"
      ],
      [
        "보",
        "##러"
      ],
      [
        "볼",
        "##까"
      ],
      [
        "서",
        "##운"
      ],
      [
        "슬",
        "##프"
      ],
      [
        "썸",
        "##녀"
      ],
      [
        "어",
        "##쩔"
      ],
      [
        "오",
        "##는"
      ],
      [
        "취",
        "##직"
      ],
      [
        "커",
        "##플"
      ],
      [
        "타",
        "##이"
      ],
      [
        "태",
        "##어"
      ],
      [
        "해",
        "##주"
      ],
      [
        "##한",
        "##게"
      ],
      [
        "##자",
        "##리"
      ],
      [
        "##이",
        "##지"
      ],
      [
        "##가",
        "##봅니다"
      ],
      [
        "##해",
        "##졌"
      ],
      [
        "##아",
        "##보세요"
      ],
      [
        "##답",
        "##니다"
      ],
      [
        "##전",
        "##히"
      ],
      [
        "##드",
        "##려요"
      ],
      [
        "##음",
        "##이"
      ],
      [
        "##받",
        "##고"
      ],
      [
        "사랑",
        "##하면"
      ],
      [
        "생각",
        "##하고"
      ],
      [
        "마음",
        "##도"
      ],
      [
        "마음",
        "##은"
      ],
      [
        "좋아하는",
        "##게"
      ],
      [
        "헤어",
        "##져"
      ],
      [
        "방법",
        "##이"
      ],
      [
        "물어",
        "##보는"
      ],
      [
        "부담",
        "##스러워"
      ],
      [
        "안되",
        "##는"
      ],
      [
        "그러",
        "##면"
      ],
      [
        "문제",
        "##가"
      ],
      [
        "축하",
        "##해요"
      ],
      [
        "자연",
        "##스러운"
      ],
      [
        "받아들이",
        "##는"
      ],
      [
        "다행",
        "##이에요"
      ],
      [
        "타이",
        "##밍"
      ],
      [
        "갖",
        "##고"
      ],
      [
        "같",
        "##네요"
      ],
      [
        "것",
        "##보다"
      ],
      [
        "군",
        "##대"
      ],
      [
        "귀",
        "##여"
      ],
      [
        "능",
        "##력이"
      ],
      [
        "떨",
        "##려"
      ],
      [
        "말",
        "##하세요"
      ],
      [
        "뭐",
        "##든"
      ],
      [
        "배",
        "##워"
      ],
      [
        "불",
        "##편"
      ],
      [
        "사",
        "##과"
      ],
      [
        "상",
        "##담"
      ],
      [
        "선",
        "##생"
      ],
      [
        "소",
        "##리"
      ],
      [
        "용",
        "##기를"
      ],
      [
        "일",
        "##주"
      ],
      [
        "잊",
        "##을"
      ],
      [
        "자",
        "##유"
      ],
      [
        "저",
        "##를"
      ],
      [
        "적",
        "##응"
      ],
      [
        "졸",
        "##업"
      ],
      [
        "집",
        "##중"
      ],
      [
        "최",
        "##선"
      ],
      [
        "흔",
        "##들"
      ],
      [
        "##자",
        "##는"
      ],
      [
        "##리",
        "##스"
      ],
      [
        "##했",
        "##다"
      ],
      [
        "##보",
        "##여"
      ],
      [
        "##식",
        "##을"
      ],
      [
        "##때",
        "##는"
      ],
      [
        "##야",
        "##할"
      ],
      [
        "##상",
        "##이에요"
      ],
      [
        "##심",
        "##해"
      ],
      [
        "##스",
        "##크"
      ],
      [
        "##마",
        "##스"
      ],
      [
        "##연",
        "##애"
      ],
      [
        "##오",
        "##세요"
      ],
      [
        "##줬",
        "##으면"
      ],
      [
        "##버",
        "##리세요"
      ],
      [
        "사람",
        "##마다"
      ],
      [
        "힘들",
        "##겠어요"
      ],
      [
        "사람이",
        "##네요"
      ],
      [
        "기다",
        "##리고"
      ],
      [
        "준비",
        "##가"
      ],
      [
        "후회",
        "##하지"
      ],
      [
        "이상",
        "##한"
      ],
      [
        "관심",
        "##을"
      ],
      [
        "충분",
        "##한"
      ],
      [
        "헤어졌",
        "##어"
      ],
      [
        "썸남",
        "##이"
      ],
      [
        "않았",
        "##으면"
      ],
      [
        "어려",
        "##운"
      ],
      [
        "위로",
        "##해"
      ],
      [
        "화장",
        "##실"
      ],
      [
        "다음",
        "##에는"
      ],
      [
        "가지",
        "##고"
      ],
      [
        "진심",
        "##으로"
      ],
      [
        "무서",
        "##워"
      ],
      [
        "꾸준",
        "##히"
      ],
      [
        "적당",
        "##히"
      ],
      [
        "선생",
        "##님"
      ],
      [
        "가",
        "##치"
      ],
      [
        "가",
        "##야지"
      ],
      [
        "고",
        "##마"
      ],
      [
        "그",
        "##건"
      ],
      [
        "그",
        "##사람"
      ],
      [
        "끝",
        "##을"
      ],
      [
        "나",
        "##온"
      ],
      [
        "누",
        "##가"
      ],
      [
        "대",
        "##학"
      ],
      [
        "두",
        "##근"
      ],
      [
        "몰",
        "##랐"
      ],
      [
        "몸",
        "##이"
      ],
      [
        "받",
        "##았어"
      ],
      [
        "배",
        "##려"
      ],
      [
        "병",
        "##원"
      ],
      [
        "삭",
        "##제"
      ],
      [
        "생",
        "##기"
      ],
      [
        "어",
        "##색"
      ],
      [
        "연",
        "##예"
      ],
      [
        "오",
        "##빠"
      ],
      [
        "원",
        "##래"
      ],
      [
        "위",
        "##험"
      ],
      [
        "이",
        "##기"
      ],
      [
        "일",
        "##어"
      ],
      [
        "있",
        "##네요"
      ],
      [
        "있",
        "##겠어요"
      ],
      [
        "있",
        "##나요"
      ],
      [
        "있",
        "##잖아요"
      ],
      [
        "잠",
        "##을"
      ],
      [
        "잠",
        "##수"
      ],
      [
        "저",
        "##에게"
      ],
      [
        "적",
        "##극"
      ],
      [
        "제",
        "##대로"
      ],
      [
        "좋",
        "##았"
      ],
      [
        "질",
        "##투"
      ],
      [
        "집",
        "##안"
      ],
      [
        "청",
        "##소"
      ],
      [
        "출",
        "##근"
      ],
      [
        "키",
        "##우"
      ],
      [
        "하",
        "##는게"
      ],
      [
        "##한",
        "##거"
      ],
      [
        "##한",
        "##다"
      ],
      [
        "##하",
        "##려고"
      ],
      [
        "##시",
        "##켜"
      ],
      [
        "##만",
        "##의"
      ],
      [
        "##았",
        "##나봐요"
      ],
      [
        "##오",
        "##네"
      ],
      [
        "##함",
        "##이"
      ],
      [
        "사람",
        "##과"
      ],
      [
        "사람",
        "##에게"
      ],
      [
        "좋아하는",
        "##지"
      ],
      [
        "만나",
        "##보세요"
      ],
      [
        "자신",
        "##에게"
      ],
      [
        "그녀",
        "##가"
      ],
      [
        "감정",
        "##이"
      ],
      [
        "않을",
        "##까요"
      ],
      [
        "남친",
        "##이"
      ],
      [
        "후폭풍",
        "##이"
      ],
      [
        "스타",
        "##일"
      ],
      [
        "스킨",
        "##십"
      ],
      [
        "3",
        "##년"
      ],
      [
        "3",
        "##개월"
      ],
      [
        "감",
        "##사"
      ],
      [
        "경",
        "##험"
      ],
      [
        "꿈",
        "##을"
      ],
      [
        "나",
        "##눠"
      ],
      [
        "놀",
        "##이"
      ],
      [
        "눈",
        "##치"
      ],
      [
        "다",
        "##이"
      ],
      [
        "담",
        "##배"
      ],
      [
        "당",
        "##황"
      ],
      [
        "되",
        "##겠네요"
      ],
      [
        "말",
        "##하는"
      ],
      [
        "무",
        "##뎌"
      ],
      [
        "무",
        "##너"
      ],
      [
        "발",
        "##표"
      ],
      [
        "버",
        "##려"
      ],
      [
        "버",
        "##텨"
      ],
      [
        "보",
        "##냈"
      ],
      [
        "본",
        "##인"
      ],
      [
        "쉽",
        "##게"
      ],
      [
        "싫",
        "##은"
      ],
      [
        "안",
        "##타"
      ],
      [
        "안",
        "##하고"
      ],
      [
        "안",
        "##들어"
      ],
      [
        "애",
        "##랑"
      ],
      [
        "얘",
        "##기"
      ],
      [
        "어",
        "##플"
      ],
      [
        "올",
        "##려"
      ],
      [
        "일",
        "##이에요"
      ],
      [
        "좋",
        "##지"
      ],
      [
        "좋",
        "##다"
      ],
      [
        "착",
        "##각"
      ],
      [
        "편",
        "##지"
      ],
      [
        "프",
        "##로"
      ],
      [
        "프",
        "##사"
      ],
      [
        "하",
        "##기"
      ],
      [
        "해",
        "##보는"
      ],
      [
        "##인",
        "##거"
      ],
      [
        "##이",
        "##요"
      ],
      [
        "##이",
        "##라고"
      ],
      [
        "##려",
        "##면"
      ],
      [
        "##가",
        "##지"
      ],
      [
        "##하",
        "##다고"
      ],
      [
        "##었",
        "##다"
      ],
      [
        "##시",
        "##는"
      ],
      [
        "##시",
        "##길"
      ],
      [
        "##르",
        "##는"
      ],
      [
        "##내",
        "##서"
      ],
      [
        "##내",
        "##고"
      ],
      [
        "##놓",
        "##고"
      ],
      [
        "사람",
        "##의"
      ],
      [
        "좋아",
        "##한"
      ],
      [
        "만나",
        "##자고"
      ],
      [
        "자신",
        "##감을"
      ],
      [
        "있어",
        "##도"
      ],
      [
        "그런",
        "##가봐요"
      ],
      [
        "행복",
        "##한"
      ],
      [
        "보고",
        "##싶어"
      ],
      [
        "후회",
        "##할"
      ],
      [
        "서로",
        "##를"
      ],
      [
        "하나",
        "##도"
      ],
      [
        "##인가",
        "##봐"
      ],
      [
        "머리",
        "##가"
      ],
      [
        "상황",
        "##을"
      ],
      [
        "완전",
        "##히"
      ],
      [
        "성격",
        "##이"
      ],
      [
        "데려",
        "##다"
      ],
      [
        "아름",
        "##다"
      ],
      [
        "연예",
        "##인"
      ],
      [
        "같",
        "##네"
      ],
      [
        "과",
        "##정"
      ],
      [
        "귀",
        "##엽"
      ],
      [
        "기",
        "##운"
      ],
      [
        "끝",
        "##은"
      ],
      [
        "나",
        "##타"
      ],
      [
        "놀",
        "##아요"
      ],
      [
        "동",
        "##생"
      ],
      [
        "드",
        "##시"
      ],
      [
        "말",
        "##도"
      ],
      [
        "맘",
        "##고"
      ],
      [
        "먹",
        "##는"
      ],
      [
        "못",
        "##하고"
      ],
      [
        "바",
        "##빠"
      ],
      [
        "바",
        "##꿔"
      ],
      [
        "발",
        "##전"
      ],
      [
        "부",
        "##탁"
      ],
      [
        "사",
        "##실"
      ],
      [
        "살",
        "##짝"
      ],
      [
        "새",
        "##벽"
      ],
      [
        "생",
        "##긴"
      ],
      [
        "속",
        "##이"
      ],
      [
        "싶",
        "##지"
      ],
      [
        "안",
        "##됐"
      ],
      [
        "우",
        "##선"
      ],
      [
        "위",
        "##한"
      ],
      [
        "이",
        "##사"
      ],
      [
        "인",
        "##사"
      ],
      [
        "일",
        "##도"
      ],
      [
        "일",
        "##상"
      ],
      [
        "있",
        "##고"
      ],
      [
        "점",
        "##심"
      ],
      [
        "존",
        "##재"
      ],
      [
        "주",
        "##고"
      ],
      [
        "차",
        "##이"
      ],
      [
        "피",
        "##부"
      ],
      [
        "한",
        "##동안"
      ],
      [
        "해",
        "##줘"
      ],
      [
        "호",
        "##감이"
      ],
      [
        "##리",
        "##면"
      ],
      [
        "##이",
        "##길"
      ],
      [
        "##어",
        "##머"
      ],
      [
        "##했",
        "##습니다"
      ],
      [
        "##지",
        "##네"
      ],
      [
        "##었",
        "##네"
      ],
      [
        "##장",
        "##을"
      ],
      [
        "##시",
        "##다"
      ],
      [
        "##라",
        "##는"
      ],
      [
        "##라",
        "##면"
      ],
      [
        "##구",
        "##나"
      ],
      [
        "##없",
        "##는"
      ],
      [
        "##질",
        "##까"
      ],
      [
        "##워",
        "##질"
      ],
      [
        "##성",
        "##이"
      ],
      [
        "생각",
        "##하세요"
      ],
      [
        "##으면",
        "##서"
      ],
      [
        "힘들",
        "##지"
      ],
      [
        "만나",
        "##세요"
      ],
      [
        "혼자",
        "##가"
      ],
      [
        "기다",
        "##릴"
      ],
      [
        "아무",
        "##리"
      ],
      [
        "시작",
        "##해보세요"
      ],
      [
        "##인가",
        "##요"
      ],
      [
        "돌아",
        "##오"
      ],
      [
        "축하",
        "##드려요"
      ],
      [
        "말씀",
        "##해주세요"
      ],
      [
        "그리",
        "##워"
      ],
      [
        "연습",
        "##을"
      ],
      [
        "눈물",
        "##이"
      ],
      [
        "놓아",
        "##주세요"
      ],
      [
        "무엇",
        "##이"
      ],
      [
        "##리스",
        "##마스"
      ],
      [
        "맘고",
        "##생"
      ],
      [
        "S",
        "##N"
      ],
      [
        "가",
        "##자고"
      ],
      [
        "갈",
        "##까"
      ],
      [
        "걸",
        "##로"
      ],
      [
        "계",
        "##획"
      ],
      [
        "고",
        "##쳐"
      ],
      [
        "괜",
        "##히"
      ],
      [
        "괴",
        "##롭"
      ],
      [
        "그",
        "##럼"
      ],
      [
        "그",
        "##랬"
      ],
      [
        "다",
        "##니"
      ],
      [
        "되",
        "##는데"
      ],
      [
        "듣",
        "##고"
      ],
      [
        "따",
        "##로"
      ],
      [
        "떠",
        "##난"
      ],
      [
        "면",
        "##접"
      ],
      [
        "목",
        "##소"
      ],
      [
        "못",
        "##한"
      ],
      [
        "무",
        "##섭"
      ],
      [
        "바",
        "##뀌"
      ],
      [
        "받",
        "##지"
      ],
      [
        "배",
        "##고"
      ],
      [
        "버",
        "##스"
      ],
      [
        "비",
        "##가"
      ],
      [
        "살",
        "##까"
      ],
      [
        "상",
        "##사"
      ],
      [
        "속",
        "##상"
      ],
      [
        "쉬",
        "##는"
      ],
      [
        "쓰",
        "##레"
      ],
      [
        "아",
        "##는데"
      ],
      [
        "애",
        "##매"
      ],
      [
        "없",
        "##다"
      ],
      [
        "없",
        "##나"
      ],
      [
        "없",
        "##애"
      ],
      [
        "외",
        "##로워"
      ],
      [
        "우",
        "##연"
      ],
      [
        "의",
        "##지"
      ],
      [
        "이",
        "##름"
      ],
      [
        "이",
        "##용"
      ],
      [
        "자",
        "##고"
      ],
      [
        "저",
        "##녁"
      ],
      [
        "주",
        "##면"
      ],
      [
        "지",
        "##우"
      ],
      [
        "지",
        "##쳐"
      ],
      [
        "크",
        "##리스마스"
      ],
      [
        "퇴",
        "##근"
      ],
      [
        "피",
        "##해"
      ],
      [
        "학",
        "##원"
      ],
      [
        "한",
        "##잔"
      ],
      [
        "했",
        "##던"
      ],
      [
        "현",
        "##상이에요"
      ],
      [
        "##이",
        "##다"
      ],
      [
        "##봐",
        "##도"
      ],
      [
        "##어",
        "##트"
      ],
      [
        "##말",
        "##고"
      ],
      [
        "##하",
        "##다면"
      ],
      [
        "##었",
        "##을"
      ],
      [
        "##나",
        "##는"
      ],
      [
        "##력",
        "##을"
      ],
      [
        "##드",
        "##세요"
      ],
      [
        "##두",
        "##세요"
      ],
      [
        "##음",
        "##을"
      ],
      [
        "##냐",
        "##고"
      ],
      [
        "생각",
        "##하는"
      ],
      [
        "연락",
        "##하면"
      ],
      [
        "남자",
        "##를"
      ],
      [
        "##하지",
        "##마세요"
      ],
      [
        "친구",
        "##로"
      ],
      [
        "만나",
        "##서"
      ],
      [
        "좋을",
        "##텐데"
      ],
      [
        "모르",
        "##겠네요"
      ],
      [
        "이야기",
        "##해보세요"
      ],
      [
        "여자친구",
        "##와"
      ],
      [
        "이상",
        "##해"
      ],
      [
        "사랑하는",
        "##데"
      ],
      [
[...]
